. 213862
, 165290
▁ 134558
s 112187
▁the_en 83192
' 52685
▁to_en 44720
▁of_en 43999
- 36118
▁and_en 35855
▁a_en 33417
? 32890
▁in_en 28827
▁you_en 28466
▁- 28430
▁I_en 27977
▁( 26941
t 25746
) 24781
e 24529
: 22114
ed_en 21142
a 20157
▁is_en 19969
d 19804
▁for_en 17793
▁that_en 16407
ing_en 16100
i 15370
! 14685
▁be_en 14308
▁it_en 13557
... 13473
n 12975
y 12310
m 12233
▁on_en 12213
، 11759
▁not_en 11305
o 10921
/ 10526
▁ال_ar 10512
▁with 10407
▁" 9745
u 9696
ية 9583
▁The_en 9382
ly_en 9342
▁have_en 9011
▁are_en 8981
ة 8972
▁_ 8801
▁this_en 8516
; 8404
▁your_en 7416
▁will_en 7331
▁was_en 7164
r 7046
▁You 7035
▁as_en 6982
▁me_en 6969
▁they 6874
▁% 6868
▁في 6796
▁from_en 6681
▁we_en 6528
▁by_en 6421
al_en 6399
re_en 6369
▁or_en 6230
▁፡ 6071
es_en 6031
er_en 5894
▁de_en 5804
▁do_en 5773
▁them 5686
▁He_en 5530
c 5504
▁We_en 5423
▁who 5409
ه 5360
▁he_en 5323
▁all_en 5286
ve_en 5279
▁And 5236
▁من_ar 5146
▁at_en 5113
▁و_ar 5054
ات_ar 5049
▁an_en 5008
ation_en 5003
▁know 5002
ي 4988
▁my_en 4908
▁can_en 4872
▁الن 4768
_ 4702
k 4652
▁It_en 4602
▁re_en 4586
te_en 4529
▁out_en 4508
l 4443
▁what 4423
" 4301
▁الم 4294
▁A_en 4294
h 4286
’ 4228
م 4219
p 4203
▁has_en 4151
▁there 4076
▁their 4062
وو_ar 4040
▁him 4016
▁so_en 4000
▁but 3906
b 3893
g 3866
▁) 3836
ت 3790
▁& 3762
▁' 3733
ce_en 3715
ll_en 3711
▁Allah_en 3697
▁which 3632
▁like_en 3596
▁one 3585
▁up 3519
▁no_en 3493
ar_en 3480
▁if_en 3452
▁No_en 3428
▁shall 3425
se_en 3395
ment_en 3387
tion_en 3385
w 3380
in_en 3332
▁e_en 3325
▁his_en 3210
ها_ar 3185
th_en 3160
ty_en 3159
▁about 3153
▁right 3102
▁just 3099
z 3093
ny_mg 3093
▁go_en 3078
▁don_en 3055
▁when_en 3045
ted 3007
f 3001
▁ny_mg 2997
دة 2994
A 2976
▁been 2957
le_en 2941
▁here 2929
▁ت_ar 2929
▁1 2908
و 2908
▁لل 2903
▁were_en 2850
S 2824
▁This_en 2782
▁those 2781
▁What 2773
ge_en 2763
▁get_en 2730
j 2727
▁على 2713
C 2709
▁الت 2700
▁her_en 2693
أسلحة 2687
able_en 2687
ም 2685
▁se_en 2673
▁would 2662
▁should_en 2658
x 2652
▁In_en 2650
▁other 2622
ck_en 2576
▁[ 2549
и 2521
en_en 2517
اه_ar 2485
▁God 2478
▁any_en 2473
▁م_ar 2471
▁want 2459
▁us_en 2454
▁But 2435
▁had_en 2435
▁people 2406
ity_en 2399
ا 2393
▁time_en 2390
▁name_en 2352
▁say_en 2352
ر 2348
▁un_en 2324
ther 2319
▁C_en 2293
▁أ 2290
▁s_en 2283
▁Your 2281
▁said 2274
▁some 2268
] 2253
▁Re_en 2232
▁If 2222
▁They 2215
I 2211
ن 2205
▁de_fr 2204
▁So_en 2201
▁got 2199
▁size_en 2178
ل 2173
▁“ 2168
▁da_ha 2158
▁la_en 2157
▁back 2156
( 2148
de_en 2136
ers_en 2129
▁see_en 2127
▁paper_en 2123
▁think 2121
▁more_en 2120
▁en_en 2088
ch_en 2084
▁أن 2074
▁our 2070
." 2068
▁she_en 2065
▁over_en 2058
لة 2048
▁That 2045
▁! 2043
▁only 2041
ك 2031
▁new 2020
▁2 2019
▁الدول 2009
@ 2000
▁a_ga 1997
的 1994
▁come_en 1984
▁may 1981
ب 1969
▁good 1965
▁S_en 1965
е 1952
▁take_en 1933
а 1925
▁its 1925
▁ta_mt 1918
▁then 1916
▁down 1909
ق 1907
ز 1902
on_en 1898
ش 1887
▁now 1881
▁de_es 1880
v 1879
। 1867
▁make 1856
B 1835
▁Do_en 1834
▁into_en 1833
ع 1827
▁could 1827
ን 1826
▁مع_ar 1820
▁than 1807
м 1796
▁إلى 1796
ight 1792
us_en 1791
▁وال 1780
ful 1779
% 1774
▁need_en 1773
▁Lord 1772
▁اور 1743
▁المع 1742
▁: 1730
ting 1724
▁3 1722
F 1719
at_en 1713
▁« 1702
ving 1696
▁? 1689
▁way 1682
▁file_en 1679
د 1669
▁an_ga 1668
▁tal_mt 1667
ne_en 1665
▁# 1656
▁did 1650
M 1646
2 1633
▁man_en 1629
▁work_en 1621
H 1620
▁O_en 1618
ض 1612
st_en 1612
to_en 1608
▁Yeah 1607
ance_en 1607
▁how 1600
▁use 1581
ke_en 1575
▁believe 1570
▁ل_ar 1567
▁All 1559
O 1555
ous 1553
ad_en 1553
\ 1551
▁con_en 1540
▁after_en 1539
▁where 1535
ry_en 1521
у 1519
▁She 1519
▁before 1515
▁التي 1507
▁E_en 1507
ning_en 1497
ح 1496
▁There 1496
▁made 1495
ول_ar 1494
▁Article 1489
▁... 1488
▁l_mt 1487
▁under_en 1477
▁co_en 1470
▁ب_ar 1469
▁W_en 1466
ts_en 1463
▁të 1462
▁two 1462
ver_en 1460
king_en 1455
كا_ar 1453
▁European 1448
。 1445
▁also 1437
T 1434
ين_ar 1433
▁To_en 1430
يا_ar 1424
▁– 1419
▁الأ 1409
й 1408
W 1403
مان_ar 1397
▁ا_ar 1386
▁sa_en 1383
▁na_ga 1375
▁10 1370
▁gonna 1366
ی 1366
ف 1365
or_en 1362
اد_ar 1361
red_en 1359
ated 1357
an_en 1356
▁per_en 1351
ص 1350
id_en 1348
н 1346
ved 1342
▁these 1338
▁Oh_en 1338
▁going 1332
▁أو 1330
▁u_sh 1328
et_en 1320
شار 1309
▁must 1307
▁Commission_en 1297
▁amin_mg 1291
▁Well 1289
ive 1285
▁help 1284
as_en 1281
sh_en 1279
▁off_en 1272
▁su_en 1270
ence_en 1268
▁find 1267
ir_en 1264
т 1262
3 1256
ter_en 1255
ion_en 1253
▁For_en 1251
▁give_en 1248
P 1241
л 1239
▁His 1237
▁4 1227
ام_ar 1225
ى 1209
” 1208
▁5 1206
▁i_sh 1203
▁u_mt 1203
▁set 1199
غ 1197
D 1196
▁ي_ar 1196
▁am_en 1190
▁first 1189
▁used 1188
▁a_ha 1188
▁کے 1187
ث 1185
▁li_mt 1182
▁comp_en 1181
▁ن_ar 1180
▁li_en 1179
▁ex_en 1176
▁Member 1172
me_en 1169
▁agus 1164
▁look 1163
ذ 1161
▁الح 1160
▁such 1154
я 1153
لمؤتمر 1153
▁show 1150
▁let 1150
▁السل 1150
▁life 1149
دا_ar 1148
ach_en 1146
▁ہے 1145
▁even_en 1145
▁My 1144
▁الو 1143
▁عن 1142
ur_en 1142
▁la_fr 1136
▁'% 1135
▁report 1135
▁day 1132
▁"% 1130
▁tell 1130
ness 1129
š 1129
▁(_ 1127
اء 1125
▁place_en 1125
ary_en 1122
tain 1120
▁إ 1120
ster_en 1120
▁because 1118
▁too 1117
ever 1115
ma_en 1115
▁da_en 1114
▁sub 1113
▁does 1109
il_en 1109
no_en 1102
▁ra_en 1100
ding_en 1096
▁de_pt 1095
▁call 1094
▁very 1093
ations_en 1093
N 1090
▁between 1086
E 1086
▁well 1085
▁States 1076
1 1075
▁بال 1074
к 1073
▁fa_en 1071
▁Pro 1069
▁something 1066
▁ye_en 1066
the_en 1066
EC 1065
ج 1063
▁19 1062
▁Regulation 1059
ic_en 1053
ction_en 1049
ш 1048
day 1048
▁de_nl 1048
▁un_lv 1046
ط 1044
ven_en 1044
é 1039
р 1038
L 1038
▁never 1038
▁Mr 1036
í 1036
▁الأطراف 1036
▁Lo_en 1032
ৰ 1030
▁Con_en 1026
G 1021
ate 1020
▁Co_en 1020
co_en 1018
راض 1017
▁है 1015
▁information 1010
▁La_en 1010
ti_en 1006
li_en 1004
с 1003
▁open_en 1003
tic 1001
▁system_en 999
▁ad_en 998
ho_en 996
▁Sa_en 994
▁didn 993
ant_en 991
اح 989
cy_en 989
▁long 988
ten_en 987
ال_ar 986
▁own 981
Y 979
▁little 977
body 976
▁years 976
▁za_sh 975
cal_en 975
▁Can 974
▁How 971
▁through 970
▁De_en 970
خ 969
ure_en 967
▁20 966
▁number 965
▁Then 963
▁میں 958
▁against 958
▁When 956
ta_en 956
▁change_en 952
▁File 949
▁Council 948
▁Yes 947
ling_en 947
▁et_fr 945
▁Un_en 945
▁love 943
▁P_en 943
com_en 940
▁la_es 939
▁every 935
▁Why 934
▁sent 932
▁mean 931
▁ne_ha 928
ما_ar 928
▁ask 926
▁bo_en 924
▁سے 923
▁Ma_en 923
▁really 922
▁play 921
ties_en 919
▁support 918
ca_en 917
▁turn 916
est_en 916
▁و_ku 915
▁B_en 914
فا 911
▁case 911
". 909
▁di_it 909
▁still 908
▁away 904
▁world 903
▁part 902
▁لا_ar 902
▁pro_en 901
▁کی_ur 900
V 899
▁Who 899
▁los_en 899
▁Let 896
ship 896
يل_ar 895
▁عدم 894
4 892
▁a_pt 892
▁a_hu 890
U 888
त 887
▁c_en 886
q 885
▁tra_en 885
▁6 884
和 884
der_en 882
low 881
ely 879
▁dis_en 878
؟ 877
▁e_sq 875
▁12 874
▁ir_lt 874
▁ga_en 874
х 873
ps 873
▁7 872
ture_en 871
▁l_fr 870
▁car_en 869
▁test_en 869
un_en 869
▁being 867
▁des_fr 865
▁в_ru 865
▁put 864
▁En_en 863
▁‘ 861
▁much 860
نى_ug 860
sed_en 855
▁15 854
▁i_nb 854
▁great 854
يد_ar 854
▁current 853
tes_en 852
less_en 852
5 850
▁last 850
ings 850
▁በ 850
ok_en 849
▁most_en 849
▁hand_en 849
ci_en 848
▁9 846
ə 845
▁kuma_ha 844
ng_en 844
ally 843
▁غير 842
▁a_gd 840
of 839
▁और 836
▁ки_tg 835
▁/ 833
▁fl_en 833
ny_en 833
▁same 831
▁night 831
س 830
▁الان 830
go_en 830
▁1. 826
▁each 825
▁Him 824
、 824
▁move 820
▁while 818
▁thing 816
fe_en 816
▁8 815
▁» 815
▁email 813
▁things 813
▁found 809
▁و_fa 809
▁االله_ug 808
▁وت 807
أ 807
▁As_en 807
▁point_en 807
mo_en 806
ã 805
und 803
لا_ar 800
mit_en 800
▁earth 797
ā 796
▁que_es 796
▁list 795
▁Is_en 795
▁ar_ga 793
▁home_en 792
▁image 789
▁le_ga 789
den_en 789
▁Don 788
▁sign 786
ent_en 785
di_en 784
▁message 783
▁Hey 783
▁another 783
▁Union 780
▁les_fr 780
ą 778
▁folder 774
▁ва_tg 774
▁many 773
▁Be_en 771
be_en 771
▁without 768
à 767
▁order 767
mission 766
▁why 766
▁i_ga 766
▁Su_en 766
ft_en 766
load 763
▁le_fr 763
▁high 762
▁à_fr 762
he_en 762
we_en 762
▁New 761
side 761
lo_en 761
ы 760
mark 760
ground 760
▁عام 760
pe_en 760
▁upon 759
▁following 759
▁لم 759
▁Se_en 755
▁bu_en 754
▁Not 752
ት 752
▁M_en 752
▁better 750
قة 750
em_en 750
▁ho_en 750
ath_en 749
▁ha_en 749
▁du_en 749
K 748
led 748
▁Bo 747
▁doing 746
▁il_mt 745
ner_en 745
؛ 744
▁a_es 740
▁и_ru 740
▁wrong 737
ú 737
= 736
▁ro 736
▁again 735
ų 733
na_en 733
vil 732
ير_ar 732
▁Just 731
▁دو_ar 731
for_en 731
▁files 730
▁exp 730
▁se_sh 730
▁na_sh 730
▁— 728
ে 728
طاقة 728
زع 727
▁po_en 727
▁Now 726
بر_ar 725
▁plan_en 725
son_en 725
▁sho 723
▁Le_en 720
les_en 720
تها 719
▁among 718
न 718
▁w_en 717
▁og_nb 715
ger_en 715
▁di_en 714
▁ma_en 714
tive 713
▁account 712
▁data_en 712
▁Book 709
▁Mo 709
▁de_ca 708
▁هذه 707
la_en 707
▁на_mk 706
ê 705
▁və 705
▁war_en 705
▁action 704
tions_en 704
▁year 703
▁tri_en 703
▁best 702
▁f_en 701
▁L_en 700
▁ne_en 700
▁start 699
ies_en 699
om_en 698
▁Go_en 698
ና 697
long 697
▁کو_ur 696
▁الش 696
um_en 696
▁Аллаһ 695
▁might 694
▁lo_en 694
▁i_en 694
▁whom 694
en_de 693
▁بشأن 693
row 691
▁feel 691
▁K_en 691
ائ 689
▁вә 689
ni_en 689
▁Open 688
▁given 688
▁key_en 688
▁ба_tg 687
▁’ 686
en_nl 685
▁que_pt 685
▁keep 684
▁F_en 684
ward 683
man_en 682
ves_en 681
ri_en 679
▁window 678
mp 678
▁state 677
▁countries 677
▁အ 677
ক 677
▁end_en 677
ş 676
▁anything 675
ं 674
اق_ar 674
▁came 673
▁law 673
ments_en 673
▁Show 672
га_uz 672
نا_ar 672
▁ru 671
▁level 671
▁الدولية 669
▁جميع 669
क 668
の 668
▁Fa_en 668
it_en 667
▁su_ha 666
▁follow 665
ा 665
▁State 665
way_en 665
▁Kuma 664
▁establish 663
▁ذلك 663
▁Name_en 663
▁Please 662
▁Come 662
▁است_ar 662
▁के_hi 661
ন 661
▁please 661
▁المتحدة 661
ise_en 661
▁selected_en 660
▁Li_en 660
▁Pa_en 660
▁On_en 659
▁men_en 659
امل 658
▁ar_en 658
▁main 657
▁اس_ur 657
▁house 657
▁kind_en 657
▁11 656
▁friend 656
▁@ 655
▁Our 655
▁hea 655
gre 654
▁application 653
▁d_fr 653
ff_en 653
ned 652
tor_en 652
▁live 651
র 651
▁leave 651
▁General_en 651
▁text 650
▁en_es 650
▁Could 649
▁ku_ha 649
▁app 648
▁three 648
table 647
▁bring 647
▁left 647
do_en 647
▁daga 646
ist_en 646
:// 645
▁Where 644
▁30 644
▁both 644
ice_en 644
", 643
ible 643
▁talk 642
▁Ex 641
▁told 641
▁size_yi 641
line_en 641
á 640
▁Allah_ha 640
▁p_en 640
▁water 638
▁around 638
▁y_es 638
▁color 636
▁son_en 635
▁gra 634
▁done 634
use_en 634
▁certain_en 634
▁free 632
▁ever 632
▁pay 631
پ 629
▁la_eo 629
▁fear 629
▁te_en 629
▁contain 628
sing 628
▁የ 628
▁ca_en 627
ظ 626
10 625
pend 625
▁G_en 625
▁هذا 624
ring_en 624
sion_en 623
п 622
vel_en 622
▁clear 621
?" 620
▁Select 620
▁que_gl 620
▁fi_en 620
R 619
يات_ar 619
▁heart 618
▁ir_lv 618
▁paper_yi 616
ود_ar 612
▁th_en 612
▁des_en 612
▁return 611
▁month 610
▁کہ 610
▁thought 610
▁der_de 609
▁command 608
▁Ro 608
▁national 608
▁appro 608
▁within 608
ني_ar 608
▁product 607
ी 606
try_en 606
▁word_en 606
▁person_en 606
з 605
▁-- 605
» 604
▁av_nb 604
▁bir_az 604
▁power 604
▁el_es 604
▁care_en 604
▁nothing 603
▁һәм 603
▁head 601
مة 601
wer_en 601
▁2000 600
▁full 600
وف 599
▁van_nl 599
▁already 598
ating 598
▁for_nb 598
nt_en 598
▁line 597
yer 597
▁cannot 596
▁mar_en 596
▁die_en 596
▁control 595
▁به_ku 595
▁type_en 595
▁o_en 595
▁old 593
▁mana_en 591
im_en 591
ying 590
nger 589
عا 589
ә 589
▁аз_tg 589
▁وأ 589
vers 588
ल 588
تنفيذ 588
▁T_en 588
▁rece 587
▁Look 587
▁نے 586
▁until 586
▁N_en 586
▁att_sv 585
▁value 584
▁Error 584
وب 584
▁Th_en 584
▁option 583
▁16 583
▁160; 583
▁sure 583
▁the_gd 583
б 582
▁انت 582
▁girl 581
▁market 581
▁group 580
▁for_da 580
▁eta 580
▁means 580
ের 579
▁0 578
▁shi_en 578
▁ci_en 578
my_en 578
▁hear 577
▁yi_ha 577
ديد 576
وا_ar 576
▁si_en 576
ئ 575
▁ta_en 575
ю 574
▁2. 574
▁Day 574
ged 574
▁und_de 574
▁send 573
▁real 573
▁wait 573
▁country 573
▁الج 573
▁always 572
ried 571
مية 571
▁18 570
▁implement 570
▁regard 570
▁er_da 569
▁exc 569
▁non_en 569
▁truth 569
▁Tra 568
▁Say 568
▁project 568
▁true_en 568
▁ከ 567
▁i_xh 567
00 566
▁në 566
ugh_en 566
о 565
form 565
▁bro 565
▁Are 565
ል 565
put 564
▁Okay 564
is_en 564
▁b_en 563
ard 562
res 562
▁13 562
▁United 562
منطقة 561
name_en 561
▁result_en 561
▁pre_en 560
▁وفي 559
عة 559
▁de_gl 558
▁a_gl 558
▁белән 557
▁e_it 557
д 556
▁14 556
▁i_da 556
▁die_de 556
ত 554
▁read_en 554
▁exist 553
وع 553
ست_ar 553
ile_en 553
vo_en 553
▁understand 552
▁। 552
er_nb 552
▁الاست 552
▁والم 552
▁gu_en 552
▁de_ro 551
▁D_en 551
and 550
ded 550
▁particular 550
am_en 550
ha_en 550
one 549
▁الا 549
î 549
▁och 549
▁job_en 549
cle 548
▁تو_ur 548
▁second_en 548
▁prop 547
▁issue 547
dom 547
fter 547
▁an_mg 547
▁consider 547
self 547
od_en 547
▁view 546
ان_ar 546
▁qui_en 545
lection 544
▁” 544
ـ 544
ው 544
▁Some 543
▁provide 543
▁o_pt 543
> 542
▁ireo 542
▁ya_ha 542
The 540
ни_uz 540
▁problem_en 540
▁ju_en 540
▁ہیں 539
▁för 539
▁pic 538
▁1995 538
▁af_da 538
▁cause 538
▁ان_ur 538
に 538
▁ئه 538
▁close 538
os_en 538
▁cha_en 538
в 537
▁check_en 537
▁face_en 537
▁tre_en 536
up_en 536
▁public_en 536
▁object 535
ities 535
▁Ne_en 535
▁except 534
▁وي_ar 534
▁المو 534
▁nor_en 534
▁father 533
▁je_sr 533
▁да_mk 532
▁da_sr 532
cur 531
▁en_fr 531
by_en 531
▁next 529
▁25 528
▁में 528
▁ва_uz 528
ls 527
▁stra 527
▁ste_en 527
▁won 526
▁du_fr 526
ပါ 525
▁different 525
▁ح_ar 525
ries_en 525
▁الس 524
▁accordan 524
▁wa_en 524
▁sta_en 523
ses 522
▁Right 522
▁አ 522
ذر 522
▁women 522
▁الص 522
ces_en 522
▁process 521
▁inter_en 521
lling 520
board 520
在 519
وث 519
▁ba_ha 519
▁ho_mg 518
▁να 518
per_en 518
▁24 517
ct 517
2000 517
▁enter 517
▁An_en 517
▁Ha_en 517
▁EU_en 517
▁human 516
▁het_nl 516
▁্ 516
ns_en 516
): 515
ced 515
▁lot 515
▁boy 515
▁days 515
here 514
▁far_en 514
र 513
▁together 513
▁t_en 513
▁week 512
▁at_da 512
▁je_hr 512
▁an_gd 512
▁ეა 511
▁les_en 511
▁U_en 511
स 508
▁im_en 508
▁से 507
cre 507
▁الأول 507
▁matter 506
▁bit 505
▁الذي 505
ges 504
fici 504
▁provided 504
▁ga_ha 504
े 503
▁since 502
صل 502
تعاون 502
ject 501
▁fail 501
▁به_fa 501
▁je_sl 501
6 500
ppe 500
▁size_li 500
▁interest 500
يع 500
▁Ju_en 500
▁le_en 500
▁ۋە 499
▁fight 499
▁no_lv 499
nder_en 499
mi_en 499
▁D 498
lock 498
نىڭ 498
▁الإ 498
▁ما_ar 498
قا_ar 498
▁sha_en 498
▁♪_en 498
▁book 497
▁taken 497
▁user_en 497
▁cu_en 497
▁document 496
وض 496
▁a_ca 496
▁وہ 496
▁act_en 496
▁Al_en 496
▁children 495
▁created 494
▁kid 494
Delete 494
ep_en 494
▁wo_en 494
▁measures 493
▁Y_en 493
ul_en 493
▁add 492
▁ass 492
▁hard 492
▁hold 492
▁rep 492
▁jo_en 492
▁tho_en 492
ld 491
دىن 491
を 491
12 490
▁për 490
ized 490
▁e_pt 490
▁المت 490
out_en 490
place 489
حق 489
▁je_bs 489
▁kill 489
▁مؤتمر 489
wa_en 489
view 488
▁ነው 488
▁ku_xh 488
وية 488
▁period_en 488
el_en 488
▁page 487
▁okay 487
ž 487
▁everything 487
▁je_sh 487
▁od_sh 486
▁mo_en 486
▁que_ca 485
▁game_en 485
▁bad 484
▁At 484
▁paper_li 484
▁la_ca 484
▁Did_en 484
▁الب 483
▁res_en 483
ር 482
wi_en 481
rate 480
sses 480
▁require 480
ې 480
▁today 480
▁pa_en 480
▁og_da 479
▁decision 479
▁paragraph 479
▁light 478
bar_en 478
ro_en 478
▁address 477
فق 477
▁respons 477
dy_en 477
land_en 477
na_mg 476
▁کا 476
▁ađ 476
port 475
▁na_ig 475
▁doesn 475
▁land_en 475
▁Or 474
▁sy_mg 474
▁One 474
لك 474
▁money 474
▁concern 474
▁Da_en 474
▁called 473
▁m_en 473
ign 472
▁reason 472
▁mother 472
su_en 472
▁T 471
ব 471
▁i_rw 471
▁side 470
è 469
عت 469
▁да_bg 469
ро_tg 469
▁hi_en 469
▁least 469
▁indeed 469
▁(% 468
▁loc 468
▁including 468
▁تم_ur 468
အ 468
▁Si_en 468
ire_en 468
▁na_en 468
▁pri_en 468
stro 467
▁operation 466
ctor 466
▁een 466
▁equ 466
▁на_ru 466
▁Ke_en 466
▁ver_en 465
▁fa_mg 464
▁] 464
▁guy 464
▁Me_en 464
0 463
Z 463
▁tsy 463
20 462
▁w_pl 462
▁که_fa 462
time 461
ට 461
▁Annex 461
▁Ho_en 461
▁R_en 461
ator 460
ны_tt 460
▁base_en 460
:% 459
▁security 459
▁da_bs 459
▁yet 459
▁o_sh 459
▁الق 459
▁na_mg 458
▁за_mk 458
▁дар 458
▁allow 458
▁17 457
▁ao_mg 457
▁Add 457
▁والت 457
▁Image 456
▁fact 456
▁term 455
▁dia_mg 455
يەنى 455
Unknown 454
▁lea 454
▁fe_en 454
▁Hi 453
ging 453
▁Committee 453
▁ده_ku 453
جه 453
▁بين 453
▁ar_lv 453
▁ph_en 453
اج 452
▁stay 452
▁create 452
▁Mar 451
▁s_sh 451
sel_en 451
▁1999 450
ү 450
ч 449
ese 449
▁til_da 449
▁Community 449
ା 449
lar_en 449
ish_en 449
dge 448
▁spo 448
ς 448
▁ri_en 448
activ 447
▁pur 447
ؤ 447
ە 447
▁که_ku 447
du_en 447
▁error 446
▁är 446
▁available 445
▁أي 445
га_tt 443
ine_en 443
ہ 442
عد 442
▁went 442
▁com_en 442
▁stop_en 442
▁force 441
▁L 441
▁cor 441
▁room 441
▁che_it 441
▁Tom_en 441
▁complete 440
▁access 440
▁possible 440
▁Parliament 440
▁important 439
pp_en 439
ibili 438
▁become 438
▁grow 438
▁ض 438
▁u_xh 438
ian_en 438
▁fire 437
▁using 437
▁present 437
رات 437
▁hope 437
▁during 437
▁remember 437
▁Spe 436
▁international 436
med_en 436
▁ID 435
▁پر_ur 435
tter_en 435
▁With 434
▁save 434
▁وه_ku 434
▁اللجنة 434
7 433
▁Chi 433
stra 433
▁relat 433
は 433
▁ez_eu 433
▁trans_en 433
▁run 432
▁stor_en 432
▁Thank 431
▁course 431
▁financial 431
so_en 431
er_da 430
▁speak 430
▁enough 430
▁Here 430
▁whole 430
▁с_ru 430
▁uz_lv 430
▁display 429
▁family 429
▁не_ru 429
15 428
▁President 428
▁working 428
▁wanted 428
IT 427
jo_en 427
ware 426
▁development 426
ම 426
ң 426
ল 426
▁whether 426
▁d_ga 426
▁Ya_ha 426
▁ان_ar 426
▁label_en 426
▁er_no 425
▁redu 424
▁Худо 424
▁K 423
▁La 423
nce 423
tory 423
ba_en 423
ble_en 423
ys_en 423
က 422
лар_uz 422
▁له_ku 422
في 422
ste_en 422
▁P 421
ë 421
▁stand 421
▁suka 421
▁few 421
▁Ra_en 421
que_en 421
mon 420
य 420
▁wish 420
▁coming 420
kin_en 420
9 419
▁Mon 419
▁की_hi 419
int_en 419
graph 418
ual 418
▁i_sq 418
men_en 418
qui_en 418
▁brother 418
field 417
▁Move 417
了 417
غا_ug 417
が 417
▁a_fr 417
▁ce_ha 417
▁l_en 417
▁Those 417
▁drug 416
ä 416
▁of 415
▁reco 415
▁ئۇلار 415
▁die_af 415
▁par_en 415
▁har_en 415
▁referred 415
анд 414
ן 414
▁partner 414
▁post 414
не_tt 414
ified 414
▁по_ru 414
ze_en 414
▁import 413
▁no_mg 413
▁sound 413
end_en 413
▁%1 412
▁i_sv 412
▁Non_en 412
▁Pi 411
ical 411
Re 411
▁جو_ur 411
وسط 411
credi 411
▁abin 411
▁Ma 410
py 410
sage 410
▁е_bg 410
▁office 410
▁da_hr 410
ef_en 410
▁ap_en 410
▁Fin 409
▁sol 409
▁។ 409
▁ნვ 409
ظر 409
▁C 408
50 408
mb 408
▁the 408
▁school 408
▁يت 408
als 408
▁Directive 408
▁on_fi 408
▁increase 408
▁ent_en 408
▁ה_he 407
شر 407
▁four 407
▁question 407
os_lt 407
ify_en 407
phe_en 407
▁21 406
▁50 406
▁a_sk 406
▁Allah_az 406
▁big_en 406
ed 405
ors 405
▁се_mk 405
▁، 405
▁By_en 405
▁pra_en 405
8 404
▁government 404
▁saw 404
▁position 403
phone 403
▁respect 403
нең 403
11 402
▁date 402
▁accept 402
▁standard 402
▁de_ga 402
ney 401
▁contact 401
وق 401
ই 401
▁guide 401
이 401
che_en 401
▁happen 401
just 400
sa 400
▁Lu 400
年 400
ــ 400
▁للت 400
▁Ver_en 400
▁Text 399
▁List 399
mple 399
▁propos 399
▁share 399
▁ar_br 399
г 398
▁to 398
▁نو 398
▁en_nl 398
▁Messenger 398
ला_mr 398
▁المادة 398
▁general 397
Size 397
▁event 397
جار 397
ot_en 397
▁sur_en 397
ut_en 397
et 396
pe 396
▁continue 396
▁на_bg 396
дан_uz 396
je_sh 396
ӣ 396
يار_ar 396
▁disbelieve 396
▁View 395
▁som_nb 395
dir_az 395
▁आहे 395
ically_en 395
▁3. 394
▁Europe 394
म 394
▁አላህ 394
cent 393
▁Fo 393
▁он_tg 393
▁cover 393
▁g 392
▁B 392
un 392
▁Back 392
▁meeting 392
التزام 392
▁للم 392
▁să 391
▁be 390
cra 390
▁iš 390
▁ی_ku 390
▁shi_ha 390
تا_ar 390
pt 389
▁las 389
tail 389
▁drive 389
▁الع 389
▁jew_mt 389
▁H_en 389
ak_en 389
▁al_en 389
▁knowledge 389
mate 388
▁include 388
▁remain 388
cing_en 388
X 387
▁G 387
▁space 387
प 387
▁procedure 387
▁politic 387
ର 387
▁l 386
.” 386
تم 386
ကို 386
easure 386
▁a_ro 386
▁Po_en 386
be 385
▁I 385
▁v_sk 385
▁də 385
▁سي 385
ం 385
▁الر 385
con_en 385
on 384
as_lt 384
▁having 384
▁in_it 384
▁X_en 384
pi_en 384
▁air_en 384
lose 383
▁* 383
▁מ_he 383
ked 383
▁е_mk 383
ী 383
▁brought 383
▁sorry 383
▁الك 383
▁surely 383
▁dro 382
▁Mor 382
▁العام 382
▁adopt 382
▁Get 382
يج 382
▁a_it 382
as_lv 382
فت 381
وں 381
▁conditions 381
▁Ad_en 381
▁che_en 381
▁sp 380
ó 380
حد 380
not 380
▁guys 380
▁par_lv 380
▁social 379
▁try 379
▁tamin 379
▁өчен 379
▁ك_ar 379
▁الرئيس 379
ler_en 379
fi_en 379
▁saying 379
pa 378
16 378
▁til_nb 378
else_en 378
Q 377
▁Te 377
▁indica 377
▁Of 377
prov 377
▁commit 377
▁iz_sh 377
▁los_es 377
er 376
▁Dr 376
▁ይ 376
▁یہ 376
▁X 375
▁e_xh 375
▁Decision 375
▁بعد_ar 375
ification_en 375
▁direct 374
tch 374
▁عمل 374
▁sa_sk 374
▁er_nb 374
▁għall 374
از_ar 374
lie_en 374
▁child 373
▁total 373
pos 373
sive 373
ो 373
ንም 373
وم 373
About 373
▁Indeed 373
▁Har 372
व 372
▁food 372
▁الخ 372
▁o_gl 372
▁trying 372
▁الأمن 372
bo_en 372
▁bar_en 372
vision_en 372
ub_en 372
ў 371
▁specific 371
▁Na 371
il 371
▁local 371
▁server 371
▁ensure 371
▁la_it 371
am 370
▁Mes 370
ስ 370
▁sup 370
▁d_en 370
▁tak_en 370
spec 369
ç 369
ration 369
ko_eu 369
▁از_fa 369
من_ar 369
fer_en 369
ches_en 369
▁t_be 368
▁fall 368
▁خال 368
▁Have 368
▁kas_lv 368
tal_en 368
reference 367
qua 367
ect 367
ይ 367
▁source 366
ገ 366
▁cla 366
▁Re 366
▁во_mk 366
▁نہیں 366
)، 366
▁someone 366
▁class 365
▁F 365
▁22 365
▁sir 365
▁को_hi 365
▁ላይ 365
ለ 365
▁Ca_en 365
fa_en 365
▁ob_en 365
▁form 364
ders 364
ă 364
▁do_sh 364
្ 364
▁تأ 364
Document 363
▁23 363
人 363
▁bã 363
▁protect 363
lied 363
▁sin_ga 363
▁mi_en 363
▁R 362
▁ma 362
▁Any 362
ો 362
ffer_en 362
hed_en 362
▁necessary 362
▁Ta 361
▁Ac 361
▁.. 361
▁business 361
▁que_fr 361
▁on_et 361
▁العامة 361
▁alone 361
ised 360
let 360
▁Stop 360
▁तो_hi 360
▁party 360
ം 360
▁ያ 360
▁и_mk 360
▁تت 360
▁fil_mt 360
▁deve_en 360
▁cent 359
▁version 359
▁disc 359
▁کر 359
شرق 359
ــــ 359
ម 359
des_en 359
▁services_en 359
to 358
▁Sa 358
13 358
æ 358
▁कि_hi 358
▁mill 358
дир 358
طار 358
▁in_nl 358
▁gare 358
▁wid 358
▁det_sv 358
▁pu_en 358
▁promise 358
▁URL 357
▁area 357
▁War 357
▁لت 357
▁Na_en 357
▁cre_en 357
▁ki_en 357
aught 357
▁above 356
gue 356
Next 356
point 356
▁small 356
اس_ar 356
ons_en 356
▁themselves 356
▁translator 355
▁Car 355
دف 355
gi_en 355
▁anyone 355
Description 354
30 354
lum 354
▁Her 354
part 354
▁offer 354
▁na_sk 354
to_it 354
▁sca_en 354
tle_en 354
cu_en 354
▁pa 353
ch 353
mat 353
ability 353
▁4. 353
▁Type 353
▁Every 353
▁اللہ 353
ę 353
▁yang_ms 353
حي 353
▁V 352
▁vari 352
▁is_nl 352
▁link 352
▁times 352
ti_lt 352
op_en 352
19 351
mor 351
▁לא 351
▁av_sv 351
▁ja_et 351
إنشاء 351
sk_en 351
▁expect 350
▁go_ga 350
▁Ar_en 350
▁Du_en 350
▁mind_en 350
box 349
▁million 349
▁بىلەن 349
po_en 349
▁meet_en 349
▁p 348
▁28 348
▁situation 348
▁ص 348
ҳ 348
▁ili_sh 348
▁ნა 348
mer_en 348
hat_en 348
▁Li 347
ِ 347
▁THE 347
▁star 347
▁ہو 347
ા 347
▁er_is 347
ti_mt 347
▁gran_en 347
tical 346
▁relevant 346
▁hit 346
▁prepar 346
▁merc 346
▁pour_fr 346
▁il_it 346
▁commun_en 346
▁emp 345
ò 345
▁E 345
▁Mos 345
source 345
ट 345
ව 345
нинг 345
▁cli 345
▁hell 345
es_fr 345
▁purpose 345
▁watch 345
▁looking 345
mi 344
member 344
ż 344
▁n_ig 344
ak_eu 344
▁cikin 344
ek_en 344
▁M 343
ter 343
▁so 343
▁dhe_sq 343
bi 343
▁idea 343
ድ 343
▁estas 343
▁не_uk 343
ol_en 343
▁vo_en 343
ping 342
bra 342
▁Ah 342
ý 342
ନ 342
▁thank 342
با_ar 342
wing_en 342
▁video 341
▁patient 341
ضا 341
▁bir_tr 341
all_en 341
▁40 340
town 340
▁az_hu 340
▁either 340
қ 340
ضي 340
ju_sh 340
▁fucking 340
▁Whi 339
tting 339
း 339
▁se_cs 339
▁تم_ar 339
keyboard_en 339
▁27 338
▁en_da 338
ء 338
الي 338
ិ 338
▁killed 338
▁in_de 338
ور_ar 338
▁الدولي 338
get_en 338
▁format 337
▁pres 337
nd 337
▁100 337
▁ton 337
▁institution 337
မ 337
▁ma_mt 337
▁Com_en 337
▁cost_en 337
ON_en 337
ה 336
න් 336
▁کیا 336
▁heard 336
▁je_nl 336
প 336
ast_en 336
▁fun 335
tern 335
▁ہم 335
을 335
lu_en 335
▁ba 334
▁את 334
▁një 334
▁pain 334
▁وم 334
▁z_pl 334
ù 334
▁į 334
en_eu 334
ون_ar 334
▁Gi_en 334
screen_en 334
sa_en 334
it 333
▁U 333
▁ra 333
▁Good 333
▁service 333
▁हैं 333
▁imp 333
▁Because 333
▁answer 333
▁in 332
se 332
▁Pa 332
var 332
ro 332
▁listen 332
ism 332
च 332
น 332
▁su_lt 332
▁economic 332
▁ჟვ 332
▁del_es 332
ac_en 332
tur_en 332
▁Mi_en 332
hen_en 332
AL 331
bar 331
tra 331
ur 331
ri 331
▁bu 331
light 331
dies 331
▁morning 331
▁sever 331
▁en_sv 331
▁a_ig 331
▁το 331
▁أيضا 331
▁track 330
▁May 330
ì 330
search 330
▁dans 330
▁Maybe 330
▁path 330
ra_en 330
▁N 329
14 329
▁final 329
▁author 329
▁nie_pl 329
gen_en 329
▁Fi_en 329
vis_en 329
ь 328
▁Al 328
▁Dis 328
▁press 328
▁drink 328
▁και 328
iem_lv 328
▁http 327
pi 327
▁אני 327
▁miss 327
▁dat_nl 327
ar_ga 327
ம் 327
أنشطة 327
▁Chan_en 327
ck 326
ul 326
▁fund 326
ult 326
cks 326
mic 326
نظر 326
များ 326
▁accord 326
▁ме_tg 326
▁fait_en 326
▁Tool 325
do 325
▁Le 325
▁det_da 325
ending 325
▁special 325
ъ 325
▁do_pt 325
▁ja_fi 325
▁woman 325
▁punishment 325
ge 324
▁price 324
▁getting 324
ba 323
▁trai 323
▁كل 323
– 323
▁ئۇ 323
da_en 323
▁sin_en 323
▁Font 322
▁aid 322
▁नहीं 322
▁uh 322
▁መ 322
▁ور 322
ប 322
ton_en 322
▁break 321
ho 321
gle 321
OR 321
▁بم 321
▁là_vi 321
▁behin 321
▁ვ 321
▁peace 321
men 320
man 320
▁na_pl 320
▁không 320
▁som_sv 320
▁vai_lv 320
رة 320
▁happened 320
▁Ti 319
In 319
as 319
▁26 319
ireo 319
Ã 319
လ 319
▁network 319
اً_ar 319
ثالث 319
▁A 318
us 318
▁anti 318
▁rest 318
▁limit 318
ရ 318
ο 318
স 318
▁in_ga 318
ne_sh 318
▁risk_en 318
▁Gu_en 318
ren_en 318
▁See_en 318
▁Me 317
25 317
▁decide 317
▁بىر 317
гә 317
▁nó_ga 317
▁concerne 317
تحقيق 317
▁acc_en 317
▁third 317
dan 316
▁2001 316
ra 316
▁Start 316
▁oc 316
ब 316
۔ 316
▁panel 316
ស 316
جي 316
▁per_it 316
▁common 316
ti 315
der 315
▁izay 315
▁بت 315
▁amount 315
▁в_uk 315
تي_ar 315
▁Bu_en 315
eth_en 315
▁H 314
▁status 314
▁an 314
ver 314
now 314
▁disa 314
▁2004 314
ought 314
▁نہ 314
wise 314
ম 314
▁health 314
▁Ва_tg 314
يز_ar 314
▁appropriate 313
▁ga 313
▁begin 313
▁إن 313
▁el_ca 313
▁„ 313
▁needs 313
ap_en 313
▁yourself 312
21 312
▁Nations 312
اع 312
▁Folder 312
រ 312
Edit_en 312
▁Treaty 312
▁is 311
▁Sur 311
▁Mus 311
õ 311
▁knew 311
▁ул 311
▁Create 311
We 310
▁Uh 310
ረ 310
▁addition 310
ន 310
▁من_fa 310
▁un_it 310
ਰ 310
▁god_en 310
ING 309
▁print 309
(1) 309
▁не_mk 309
▁på_nn 309
▁ti_en 309
ail_en 309
▁fix 308
in 308
▁search 308
▁later 308
▁chun 308
▁leis 308
▁walk 308
▁therefore 308
▁القرار 308
ga 307
rk 307
▁count 307
▁record 307
▁ne_lt 307
▁v_sl 307
ja_mt 307
▁card_en 307
IC_en 307
com 306
Default 306
▁tra 306
▁ב_he 306
▁refu 306
▁clo 306
گە 306
მ 306
▁yang_id 306
ber_en 306
bu 305
thy 305
ô 305
▁дип 305
▁ag_ga 305
nya_id 305
ga_en 305
▁Pu 304
▁mode 304
▁mu 304
▁super 304
▁basis 304
▁minutes 304
دە 304
▁large 304
▁هه 304
ង 304
▁provisions 304
▁1, 303
2) 303
▁do_sq 303
lu 303
▁Set 303
▁Time 303
▁animal 303
▁ለ 303
▁од_mk 303
full 303
خذ 303
▁vi_eo 303
▁example 303
er_fr 303
▁رو_fa 303
▁اتفاق 303
سا_ar 303
▁فيما 303
▁rules 302
▁and 302
sign 302
▁appear 302
hal 302
”. 302
▁Global 302
count 302
حر 302
့ 302
▁wife 302
да_uz 302
▁un_fr 302
▁se_es 302
▁تو_ar 302
▁del_en 302
▁authorities 302
▁worship 302
▁De 301
▁bo 301
ද 301
قدم 301
▁Kuri 301
▁în 301
▁further 301
بروتوكول 301
gi 300
▁a 300
or 300
▁Vi 300
جر 300
▁Cour 300
▁ჱა 300
▁را_fa 300
▁b_mt 300
بير 300
▁k_en 300
van_en 300
nig 299
gar 299
▁foo 299
▁u_sr 299
▁Airteagal 299
▁ta_ha 299
tra_en 299
archi 298
mu 298
▁princip 298
▁stri 298
ह 298
▁¿ 298
Con 298
ብ 298
▁talking 298
▁det_no 298
▁i_zu 298
▁cap_en 298
▁carr 297
J 297
▁bank 297
▁fre 297
് 297
යි 297
ụ 297
▁da_eu 297
an_eu 297
log 296
rar 296
▁content 296
18 296
ans 296
دى_ug 296
▁six 296
مت_ar 296
▁device_en 296
▁Per_en 296
▁b 295
▁Lo 295
40 295
guard 295
от_mk 295
▁protection 295
بي 295
▁con_es 295
ken_en 295
yes_en 295
▁GNOME_en 295
EU_en 295
ു 294
▁monitor 294
лар_tt 294
llow 294
ex_en 294
▁met_en 294
bo 293
cep 293
el 293
▁Da 293
▁investiga 293
▁secret 293
lo_xh 293
¤ 293
▁თ 293
ర్ 293
um 292
▁e 292
▁S 292
!" 292
IN 292
▁design 292
▁tôi 292
ରେ 292
▁се_bg 292
▁والأ 292
▁item_en 292
▁Man_en 292
val_en 292
al 291
fin 291
▁Ru 291
▁bor 291
▁तुम_hi 291
▁za_pl 291
hi_en 291
ar 290
ya_oc 290
▁ל 290
▁normal 290
▁ary 290
an_mg 290
عقد 290
▁ne_eo 290
er_sv 290
ē 290
▁relation 290
es_es 290
▁y_cy 290
▁Sin 289
▁29 289
); 289
gine 289
ड 289
gni 289
▁го_mk 289
ے 289
راف 289
▁do_ga 289
▁policy 289
na_sh 289
ក 289
فعال 289
▁CD_en 289
cher_en 289
ura_en 289
▁bur_en 289
▁organiz_en 289
▁produ_en 289
▁draw 288
▁sti 288
是 288
آ 288
্ 288
▁to_cs 288
▁ر_ku 288
▁test_gd 288
▁da_sl 288
▁بأن 288
par_en 288
▁bra_en 288
ski 287
ase 287
▁name 287
▁31 287
key 287
ُ 287
▁rec 287
ሉ 287
େ 287
▁وأن 287
va_en 287
і 286
▁mail 286
▁language 286
عل 286
▁de_eo 286
▁ka_ha 286
▁الفقرة 286
▁button_en 286
ip_en 286
▁hur_en 286
▁However 286
tar 285
quot 285
▁learn 285
▁Bar 285
rup 285
▁fine 285
▁• 285
▁mi_mg 285
▁blood 285
چ 285
تعلق 285
▁за_bg 285
▁fel_en 285
wn_en 285
mend 284
▁الى 284
▁මම 284
et_nb 284
dən 284
რ 284
▁ოჲ 284
ċi 284
▁Tak_en 284
▁though 284
▁short 283
▁subject 283
bed 283
gs 283
1/ 283
ू 283
▁koje 283
قر 283
▁fuck 283
▁agreement 283
يك 283
▁uku_xh 283
▁a_cs 283
▁på_nb 283
▁għal 283
▁با_ar 283
▁qual_en 283
▁ten_en 283
▁hu_en 283
right 282
17 282
tract 282
اف 282
▁til_nn 282
▁for_nn 282
▁kasance 282
ਨ 282
▁الأعضاء 282
▁bla_en 282
▁cur_en 282
▁ta 281
▁moment 281
bel 281
▁{0} 281
ورة 281
▁u_bs 281
ወ 281
▁substan 281
▁visit 281
▁request 281
▁تو_fa 281
▁wanna 281
▁المتعلقة 281
sta_en 281
▁for 280
fa 280
an 280
struction 280
· 280
▁ተ 280
dress 280
▁hours 280
▁Jeg_no 280
ό 280
▁se_sl 280
▁Ta_en 280
igh_en 280
her_en 280
gy_en 280
cono_en 280
▁col_en 280
▁default 279
▁ve 279
▁Web 279
▁succes 279
▁t 279
AT 279
-8 279
ላ 279
ω 279
▁police 279
▁par_fr 279
▁future 279
▁du_no 279
▁وقد 279
دون_ar 279
PT_ar 279
▁cho_en 279
ria_en 279
▁vi_en 279
per 278
ats 278
▁sin 278
▁që 278
▁r 278
▁ون 278
vio 278
か 278
ქ 278
▁на_uk 278
▁ka_lv 278
ਲ 278
▁المن 278
▁تلك 278
ON_ar 278
ions_en 278
▁No 277
▁me 277
▁half 277
tu 277
യ 277
▁نىڭ 277
ị 277
▁ahụ 277
custom 277
▁actually 277
en_nb 277
▁da_sh 277
▁remove 277
▁du 276
To 276
▁पर_hi 276
▁code 276
▁legal 276
▁i_nn 276
▁Mi_eo 276
▁na_cs 276
▁trust 276
han_en 276
nice_en 276
24 275
▁Tur 275
▁function 275
bor 275
age 275
▁Fe 275
▁starte 275
▁religi 275
▁Republic 275
▁የሚ 275
▁su_sh 275
는 275
تقدم 275
▁V_en 275
son 274
▁To 274
ak 274
ु 274
comp 274
േ 274
▁inte_sv 274
▁minn_mt 274
▁الثاني 274
▁op_en 274
ing 273
▁m 273
▁ko 273
pu 273
Title 273
fi 273
▁defin 273
ת 273
▁pi 273
▁to_sk 273
la_xh 273
▁бер_tt 273
ก 273
▁مي_fa 273
دم_ar 273
st 272
▁ikke_da 272
volve 272
ሳ 272
▁Use 272
▁voor_nl 272
▁techni 272
▁choose 272
يو 272
▁কৰা 272
ir_ga 272
ma_sh 272
▁ikke_no 272
▁an_br 272
غا_ar 272
tom 271
▁on 271
▁Ko 271
▁Ka 271
gg 271
▁sleep 271
gress 271
▁न_hi 271
▁Will 271
▁Most 271
▁programme 271
▁strength 271
▁Ég 271
▁ការ 271
▁ჟ 271
▁وإ 271
ماي_ar 271
▁dre_en 271
▁af_en 271
▁Res 270
▁Ra 270
▁Sam 270
▁company 270
▁valid 270
tors 270
әр 270
▁ҳам_uz 270
وارد 270
▁f_mt 270
▁mark_en 270
ks_en 270
ф 269
▁lo 269
▁ni 269
Search 269
▁People 269
▁se_bs 269
▁en_ca 269
▁December 269
को_ne 269
▁kad_lt 269
kan_id 269
cie_en 269
land 268
▁+ 268
bit 268
▁Wo 268
(2) 268
pping 268
▁ذات 268
င် 268
زال 268
ng_vi 268
дер_tt 268
▁गर्नुहोस् 268
▁June 268
▁бар_tg 268
in_fi 268
مناطق 268
vi_en 268
▁le 267
▁write 267
ce 267
me 267
▁זה 267
▁baby 267
▁towards 267
▁associa 267
▁Tell 267
en_sv 267
▁koji_sh 267
▁members 267
▁អ 267
▁za_sl 267
zen_en 267
▁activities 267
ж 266
▁Fire 266
▁da_pt 266
ୁ 266
▁nie_af 266
ni_sh 266
om_sh 266
ai_lt 266
▁در_fa 266
▁un_es 266
سل_ar 266
▁pas_en 266
▁bat_en 266
▁gre_en 266
▁forgive 266
▁select 265
ial 265
sor 265
▁personal 265
▁2002 265
▁invest 265
ල 265
kan_ms 265
▁أجل 265
ran_en 265
cer_en 265
ite_en 265
▁1997 264
at 264
sta 264
lic 264
oh 264
shing 264
ि 264
سم 264
▁meg_hu 264
▁ezi 264
▁para_pt 264
मा_ne 264
េ 264
ណ 264
▁di_id 264
cul_en 264
▁whatever 264
▁door_en 264
is 263
▁li 263
ly 263
▁tao 263
حة 263
▁per_ca 263
-1 263
▁maybe 263
▁się 263
▁a_xh 263
α 263
ଣ 263
ি 263
▁fl_mt 263
▁zu_de 263
▁الجمعية 263
AR_en 263
▁pi_en 263
ement_en 263
▁u_en 263
ina 262
net 262
ren 262
▁dialog 262
ों 262
▁፤ 262
wa_xh 262
▁till_sv 262
▁না_bn 262
مثل 262
▁witness 262
den 261
ut 261
lo 261
la 261
ologi 261
▁Israel 261
▁euro 261
▁Sta 261
▁plugin 261
▁resolution 261
ddy 261
▁हो_hi 261
وس 261
وات 261
▁te_nl 261
ba_xh 261
▁au_fr 261
▁بما 261
▁Ar 260
▁pe 260
▁element 260
▁authority 260
▁2013 260
ory 260
ana_mg 260
▁niet 260
acha 260
▁environment 260
ọ 260
▁charge 260
in_ga 260
▁recommend 260
▁Lalle 260
es_lv 260
가 260
▁Jo_en 260
ose_en 260
▁spe_en 260
nde_en 260
▁< 259
ng 259
▁2009 259
vi 259
ים 259
▁UN 259
▁på_da 259
▁med_da 259
كو 259
▁scr 259
▁i_ca 259
▁major 259
▁بۇ 259
zi_xh 259
▁بها 259
فة 259
▁وه_ar 259
ley_en 259
▁i 258
▁na 258
ative 258
nde 258
band 258
▁ka 258
RE 258
nog 258
▁gri 258
▁held 258
▁i_mg 258
▁का_hi 258
نت 258
▁Ik_nl 258
tzen_eu 258
▁den_de 258
مكن 258
▁2008 257
▁me_sq 257
logy 257
▁opera 257
对 257
▁tool 257
▁العالم 257
▁strong 257
▁u_hr 257
تين 257
▁что_ru 257
▁h 256
▁Ni 256
▁Action 256
OJ 256
▁1998 256
lop 256
▁desktop 256
sis 256
cket 256
our 256
“ 256
▁um_pt 256
▁en_nb 256
lə 256
▁une_fr 256
▁effective 256
azzjoni 256
▁بالم 256
▁menu_en 256
thi_en 256
style 255
sp 255
lect 255
▁Network 255
▁Tre 255
▁or 255
23 255
▁Group 255
▁der_da 255
▁Jag 255
െ 255
တ 255
▁med_sv 255
ή 255
▁по_uk 255
▁iz_lv 255
رية 255
si_en 255
▁official 254
ica 254
gu 254
▁v 254
▁Mi 254
▁extra 254
▁sector 254
كى 254
مۇ 254
▁дә 254
as_ga 254
ul_ro 254
ვ 254
▁í_is 254
hold_en 254
▁specified 253
ral 253
si 253
ad 253
▁session 253
▁reci 253
stant 253
▁Be 253
din 253
ha 253
bour 253
ü 253
有 253
عمال 253
▁mi_eo 253
▁easy 253
تفا 253
▁O 252
▁Bu 252
+ 252
▁Do 252
▁film 252
mand 252
▁izany 252
▁hogy 252
▁se_sr 252
▁sche 252
سى 252
ย 252
কে_bn 252
▁ki_az 252
dır_az 252
▁الد 252
▁Cha_en 252
▁correct_en 252
▁media_en 252
▁gener_en 252
▁em_en 252
▁inte_en 252
▁thu_en 252
▁Sub 251
▁Ha 251
vol 251
os 251
ir 251
oto 251
▁fast 251
▁الث 251
ታ 251
زم 251
▁có_vi 251
ো 251
en_fi 251
კა 251
▁benefit 251
ਮ 251
▁Se 250
ven 250
▁2003 250
▁top 250
▁mil 250
worth 250
▁Africa 250
ේ 250
▁everyone 250
лари 250
ед_tg 250
ర 250
▁للأ 250
ED_en 250
▁character 249
▁DVD 249
▁ar 249
He 249
▁In 249
ris 249
pat 249
▁Tu 249
kra 249
more 249
ပ 249
دا_ug 249
▁pa_lt 249
▁saya_ms 249
فر_ar 249
قترح 249
عتمد 249
co 248
de 248
emp 248
▁2007 248
▁past 248
go 248
ming 248
▁जो 248
ν 248
▁op_nl 248
ti_sh 248
▁له_ar 248
▁treatment 248
mes_en 248
▁requirements 248
ke 247
dor 247
ze 247
▁Si 247
▁history 247
▁Ho 247
su 247
dia 247
▁transfer 247
▁مجلس 247
▁e_gl 247
▁ئۈچۈن 247
ી 247
ته_ar 247
▁العمل 247
▁bi_en 247
dle_en 247
▁$_en 247
▁touch_en 247
▁fin 246
ste 246
▁Tru 246
▁icon 246
▁Port 246
▁log 246
▁mur 246
en_da 246
▁contract 246
ා 246
▁وا 246
া 246
lick_en 246
▁due_en 246
▁ge_en 246
ker_en 246
es 245
▁re 245
▁d 245
▁mo 245
▁टॉम 245
ที่ 245
▁Аллоҳ 245
▁அ 245
▁می_fa 245
▁ف_ar 245
ند_ar 245
▁مجال 245
▁Cap 244
▁Sen 244
rt 244
fre 244
fri 244
不 244
نو 244
▁na_xh 244
▁på_sv 244
▁em_pt 244
ବ 244
▁в_bg 244
▁production 244
▁bat_eu 244
▁ready 244
سائل 244
▁mai_ha 244
▁waɗanda 244
er_de 244
▁cooperation 244
om 243
da 243
min 243
je 243
▁den_da 243
▁instrument 243
uses 243
وز 243
ۈ 243
دۇر 243
▁kwi_xh 243
କୁ 243
▁determine 243
adh_ga 243
ja_sh 243
no_sh 243
ნა 243
añ_br 243
ten_de 243
ī 243
▁att_en 243
oc_en 243
▁la 242
▁tab 242
2/ 242
ot 242
View 242
▁OK 242
32 242
صر 242
න 242
ነ 242
قرار 242
▁ge_nl 242
က် 242
ڭ 242
▁nu_ro 242
ლ 242
ει 242
▁I_zu 242
요 242
▁ع_ar 242
▁OF_en 242
em 241
ster 241
tribut 241
ber 241
▁integr 241
fil 241
with 241
▁Miss 241
‍ 241
▁ver_nl 241
ť 241
▁не_bg 241
▁v_cs 241
nih_sh 241
▁qui_fr 241
▁ekki 241
ئة 241
▁roa_en 241
las 240
You 240
▁bi 240
uk 240
▁ho 240
▁2005 240
og 240
ffe 240
lag 240
ھ 240
▁effect 240
▁কৰক 240
▁se_hr 240
▁mãsu 240
▁о_ru 240
ām 240
▁ਸ 240
▁site_en 240
▁http_en 240
▁se_sq 239
▁Gar 239
▁ni_mg 239
ി 239
جن 239
head 239
تى_ug 239
ે 239
▁អ្នក 239
▁يمكن 239
▁egy 238
▁Che 238
tro 238
Se 238
▁jag 238
▁consum 238
ı 238
fort 238
▁om_sv 238
▁From 238
▁с_bg 238
acht_ga 238
▁di_ms 238
ய 238
ი 238
▁మీరు 238
지 238
▁Up 237
▁Para 237
ine 237
▁cell 237
▁ወደ 237
en_nn 237
▁av_nn 237
ň 237
▁I_xh 237
ach_ga 237
is_ga 237
ខ 237
▁გ 237
▁single 237
ħ 237
ets_en 237
gel_en 237
▁pen_en 237
dri 236
"? 236
▁San 236
û 236
▁Voices 236
▁South 236
ක් 236
на_mk 236
▁ik_nl 236
▁je_sk 236
▁al_eo 236
иб 236
▁છે 236
▁den_ga 236
▁collect 236
▁running 236
اض 236
أهمية 236
إجراء 236
▁Tu_en 236
ord_en 236
mo 235
Mo 235
▁аст 235
▁letter 235
▁Cor 235
▁Po 235
▁Russia 235
lies 235
▁passe 235
ّ 235
لات 235
▁seo_ga 235
▁د_ps 235
wa_ha 235
▁L_mt 235
▁الأخرى 235
▁قرار_ar 235
▁Zo_en 235
yo_en 235
▁kom 234
▁edu 234
▁Sun 234
ran 234
▁Play 234
kom 234
ik 234
▁2011 234
▁लिए 234
▁no_ca 234
باد 234
▁تع 234
password 234
ө 234
だ 234
য়_bn 234
▁da_az 234
in_az 234
▁sur_fr 234
tu_eu 234
▁non_it 234
ta_mt 234
에 234
▁ومن 234
xi_en 234
▁dra_en 234
▁column 233
ci 233
▁radio 233
▁Gre 233
ሩ 233
▁front 233
EEC 233
im 233
2008 233
tra_mg 233
ോ 233
سب 233
لى_ug 233
లు 233
▁n_en 233
sh 232
▁do 232
▁Co 232
▁Work 232
he 232
car 232
jan 232
▁Mary 232
▁kon 232
ර 232
သ 232
▁এবং 232
ა 232
ok 231
gen 231
AS 231
ru 231
de_da 231
▁bed 231
▁material 231
▁exact 231
ሰ 231
▁ውስጥ 231
ј 231
▁não 231
дыр_tt 231
▁যে 231
▁আমি 231
ล 231
ances 231
ploy 231
aren_eu 231
▁wanda 231
▁за_ru 231
▁con_it 231
▁أخرى 231
set_en 231
▁repe 230
ol 230
zu 230
▁u 230
▁un 230
▁si 230
sto 230
▁provi 230
ko 230
title 230
et_da 230
▁budget 230
ć 230
capacit 230
▁ጊዜ 230
▁በእርግጥ 230
قات 230
▁ସ 230
▁je_cs 230
ჟ 230
قود 230
▁Vi_en 230
▁program_en 230
▁gun_en 230
En 229
lar 229
ta 229
ve 229
▁ne 229
▁Color 229
▁So 229
▁Ne 229
kan 229
du 229
gan 229
ill 229
đ 229
č 229
ും 229
ጋ 229
بار 229
▁é_pt 229
ને 229
ត 229
▁με 229
ķ 229
▁na_sl 229
▁fal_en 229
▁pe_en 229
Comment 228
▁etc 228
22 228
▁forward 228
fe 228
* 228
▁Mac 228
sted 228
ක 228
▁non_gl 228
▁že_sk 228
သည် 228
▁gc 228
ও 228
▁po_sh 228
▁for_no 228
▁ne_lv 228
▁دور_ar 228
▁تعزيز 228
▁daughter 228
▁energy 228
lit 227
▁Con 227
▁Comp 227
bre 227
▁60 227
▁serio 227
▁John 227
å 227
▁un_ca 227
لع 227
ئى 227
رك 227
ร 227
▁করে 227
£ 227
us_lt 227
▁info_km 227
რჲ 227
▁in_sl 227
▁dwar 227
ās 227
يم_ar 227
▁مت_ar 227
▁stre_en 227
▁ba_en 227
▁par 226
▁Gra 226
ment 226
▁Last 226
pad 226
▁2006 226
▁5. 226
▁avy 226
ግ 226
خص 226
▁er_nn 226
ွ 226
▁black 226
で 226
sistance 226
▁a_br 226
ਟ 226
برنامج 226
▁chi_en 226
ud_en 226
01 225
▁Inter 225
press 225
hi 225
▁sil 225
▁dog 225
9/ 225
ተ 225
دد 225
▁i_sr 225
OU 225
ләр 225
▁nke 225
thro 225
ابع 225
cs_en 225
▁lu_en 225
ron_en 225
iz_en 225
isation_en 225
no 224
re 224
▁Information 224
fer 224
▁recent 224
range 224
li 224
27 224
3/ 224
Insert 224
▁Sha 224
द 224
ने_hi 224
中 224
ieve 224
▁ye_xh 224
li_xh 224
ર 224
▁ដែល 224
▁es_es 224
▁خلال 224
إعادة 224
gar_en 224
min_en 224
pen_en 224
▁bre_en 224
SE_en 224
▁com 223
▁as 223
th 223
▁Su 223
▁Bur 223
cla 223
መ 223
▁po_pl 223
ди_uz 223
▁est_fr 223
▁ei_et 223
▁i_hr 223
▁para_es 223
دي_ar 223
▁ali_en 223
▁guess 223
ty 222
▁difficult 222
za 222
urs 222
▁configuration 222
▁separat 222
ना_hi 222
▁بھی 222
طلب 222
▁Thu 222
▁την 222
Number 222
ส 222
ნთ 222
რვ 222
▁por_es 222
▁una_es 222
ਾ 222
▁به_ar 222
▁pos_en 222
van 221
▁Christ 221
▁anal 221
▁no 221
tation 221
▁iray 221
▁z_sk 221
▁هي 221
ჳ 221
▁wani 221
▁mas_en 221
bi_en 221
▁myself 221
mail 220
31 220
AND 220
tor 220
han 220
sel 220
▁jeg_da 220
▁2010 220
▁install 220
▁legisla 220
ज 220
▁l_ca 220
▁figure 220
▁team 220
ne_sk 220
ု 220
дә 220
▁Bya 220
an_ga 220
▁det_nb 220
ė 220
▁t_mt 220
▁kā 220
▁د_ar 220
ستخدام 220
▁Qui 219
▁ti 219
ni 219
të 219
▁certificat 219
▁mention 219
▁tat 219
▁الل 219
▁ég 219
▁Author 219
▁Коръән 219
ып_tt 219
ด 219
▁Wait 219
▁от_bg 219
▁и_bg 219
▁з_uk 219
راء 219
▁wa_ha 219
▁у_ru 219
▁والا_ar 219
hy_en 219
le 218
▁bas 218
tan 218
▁ci 218
▁cop 218
ska 218
cky 218
▁Minister 218
▁~ 218
▁cir 218
ዎች 218
▁по_mk 218
▁بص 218
بات 218
▁yeah 218
ium 218
ar_nn 218
▁affect 218
os_km 218
اتفاقية 218
▁bus_en 218
ants_en 218
ger 217
▁1/ 217
▁Ba 217
80 217
sh_sq 217
▁private 217
elief 217
well 217
ka_mg 217
▁d_ca 217
▁significa 217
▁doctor 217
一 217
▁че 217
▁és_hu 217
▁i_pl 217
୍ 217
▁January 217
ʻ 217
▁បាន 217
ضع 217
▁tas_mt 217
ري_ar 217
▁أنه 217
ائية 217
تطبيق 217
▁Stat_en 217
ific_en 217
IF_en 217
▁tu 216
cu 216
45 216
▁tro 216
▁credit 216
▁civil 216
▁inform 216
TH 216
po 216
54 216
▁confirm 216
change 216
▁attack 216
Check 216
▁আর 216
▁br_sh 216
communication 216
▁et_et 216
previous 216
mer_km 216
ya_ha 216
▁ist_de 216
▁sa_lv 216
▁عليها 216
ering_en 216
▁ser_en 216
ID 215
▁W 215
▁Cer 215
▁article 215
moni 215
kel 215
▁de_da 215
▁chance 215
ण 215
▁instead 215
▁ac 215
ቅ 215
▁اپنے 215
μ 215
لن 215
▁release 215
nie_pl 215
▁că 215
▁å_nb 215
nya_ms 215
▁pretty 215
an_fi 215
▁kh_km 215
▁la_ro 215
ு 215
გ 215
▁von_de 215
مبادئ 215
▁connect_en 215
▁Di_en 215
ures_en 215
ali 214
mer 214
remo 214
nk 214
▁studi 214
▁High 214
ten 214
ize 214
▁i_bs 214
▁со_mk 214
▁tomorrow 214
▁to_gd 214
త 214
ов_ru 214
▁الأمم 214
▁ر_ar 214
cker_en 214
gra_en 214
▁s 213
99 213
id 213
▁probably 213
▁më 213
▁Internet 213
▁Us 213
▁Secret 213
ι 213
▁å_nn 213
كر 213
তে_bn 213
▁أع 213
www_en 213
fy_en 213
5/ 212
sin 212
ud 212
▁im 212
▁lu 212
▁Euro 212
▁identi 212
AN 212
uld 212
▁Japan 212
tage 212
▁bal 212
▁camp 212
2013 212
صف 212
▁कर_hi 212
ै 212
rela 212
▁تش 212
▁nem_hu 212
▁click 212
କ 212
ว 212
ม 212
య 212
ند_fa 212
▁og_is 212
re_it 212
도 212
▁فيها 212
اتخاذ 212
llet 211
op 211
▁En 211
ר 211
ave 211
vin 211
▁Bro 211
▁model 211
يش 211
第 211
ባ 211
А 211
وافق 211
et_nn 211
▁to_pl 211
ىدۇ 211
▁Аллаһуга 211
▁για 211
▁на_tg 211
▁sunã 211
ju_mt 211
▁المست 211
سة 211
▁connection_en 211
▁Det_en 211
vant_en 211
▁item 210
▁win 210
▁k 210
▁ja 210
▁Val 210
▁he 210
▁prove 210
▁Jesus 210
▁any_mg 210
▁militar 210
ራ 210
سان 210
▁crime 210
▁cru 210
▁som_sk 210
▁ne_xh 210
▁en_eo 210
গ 210
▁કરો 210
▁я_uk 210
▁no_es 210
لو_ar 210
pa_en 210
▁Ya_en 210
▁al 209
▁ha 209
▁Nu 209
dar 209
▁Di 209
vention 209
▁fuq 209
ite 209
▁Name 209
6/ 209
vali 209
▁represent 209
▁ple 209
عب 209
▁do_pl 209
ũ 209
ção 209
ů 209
ən 209
▁en_no 209
து 209
▁استخدام 209
رو_ar 209
▁ينبغي 209
تكنولوجيا 209
ye_en 209
kes_en 209
PT_en 209
▁System 208
LE 208
Ç 208
▁favor 208
lim 208
▁global 208
▁om_da 208
▁International 208
▁priorit 208
▁كما 208
▁ó 208
ත් 208
ቀ 208
▁алар 208
غل 208
▁قد 208
▁булган 208
ch_ga 208
ము 208
▁del_it 208
▁yn_cy 208
جا_ar 208
ES_en 208
▁sus_en 208
▁clean 207
Custom 207
AC 207
va 207
▁target 207
▁pro 207
▁hus 207
▁happy 207
uring 207
▁individual 207
▁Game 207
ደ 207
ائم 207
راب 207
ذا 207
▁har_sv 207
な 207
と 207
▁sa_ga 207
▁z_cs 207
ment_fr 207
វ 207
بة 207
crypt 206
ton 206
uri 206
▁comment 206
▁below 206
▁fa 206
▁Cal 206
▁Table 206
zo 206
cast 206
▁80 206
▁stud 206
▁2012 206
▁export 206
▁അ 206
▁stuff 206
▁North 206
ခြင်း 206
▁wonder 206
áil 206
to_lt 206
▁سه 206
ţi 206
نية 206
▁المعني 206
▁mine_en 206
sert_en 206
gin_en 206
▁automat_en 206
Bo_en 206
ms_en 206
ah_en 206
ki 205
▁block 205
▁not 205
▁Data 205
pression 205
▁Ja 205
▁Sho 205
▁Import 205
lan 205
ão 205
▁writing 205
▁dé_fr 205
▁parties 205
▁na_hr 205
ί 205
▁á_is 205
ge_de 205
هم_ar 205
tu_en 205
ka_en 205
ins_en 205
▁transport_en 205
▁gi_en 205
cio_en 205
▁Agreement 205
white 204
▁su 204
▁He 204
gger 204
gon 204
scribe 204
▁bere 204
▁copy 204
­ 204
▁fan_mg 204
▁एक_hi 204
▁na_bs 204
ေ 204
▁এই_bn 204
ər 204
▁idan 204
▁Il_mt 204
مل_ar 204
sy_en 204
еп 203
▁= 203
via 203
▁Op 203
bles 203
pen 203
yl 203
lin 203
▁An 203
▁nuk 203
▁method 203
▁capital 203
ര 203
▁ئى 203
▁ھەقىقەتەن 203
▁is_gd 203
għ 203
고 203
▁وقت_ar 203
▁Em_en 203
▁explain 203
▁Edit 202
▁Sal 202
02 202
pic 202
▁obe 202
▁stran 202
▁una_ca 202
▁vers 202
▁facilit 202
വ 202
New 202
اط 202
မှု 202
ချ 202
▁မ 202
န် 202
ୀ 202
▁van_af 202
వ 202
▁evidence 202
▁عملية 202
▁Aku_id 202
▁que_en 202
▁ef_en 202
ham_en 202
тан 201
Ba 201
Ko 201
▁ten 201
▁Jeg_da 201
▁ud 201
IS 201
dam 201
................ 201
zing 201
▁ایک 201
eye 201
ni_xh 201
le_xh 201
▁của 201
ି 201
▁i_no 201
க்க 201
კ 201
▁είναι 201
ment_mt 201
No_en 201
▁Pre_en 201
▁Ja_en 201
▁section 200
OS 200
tur 200
tal 200
zon 200
▁zen 200
ske 200
gn 200
▁regi 200
▁मैं 200
vert 200
ጠ 200
ክ 200
لف 200
▁گا 200
دعو 200
طل 200
تصل 200
▁Hello 200
▁sett 200
ен_tt 200
▁ndị 200
▁speed 200
▁لأ 200
▁Contact 200
க 200
▁θα 200
تصدي 200
▁بأ 200
ume 199
tes 199
par 199
est 199
sha 199
▁ver 199
vu 199
▁port 199
iti 199
Lo 199
over 199
to_mg 199
▁April 199
ни_mk 199
▁(1 199
▁ئا_ug 199
▁ฉัน 199
▁atá 199
te_nb 199
ть_ru 199
PS_en 199
▁experience 199
vel 198
eva 198
kin 198
28 198
▁mom 198
ائي 198
▁na_sr 198
▁kwe_xh 198
▁Only 198
▁progress 198
บ 198
▁ولا 198
▁a_eu 198
قي 198
▁вы_ru 198
ੇ 198
nes_en 198
▁ni_en 198
▁afraid 198
lement_en 198
en 197
nda 197
dition 197
tre 197
26 197
don 197
▁van 197
▁Central 197
ob 197
▁interna 197
ב 197
ie 197
▁tele 197
5) 197
ET 197
लं 197
▁дека 197
▁ہی 197
كان 197
▁building 197
▁ne_sh 197
წ 197
غير 197
▁при_ru 197
▁aku_id 197
▁Z 196
ER 196
sen 196
ry 196
▁Cre 196
▁Zi 196
04 196
ist 196
▁prevent 196
▁har_da 196
70 196
— 196
▁China 196
ún 196
大 196
▁zijn 196
▁coup 196
ុ 196
პა 196
క 196
▁lalle 196
os_es 196
ੋ 196
عمل 196
▁x_en 196
▁2, 195
▁char 195
stan 195
▁go 195
~ 195
▁fill 195
09 195
ech 195
▁App 195
ina_mg 195
ğ 195
▁Medi 195
back 195
directory 195
月 195
رت 195
▁huh 195
▁s_sk 195
on_eo 195
ih_sh 195
▁za_hr 195
▁og_no 195
ల 195
▁N_ar 195
▁Page 194
ser 194
▁c 194
▁Ph 194
▁Bas 194
eg 194
▁Mark 194
SP 194
60 194
mond 194
EM 194
tten 194
▁som_da 194
▁regional 194
ient 194
▁ሁሉ 194
▁Even 194
», 194
ကြ 194
▁dá_ga 194
▁pas_fr 194
ទ 194
▁jeg_no 194
ά 194
స్ 194
но_ru 194
را_ar 194
▁منذ 194
sti_en 194
▁para_en 194
tan_en 194
▁II_en 194
2006 193
te 193
ca 193
07 193
▁web 193
mar 193
para 193
▁Pen 193
89 193
▁Filter 193
gal 193
asi 193
tru 193
▁anh 193
▁creat 193
ች 193
ጥ 193
▁گے 193
ဆ 193
▁uma_pt 193
▁com_pt 193
ସ 193
ট 193
▁s_cs 193
id_et 193
▁på_no 193
▁يتعلق 193
دى_ar 193
▁أساس 193
▁worry 193
▁Je_en 193
SA 192
▁da 192
▁mor 192
▁spa 192
▁Pla 192
fol 192
29 192
teri 192
text 192
dig 192
87 192
▁Mrs 192
▁fi_mg 192
َ 192
نص 192
▁First 192
ның_tt 192
▁Display 192
▁هو 192
ნჲ 192
▁zã 192
▁po_sl 192
▁at_lv 192
▁Ri_en 192
▁mid_en 192
▁Ni_en 192
Password_en 192
▁Hu_en 192
▁focus 191
▁American 191
SC 191
Develop 191
▁Pre 191
nar 191
▁n 191
ל 191
ע 191
▁Ve 191
▁Fri 191
▁ket 191
▁sta 191
ksi 191
▁Y 191
▁cal 191
▁contribu 191
▁bot 191
▁po_sk 191
มา 191
▁chose 191
ní_cs 191
▁cu_ro 191
▁с_uk 191
▁ap_lv 191
تر_ar 191
▁ش_ar 191
VER_en 191
ssen_en 191
». 190
Pa 190
nom 190
ben 190
ute 190
# 190
▁Oh 190
ban 190
▁opinion 190
▁Wi 190
build 190
▁store 190
lip 190
شكل 190
▁मी 190
ത 190
ቃ 190
▁پھر 190
ستان 190
▁لن 190
sz_hu 190
ရန် 190
ka_xh 190
▁September 190
rew 190
▁માટે 190
্য_bn 190
lar_az 190
▁parents 190
où 190
▁шумо 190
க் 190
do_es 190
▁auf 190
를 190
جمهورية 190
action_en 190
ide_en 190
ATION_en 190
iti_en 190
▁x 189
▁des 189
▁Evolution 189
vet 189
wit 189
Advanced 189
ff 189
ग 189
▁execut 189
ෙ 189
▁ඔයා 189
ස් 189
burn 189
▁م_ur 189
جم 189
ง 189
▁I_rw 189
▁beautiful 189
▁zuen 189
▁across 189
راق_ar 189
▁Ka_en 189
mu_en 189
Le 188
▁tri 188
▁explo 188
ju 188
▁man 188
stin 188
▁shu 188
▁tal 188
▁apart 188
fel 188
mul 188
2009 188
те_mk 188
ک 188
ائق 188
▁تخ 188
ł 188
▁ئۇلارنىڭ 188
kho_xh 188
▁du_sv 188
▁den_sv 188
▁ne_cs 188
▁om_nb 188
▁pod_sh 188
lər 188
▁court 188
▁би_tg 188
▁جه 188
▁ჟთ 188
▁π 188
like_en 188
▁March_en 188
▁almost 188
ных 187
▁at 187
35 187
▁Exp 187
▁Va 187
▁Parti 187
▁Sc 187
▁është 187
del 187
so 187
ene 187
▁Ye 187
loud 187
French 187
/1 187
മ 187
▁اون 187
ku_xh 187
er_af 187
▁comh 187
▁de_nb 187
▁med_nb 187
▁har_no 187
أن 187
▁от_ru 187
▁Sie_de 187
은 187
hu_en 187
ju_en 187
tar_en 187
▁Korea 186
▁HTML 186
▁Max 186
▁plan 186
struct 186
▁ju 186
▁blog 186
▁Biz 186
תי 186
▁Ga 186
ense 186
▁35 186
LA 186
in_mg 186
▁vi 186
▁similar 186
ከ 186
ٹ 186
▁za_sk 186
ာ 186
ۇ 186
yo_xh 186
▁ଅ 186
▁આ 186
い 186
▁practice 186
▁pri_sh 186
يلي 186
no_it 186
▁nicht 186
▁das_de 186
ie_en 186
strict 185
book 185
68 185
▁settings 185
▁Tar 185
▁va 185
▁fe 185
EN 185
vo 185
▁Bank 185
top 185
tter 185
gge 185
▁statisti 185
▁Ny_mg 185
▁vehicle 185
▁ќе 185
▁آپ 185
▁o_sk 185
▁بۆ 185
▁ya_xh 185
ର୍ 185
▁že_cs 185
▁questions 185
▁ស 185
جري 185
▁Mai_ha 185
▁è_it 185
ji_mt 185
▁di_wa 185
ਪ 185
تو_ar 185
▁tax_en 185
▁en 184
nu 184
iz 184
▁client 184
▁מה 184
▁ש_he 184
▁1996 184
uar 184
pro 184
ino 184
▁sex 184
▁viol 184
عرب 184
ائف 184
yon 184
is_eo 184
हरू 184
▁O_az 184
te_fr 184
ლთ 184
▁جديد 184
ರ 184
▁تر_ar 184
▁*. 183
▁Ул 183
ek 183
▁Man 183
zi 183
▁can 183
▁all 183
lat 183
je_sq 183
kar 183
vat 183
rant 183
▁sit 183
meter 183
▁du_da 183
▁(1) 183
▁handle 183
▁Make 183
rough 183
▁sense 183
نے 183
▁Was 183
spread 183
EE 183
reading 183
ច 183
▁است_fa 183
أحكام 183
bu_en 183
▁mis_en 183
▁nei_en 183
ap 182
windows 182
2, 182
▁sa 182
fs 182
▁multi 182
▁Per 182
▁90 182
▁Mer 182
▁student 182
roll 182
▁dele 182
▁nature 182
ama 182
Calendar 182
جو 182
لي 182
▁za_bs 182
ቁ 182
▁onlar 182
▁że 182
si_xh 182
চ 182
▁Allahın 182
▁con_fr 182
υ 182
▁size_ps 182
μα 182
▁за_uk 182
▁l_it 182
st_de 182
بذل 182
▁tidak_id 182
▁ab_en 182
▁bir_en 182
▁arm 181
▁hour 181
ata 181
ny 181
ya 181
05 181
▁deg 181
▁refer 181
ford 181
▁Date 181
blu 181
7/ 181
hang 181
rain 181
3) 181
ता_hi 181
▁National 181
▁natural 181
为 181
ህ 181
ያ 181
سر 181
▁تن 181
▁ne_sr 181
▁grand 181
▁ikkje 181
وي 181
as_eo 181
ได้ 181
▁си_bg 181
ně 181
▁Muhammad 181
ga_et 181
▁til_no 181
▁అవును 181
يف 181
ción_es 181
▁ir_mt 181
▁EUR_en 181
ron 180
nes 180
ig 180
nt 180
▁Option 180
VI 180
▁po 180
▁fly 180
.1 180
▁izy 180
▁2015 180
Script 180
委员会 180
ര്‍ 180
ኑ 180
ማ 180
channel 180
▁کوئی 180
قوم 180
▁üçün 180
▁be_nl 180
wind 180
▁we_xh 180
we_xh 180
ko_xh 180
ĩ 180
ไป 180
da_et 180
▁cross 180
თ 180
Artikolu 180
▁Pri_en 180
▁Mu_en 180
▁sal_en 180
ent 179
▁demand 179
▁kan 179
eti 179
▁tru 179
▁leg 179
▁fu 179
ear 179
▁Trans 179
posit 179
▁serve 179
cce 179
国 179
ጣ 179
▁ئە 179
رى_ug 179
дән 179
يين 179
▁å_no 179
▁της 179
्या_mr 179
▁itu_id 179
▁suggest 179
pp 178
▁Dra 178
▁quant 178
vis 178
▁mes 178
▁ad 178
bri 178
▁Du 178
▁gu 178
▁Sorry 178
▁un_gl 178
▁realiz 178
▁die_nl 178
▁met_nl 178
лык_tt 178
ু 178
ค 178
ว่า 178
▁faoi 178
th_ga 178
▁учун 178
▁m_lt 178
▁o_ro 178
გა 178
ნ 178
▁and_gd 178
▁Я_uk 178
▁بر_fa 178
ċ 178
▁بو_ar 178
gan_en 178
▁Ga_en 178
▁SA 177
CC 177
▁sort 177
ט 177
ve_sq 177
rse 177
▁0, 177
▁ity 177
قت 177
▁avo 177
▁os 177
▁Enter 177
▁volume 177
ountain 177
bookmarks 177
▁C_ga 177
verage 177
le_et 177
ҳо_tg 177
τα 177
▁του 177
an_ms 177
سي 177
روس 177
▁mu_ha 177
an_ha 177
▁su_es 177
▁una_it 177
▁in_mt 177
▁لك 177
▁بموجب 177
▁voi_en 177
ць_be 176
▁J 176
▁calendar 176
▁ri 176
▁2014 176
ha_mg 176
tam 176
▁Art 176
▁आ_hi 176
▁conduc 176
▁documents 176
并 176
▁Would 176
ය 176
تنا 176
▁si_sk 176
▁um_xh 176
▁да_tt 176
ыгыз 176
વા 176
▁trouble 176
▁sai_ha 176
▁immediat 176
▁ne_sl 176
ale_en 176
ante_en 176
▁hi 175
script 175
win 175
▁York 175
Office 175
its 175
av 175
ס 175
▁00 175
ona 175
san 175
valu 175
/2 175
▁भी 175
▁nego 175
chie 175
▁framework 175
▁لئے 175
وح 175
sz_pl 175
لا_ug 175
▁os_pt 175
▁update 175
▁Settings 175
রা 175
la_az 175
▁అ 175
إ 175
▁zuwa 175
ġ 175
▁er_de 175
▁to_lv 175
ادة 175
pha_en 175
▁filter_en 175
▁Public 174
ji 174
▁font 174
▁Note 174
▁Kan 174
▁Ver 174
▁150 174
▁Over 174
▁ser 174
mas 174
des 174
▁6. 174
-3 174
▁ignor 174
umu 174
برا 174
نقل 174
▁du_nn 174
istic 174
▁এক 174
equence 174
▁ni_rw 174
▁opportun 174
▁نه_ku 174
ప 174
▁का_mr 174
▁y_en 174
lay_en 174
▁sun_en 174
▁ann_en 174
ка_be 173
▁mi 173
ker 173
ira 173
▁el 173
▁f 173
ident 173
▁hu 173
LO 173
▁Mis 173
▁Hell 173
dro 173
▁ने 173
علان 173
▁sam_sr 173
▁og_nn 173
setting 173
▁do_sk 173
▁origin 173
▁A_pt 173
শ 173
ની 173
▁bi_sh 173
▁Ə 173
▁ke_ms 173
ed_gd 173
زيد 173
ли_ru 173
ದ 173
▁المعلومات 173
▁ir_en 173
tri_en 173
э 172
▁se 172
Part 172
ja 172
▁Af 172
▁Ca 172
▁tre 172
▁Mu 172
▁Pe 172
uta 172
▁pos 172
▁sh_sq 172
4/ 172
▁turi 172
ara 172
▁bri 172
▁far 172
▁Jack 172
sjon 172
observ 172
▁glad 172
2007 172
يب 172
Security 172
上 172
ፍ 172
▁A_hu 172
▁za_sr 172
ەت 172
nye_xh 172
▁ta_vi 172
▁ও 172
ต 172
▁har_nb 172
ation_fr 172
▁amended 172
χ 172
▁kan_ha 172
▁ji_mt 172
UR_en 172
ft 171
▁Q 171
ala 171
▁w 171
▁per 171
[ 171
di 171
pri 171
▁industri 171
▁ki 171
▁Government 171
ison 171
▁Sig 171
& 171
تك 171
lank 171
38 171
地 171
ാ 171
▁ball 171
بط 171
▁für 171
▁firm 171
▁se_pt 171
ତ 171
ৰ্ 171
લ 171
เป็น 171
bh_ga 171
ύ 171
▁τα 171
عي 171
ان_fa 171
▁الصلة 171
can_en 171
▁Par_en 171
▁por_en 171
▁The 170
CD 170
ler 170
Help 170
AP 170
Language 170
ari 170
era 170
▁gi 170
▁English 170
▁host 170
▁promo 170
▁ku 170
▁population 170
ray 170
od 170
° 170
् 170
▁coordina 170
طر 170
owe 170
تىن 170
▁بىز 170
▁một 170
егез 170
ଦ 170
▁October 170
▁sam_hr 170
▁air_gd 170
▁da_br 170
▁ما_fa 170
▁ūađ 170
ación_es 170
▁kau_id 170
je_en 170
▁ke_en 170
ад 169
▁yan 169
▁ob 169
▁Tal 169
▁Bi 169
ili 169
▁context 169
▁tan 169
▁Bal 169
ën 169
tri 169
▁Ri 169
▁reg 169
for 169
▁auto 169
nica 169
▁art 169
▁TO 169
▁මට 169
ፈ 169
▁aan_nl 169
▁World 169
သော 169
▁Det_sv 169
▁express 169
▁по_bg 169
ли_uz 169
π 169
▁تدا 169
வ 169
▁اين 169
ību 169
▁جن_ar 169
دو_ar 169
▁إليه 169
ركز 169
▁التدابير 169
▁dan_id 169
▁J_en 169
▁programmes_en 169
▁Gi 168
val 168
les 168
▁music 168
ec 168
▁Sir 168
ents 168
▁vo 168
▁op 168
▁Shu 168
▁000 168
▁(2) 168
▁تق 168
ॉ 168
चा 168
▁Call 168
事 168
ትን 168
رف 168
▁é_gl 168
bid 168
لىق 168
та_bg 168
▁representativ 168
না_bn 168
dan_az 168
▁Convention 168
டி 168
▁క 168
▁i_it 168
▁بن_ar 168
BAR_en 168
pon_en 168
sto_en 168
▁by 167
▁fem 167
▁simple 167
▁ge 167
wa 167
sti 167
inter 167
Config 167
▁polici 167
▁Mini 167
int 167
fo 167
▁por 167
88 167
UL 167
▁hi_mg 167
عيد 167
ते_hi 167
▁rad 167
我 167
日 167
▁jest 167
▁do_gl 167
قا_ug 167
▁сезгә 167
do_pt 167
▁audio 167
ma_et 167
▁kgm_se 167
▁dan_ms 167
▁package 167
្រ 167
ல 167
rik_eu 167
▁నేను 167
▁رئيس 167
▁da_it 167
KE_mt 167
ळ 167
▁ق_ar 167
▁مو_ar 167
▁Wat_en 167
▁red_en 167
plica 166
dre 166
▁z 166
▁Un 166
kon 166
▁calcul 166
con 166
▁der 166
bes 166
nder 166
▁financ 166
rd 166
ball 166
▁Free 166
▁Alt 166
▁St 166
▁US 166
▁ina 166
tiva 166
▁perfect 166
▁arba 166
র্ 166
▁ще 166
▁η 166
la_sh 166
▁ré_fr 166
ப் 166
რა 166
▁nan_ha 166
▁z_sl 166
▁għandhom 166
▁الأمين 166
mu_id 166
▁Te_en 166
▁×_en 166
О 165
▁Vietnam 165
▁45 165
▁Od 165
ini 165
sur 165
▁Gu 165
sko 165
▁wy 165
▁station 165
90 165
▁to_mg 165
▁Out 165
▁आप_hi 165
▁twi 165
▁ት 165
▁fruit 165
▁ne_sk 165
▁Fund 165
▁đã 165
ଶ 165
▁A_rw 165
te_et 165
▁paper_ps 165
▁ប 165
▁ჲრ 165
▁e_br 165
న్ 165
▁Ka_ha 165
▁della 165
Regolament 165
ता_mr 165
ko_en 165
▁з_be 164
▁mas 164
▁Ci 164
▁pane 164
▁Det_da 164
produc 164
old 164
▁gent 164
▁ط 164
▁हम 164
▁Ap 164
▁scen 164
▁August 164
uit 164
▁rem 164
ല 164
▁ഒരു 164
ዘ 164
▁el_hu 164
nh 164
▁rou 164
▁introduc 164
▁قا_ug 164
▁кеше 164
ୋ 164
সমূহ 164
User 164
ત 164
effects 164
▁chur_ga 164
▁ut_nb 164
▁nə 164
▁November 164
ول_ps 164
movie 164
et_br 164
▁ن_fa 164
▁البلدان 164
▁pun_en 164
▁ja_en 164
▁de 163
▁indi 163
▁sli 163
С 163
ll 163
star 163
pas 163
Di 163
ada 163
▁Gal 163
▁300 163
▁sor 163
▁Ten 163
64 163
hen 163
Bu 163
cycl 163
▁32 163
86 163
▁CO 163
▁sam_bs 163
▁aux 163
▁የተ 163
▁جب 163
▁لوگ 163
gy_hu 163
▁skladu 163
▁ukuba 163
мә 163
▁self 163
ન 163
▁با_fa 163
▁lai_lv 163
ec_en 163
▁computer_en 163
lan_en 163
▁region_en 163
▁till_en 163
▁hor_en 163
▁Nor_en 163
ka 162
DE 162
▁pu 162
▁Fa 162
▁pla 162
ק 162
▁70 162
in_sq 162
tel 162
▁Cy 162
▁kwa 162
ila 162
EK 162
ima 162
HO 162
▁؟ 162
▁वह 162
▁ne_bs 162
cum 162
▁ആ 162
▁آس 162
er_nl 162
na_xh 162
ithe_ga 162
ima_sh 162
▁akan_ms 162
▁عدد 162
▁med_no 162
er_no 162
عهد 162
▁Ge_en 162
ia_en 162
▁tu_en 162
scape 161
▁o 161
▁program 161
ac 161
lla 161
▁dr 161
lle 161
lik 161
▁hospital 161
prop 161
tek 161
▁ce 161
طور 161
EZ 161
റ 161
▁ሰው 161
▁ሆ 161
▁што_mk 161
ni_hu 161
ya_xh 161
▁in_af 161
ß 161
▁бир_uz 161
▁আ_bn 161
▁ne_hr 161
▁у_uk 161
▁إطار 161
las_en 161
CR_en 161
CE_en 161
▁Test_en 161
she_en 161
OL 160
85 160
▁mar 160
ation 160
К 160
isi 160
ana 160
ז 160
▁Jo 160
bir 160
nud 160
▁impact 160
pport 160
ar_ca 160
كە 160
لىرى 160
▁সে 160
る 160
▁maidir 160
ган_uz 160
η 160
▁த 160
ని 160
▁sa_ha 160
▁بد_ar 160
vy_en 160
▁g_en 160
list_en 160
pro_en 160
cat_en 160
▁fit_en 160
type 159
RO 159
() 159
nic 159
ura 159
ere 159
ai 159
2004 159
49 159
▁Log 159
▁France 159
▁am 159
34 159
出 159
▁medic 159
▁zi_xh 159
▁sẽ 159
na_sv 159
да_tt 159
енә 159
দ 159
ения 159
il_ga 159
tha_ga 159
▁ou_fr 159
▁qu_fr 159
▁un_ro 159
ch_gd 159
▁to_ha 159
▁it_mt 159
mail_en 159
▁Ti_en 159
▁r_en 159
▁Ab_en 159
llen_en 159
▁hun_en 159
dus_en 159
ang 158
up 158
▁te 158
EL 158
gram 158
▁Pri 158
ling 158
inne 158
stal 158
it_sq 158
Po 158
rí 158
wood 158
tsa 158
▁بعض 158
51 158
anie 158
maximum 158
ൂ 158
▁و_ur 158
حب 158
ny_hu 158
▁Two 158
▁كان 158
ер_tt 158
▁хак 158
▁externa 158
▁তার 158
▁do_cs 158
▁ce_fr 158
▁contribution 158
▁sa_et 158
▁ber_ms 158
▁نيو 158
▁ეჲ 158
▁που 158
ες 158
جلس 158
▁mit_de 158
ch_de 158
فريق 158
زيادة 158
tro_en 158
▁crazy 158
org 157
ers 157
▁Mode 157
ES 157
Com 157
▁arrest 157
det 157
spe 157
bili 157
nis 157
HA 157
muni 157
▁glas 157
33 157
face 157
▁besi 157
与 157
▁እ 157
ካ 157
رج 157
عم 157
▁şi 157
▁unha 157
▁ban 157
မှာ 157
cz 157
▁Nie_pl 157
▁Tôi 157
▁яки 157
▁applicable 157
▁স_bn 157
টি_bn 157
▁attention 157
se_et 157
▁yra 157
▁että 157
▁របស់ 157
▁៖ 157
te_it 157
▁s_mt 157
▁والو_ar 157
ku_id 157
▁ini_id 157
uri_en 157
ser_en 157
▁hon_en 157
tha_en 157
▁Pra_en 157
SD 156
ant 156
ph 156
39 156
ami 156
▁min 156
,000 156
▁machine 156
▁prefer 156
▁Bra 156
len 156
US 156
▁info 156
▁assist 156
75 156
grade 156
cell 156
▁conf 156
opera 156
ችሁ 156
▁اگر_ur 156
لم 156
چى 156
zo_xh 156
дан_tt 156
ণ 156
માં 156
▁é_fr 156
▁nuo 156
▁ar_lt 156
ូ 156
ти_uk 156
어 156
의 156
▁الاتحاد 156
إضافي 156
▁akan_id 156
phi_en 156
mos_en 156
oth_en 156
▁ter_en 156
TA 155
TS 155
0,000 155
▁hid 155
▁Sp 155
titude 155
▁Yo 155
work 155
▁2016 155
EMAIL 155
▁especial 155
ите_mk 155
တွင် 155
န်း 155
bo_xh 155
yê 155
▁de_sv 155
મ 155
ー 155
re_ga 155
▁dėl 155
▁ن_ku 155
▁pe_ro 155
▁sem_sl 155
us_lv 155
▁ar_cy 155
ਸ 155
hair_en 155
sten_en 155
nel_en 155
PO_en 155
нг 154
▁0. 154
system 154
read 154
bro 154
▁Vol 154
▁Video 154
sten 154
▁er 154
08 154
TI 154
fra 154
mbi 154
▁Home 154
rin 154
03 154
erne 154
rum 154
▁agent 154
Da 154
ची 154
▁እነዚያ 154
▁ја 154
وط 154
Chinese 154
နေ 154
لار_ug 154
▁ya_ig 154
▁N_ig 154
▁করা 154
პთ 154
zione 154
▁ce_en 154
rit_en 154
ina_en 154
rom_en 154
tin_en 154
1, 153
▁para 153
La 153
figur 153
tica 153
▁America 153
CK 153
▁♪ 153
▁kri 153
sku 153
▁Fi 153
jen 153
▁minimum 153
fa_mg 153
▁raha 153
▁Nem 153
▁Temp 153
Windows 153
▁concentra 153
▁(3) 153
ട 153
▁کرتے 153
▁مش 153
▁gada 153
ယ် 153
▁سىلەر 153
▁o_xh 153
be_xh 153
▁бар_tt 153
นะ 153
▁OF_se 153
▁TRANSLATORS_se 153
▁bi_sl 153
ਤ 153
ली_mr 153
حظ 153
▁ber_id 153
▁Cho_en 153
fo_en 153
▁av 152
rio 152
fish 152
ige 152
66 152
ँ 152
▁club 152
cade 152
layers 152
verse 152
▁Onlar 152
▁is_af 152
ક 152
ુ 152
▁don_ga 152
▁za_cs 152
▁یه_ku 152
ρ 152
న 152
ем_ru 152
▁i_cy 152
ने_mr 152
▁आ_mr 152
خت_ar 152
ؤكد 152
test_en 152
▁Run_en 152
▁tal_en 152
ki_en 152
▁mu_en 152
vor_en 152
▁tea_en 152
har 151
▁Name_oc 151
▁Pas 151
cro 151
▁TV 151
▁Export 151
hu 151
mble 151
48 151
TER 151
je_fy 151
41 151
77 151
▁Inc 151
▁nav 151
▁Blu 151
de_nl 151
တ် 151
▁က 151
▁Service 151
thi_xh 151
ପ 151
some 151
হ 151
च्या 151
も 151
ne_nb 151
তা_bn 151
nja_sh 151
▁justice 151
▁stupid 151
он_tg 151
▁per_lt 151
פֿ 151
سه 151
ា 151
▁Nu_ro 151
▁du_eu 151
▁egin 151
adh_gd 151
▁ఆ 151
عزيز 151
ль_ru 151
▁ein_de 151
ības 151
ار_ar 151
رى_ar 151
wo_en 151
mmer_en 151
▁Nu_en 151
qu_en 151
ple_en 151
ё 150
лек 150
ion 150
ma 150
RS 150
▁Av 150
ics 150
ך 150
י 150
nte 150
▁mal 150
▁ter 150
▁central 150
▁ring 150
▁Menu 150
▁strategi 150
▁drag 150
ko_mg 150
itra 150
▁sla 150
43 150
uf 150
▁ख़ुदा 150
▁pl 150
▁de_li 150
来 150
ിക്ക 150
▁අ 150
مس 150
▁مەن 150
يس 150
▁competent 150
ମ 150
▁is_ga 150
aithe 150
lah_ms 150
action_yi 150
▁σε 150
▁na_gd 150
▁يه 150
ti_it 150
▁pār 150
مي_ar 150
لاحظ 150
▁لجنة 150
ву 149
Do 149
ring 149
▁argument 149
8/ 149
▁pr 149
▁As 149
▁Ge 149
▁original 149
tim 149
▁Ke 149
▁kar 149
▁gen 149
mpi 149
inen 149
▁Ki 149
▁azy 149
media 149
री_hi 149
es_ca 149
UT 149
സ് 149
ја 149
то_mk 149
مال 149
▁U_xh 149
кә 149
▁conclu 149
то_bg 149
▁n_ga 149
ġi 149
ma_mt 149
▁tar_mt 149
▁الولايات 149
▁KDE_en 149
▁Ba_en 149
BAR 148
ia 148
Ma 148
▁attend 148
▁Col 148
▁Char 148
holder 148
▁nga_sq 148
TY 148
bur 148
▁Ju 148
▁aka 148
iana 148
amp 148
-2 148
fec 148
vice 148
rank 148
श 148
▁ही_hi 148
▁West 148
ලා 148
▁እርሱ 148
▁እነርሱ 148
በ 148
▁شر 148
مار 148
مر 148
▁وضع 148
▁ere 148
▁er_nl 148
oor 148
▁note 148
▁vy_sk 148
န 148
▁سىلەرگە 148
▁бир_tt 148
ଳ 148
ଟ 148
ни_bg 148
▁lena 148
▁a_az 148
st_et 148
да_tg 148
iđ 148
ំ 148
గ 148
▁م_fa 148
na_mt 148
▁sto_en 148
organisation_en 148
post_en 148
ной 147
rite 147
65 147
nik 147
raz 147
▁Kon 147
46 147
▁GNOME 147
▁Development 147
ART 147
▁hal 147
law 147
uda 147
▁अपने 147
Browse 147
ቱ 147
ዝ 147
▁جس 147
▁se_gl 147
တာ 147
сыз 147
▁প্ৰ 147
ら 147
ene_nb 147
nim_sh 147
▁خوا_ku 147
ោ 147
ដ 147
ர 147
கள் 147
პ 147
ీ 147
ku_ha 147
ੀ 147
طة 147
mas_en 147
▁bag_en 147
▁br 146
ts 146
▁Ya_oc 146
▁Go 146
▁notification 146
rre 146
▁km 146
rik 146
hir 146
▁online 146
▁fort 146
▁blo 146
▁folk 146
ée 146
37 146
sper 146
将 146
ија 146
မှ 146
ပ် 146
▁ο 146
▁kaj_eo 146
▁var_sv 146
▁аларга 146
▁জন্য 146
▁mar_ga 146
en_no 146
▁இ 146
కు 146
▁al_es 146
▁j_mt 146
▁pie_lv 146
ਣ 146
an_id 146
gu_en 146
▁Format 145
gua 145
ela 145
ko_oc 145
lly 145
▁אתה 145
▁test 145
▁Kin 145
▁ok 145
Pro 145
06 145
▁David 145
▁Reg 145
nn 145
vent 145
▁TRANSLATORS 145
dica 145
Be 145
▁participa 145
所 145
▁ക 145
بل 145
جد 145
né_sk 145
ဲ 145
▁regular 145
ىنى 145
oj_eo 145
▁ки_tt 145
▁башка 145
แล้ว 145
im_ga 145
obligation 145
▁te_sh 145
▁solution 145
bbli 145
is_lt 145
ព 145
▁e_ro 145
▁sweet 145
an_gd 145
▁هم_fa 145
▁sun_ha 145
▁a_wa 145
▁Eiropas 145
احت_ar 145
ru_en 145
▁Um_en 145
▁din_en 145
▁difference 145
nia 144
dy 144
▁March_oc 144
ega_oc 144
bell 144
▁Peter 144
ות 144
▁Men 144
në 144
ong 144
pre 144
▁il 144
▁II 144
▁Frank 144
lici 144
▁Es 144
67 144
hana_mg 144
aria 144
ffa 144
▁OF 144
▁és_ca 144
▁criminal 144
സ 144
▁አል 144
▁иде 144
فاق 144
▁Аллаһудан 144
▁ପ 144
่ 144
iú 144
anna_ga 144
▁প_bn 144
▁plus_fr 144
▁te_et 144
▁μου 144
ctivity 144
sa_ha 144
ми_ru 144
در_ar 144
▁الط 144
ні_be 143
dir 143
▁label 143
MS 143
▁edit 143
▁em 143
▁On 143
ome 143
ns 143
ati 143
ida 143
far 143
▁u_sq 143
jar 143
Ar 143
OT 143
▁bomb 143
▁fri 143
▁200 143
ME 143
▁roll 143
sam 143
▁ii 143
▁vir 143
ude 143
▁gas 143
▁usu 143
▁els_ca 143
ዋ 143
▁ናቸው 143
ме_mk 143
▁یا 143
▁والا_ur 143
▁عليه 143
مع 143
قل 143
▁esse 143
ယ 143
ထ 143
ိ 143
▁ngoku_xh 143
▁minute 143
ฉัน 143
▁in_rw 143
▁Saya_ms 143
ta_fi 143
▁Det_no 143
ლა 143
▁le_it 143
ja_sl 143
▁għandu 143
ਿ 143
▁त्या 143
مسألة 143
▁title_en 143
ban_en 143
▁constitu_en 143
▁IN_en 143
Р 142
▁Editor 142
▁על 142
▁Kar 142
ja_sq 142
▁kor 142
▁Tro 142
▁president 142
▁For 142
▁sam 142
▁disk 142
▁de_fy 142
desktop 142
▁modifi 142
bil 142
wan 142
ION 142
▁es_ca 142
▁extens 142
▁conce 142
▁convi 142
است 142
تے 142
▁حد 142
دت 142
lf 142
▁som_nn 142
ov_sk 142
ခ 142
ခဲ့ 142
▁le_xh 142
▁ke_eo 142
an_eo 142
amh_ga 142
ti_hr 142
ர் 142
▁დჲ 142
يح 142
▁про_ru 142
ни_ru 142
jo_sl 142
▁i_mt 142
▁be_de 142
▁arī 142
ಾ 142
▁الأمر 142
▁Dan_en 142
tre_en 142
▁sou_en 142
ход 141
has 141
▁Sco 141
▁rich 141
ania 141
ovi 141
▁Plan 141
ו 141
▁har 141
▁Polic 141
kun 141
▁Put 141
▁ben 141
CH 141
▁Comment 141
red 141
▁items 141
▁et_da 141
▁definiti 141
▁olan 141
▁match 141
▁faha 141
▁hoe_mg 141
▁Yu 141
▁exclu 141
vanje 141
▁Cu 141
index 141
▁nu 141
▁viđ 141
ö 141
ዳ 141
زا 141
▁skont 141
် 141
္ 141
ىڭلار 141
tha_xh 141
▁đó 141
▁t_vi 141
▁бу_tt 141
▁ବ 141
คุณ 141
িত_bn 141
▁efforts 141
tų 141
▁būti 141
▁ა 141
اث 141
da_mt 141
▁a_lv 141
os_lv 141
ು 141
▁नाही 141
type_en 141
▁Comment_en 141
▁Ki_en 141
▁kgm_be 140
tem 140
▁Send 140
ure 140
ga_oc 140
▁Sy 140
▁Far 140
una 140
ras 140
▁flu 140
rat 140
met 140
▁Tri 140
ef 140
▁Arab 140
▁val 140
AM 140
Plugin 140
▁identifi 140
2005 140
pli 140
▁IV 140
▁mpi 140
72 140
CT 140
▁Pat 140
pes 140
▁No_ca 140
▁آن 140
▁خط 140
رب 140
▁para_gl 140
▁debate 140
▁Non_gl 140
ENT 140
▁pre_sk 140
▁o_pl 140
▁mal_eo 140
▁г_tt 140
▁reflect 140
idh_ga 140
▁У_uz 140
দের 140
▁manufactur 140
β 140
▁victim 140
ja_et 140
▁ma_et 140
் 140
ლვ 140
θ 140
ren_eu 140
ar_es 140
▁disease 140
▁el_en 140
▁tag 139
▁direction 139
nta 139
ule 139
ojn 139
nju 139
▁Hu 139
rian 139
ori 139
rie 139
isti 139
▁ie 139
▁Under 139
▁IP 139
▁gar 139
lun 139
53 139
▁emerg 139
ат_mk 139
▁ve_tr 139
▁garde 139
▁structure 139
▁итеп 139
▁O_pt 139
nye_ig 139
ড 139
จะ 139
▁ли_bg 139
ta_ga 139
és_fr 139
▁Merci 139
▁мо_tg 139
ya_ku 139
▁ព 139
▁ទ 139
த்த 139
த 139
▁რთ 139
go_eu 139
بيان 139
▁lo_es 139
as_es 139
▁February 139
li_mt 139
▁ich_de 139
▁ਅ 139
يت_ar 139
▁esti_en 139
▁dia_en 139
fu_en 139
▁III_en 139
▁CD 138
кан 138
ire 138
▁memory 138
▁Air 138
▁Dan 138
ic 138
▁א_he 138
zan 138
llo 138
tate 138
ifi 138
▁ak 138
ens 138
dow 138
▁Bel 138
▁vi_da 138
miss 138
ité 138
▁مرا 138
▁và 138
cel 138
国家 138
ላችሁ 138
እ 138
length 138
но_mk 138
▁ہوں 138
▁خاص 138
قص 138
بناء 138
▁eit 138
▁Kingdom 138
▁glo 138
စ 138
cie_pl 138
ke_xh 138
khe 138
▁okanye 138
κ 138
ท 138
ছে_bn 138
ka_sh 138
də 138
▁s_fr 138
▁jo_fi 138
▁ei_fi 138
▁ce_ro 138
▁что_uk 138
డ 138
ет_ru 138
āk 138
▁ਆ 138
▁كانون 138
▁pat_en 138
pper_en 138
pri_en 138
▁uz 137
ions 137
▁y 137
pan 137
▁URI 137
ner 137
▁bra 137
▁לה 137
ime 137
ani 137
jer 137
` 137
▁sind 137
▁medicin 137
ordin 137
gry 137
57 137
▁ara_mg 137
▁n_mg 137
▁ihany 137
tak 137
els 137
▁fini 137
▁එක 137
▁ඒක 137
вр 137
▁کچھ 137
دان 137
▁democr 137
▁Full 137
de_sv 137
ва_bg 137
лик_uz 137
tă 137
▁ব_bn 137
▁a_et 137
▁худ 137
ем_tg 137
▁ин_tg 137
▁ini_ms 137
რთ 137
▁c_br 137
صادر 137
ta_ha 137
ta_it 137
ba_mt 137
la_mt 137
리 137
rap_en 137
▁fra_en 137
aren_en 137
Mu_en 137
▁це 136
нар 136
▁q 136
▁Code 136
▁men 136
▁Tab 136
ndi 136
ici 136
▁hund 136
▁cu 136
▁ECB 136
ise 136
pris 136
▁2013. 136
▁ta_mg 136
36 136
▁govern 136
sk 136
▁cro 136
format 136
▁क्या 136
रा_hi 136
▁al_ca 136
ീ 136
ග 136
▁ባ 136
▁አት 136
گ 136
▁سب_ur 136
رد 136
ဆို 136
▁“% 136
ła 136
قى_ug 136
▁әйт 136
▁କରନ୍ତୁ 136
પ 136
ない 136
ais_ga 136
▁билан 136
▁narkotika 136
▁তাদের 136
est_fr 136
ашон 136
imo_lt 136
▁δεν 136
▁τον 136
▁za_eu 136
ma_ha 136
▁об_ru 136
ки_ru 136
▁ge_de 136
ಕ 136
▁ke_id 136
ab_en 136
ane_en 136
▁ag_en 136
гі 135
▁Connect 135
▁East 135
▁Press 135
▁tar 135
▁org_oc 135
▁לי 135
▁pak 135
▁her 135
ks 135
io 135
iste 135
▁George 135
▁stol 135
lt 135
▁Ken 135
OD 135
8) 135
mouth 135
gra 135
ło 135
▁Ty 135
▁किया 135
▁यह 135
optional 135
▁ona 135
▁¡ 135
▁presente 135
dur 135
▁Assembly 135
ම් 135
▁፣ 135
▁እን 135
ضر 135
فض 135
parent 135
▁ဖိုင် 135
▁بار_ug 135
ڭلار 135
▁ئۇلارغا 135
▁đ 135
▁кешеләр 135
ny_tk 135
ка_bg 135
на_bg 135
▁at_nb 135
▁বা_bn 135
it_fr 135
▁ҳар_tg 135
si_lt 135
ער_yi 135
▁meg_no 135
ო 135
la_eu 135
ach_gd 135
▁ب_fa 135
da_ha 135
zzjoni 135
te_de 135
▁an_de 135
▁tā 135
▁أم 135
▁syn_en 135
▁hat_en 135
sc_en 135
▁evaluat 135
▁Am_en 135
▁Sort 134
▁mark 134
ман 134
ord 134
GB 134
▁Mod 134
▁ת 134
gin 134
▁Je 134
▁Kom 134
jon 134
▁influ 134
hom 134
▁reform 134
▁um 134
ppen 134
browser 134
west 134
vere 134
▁ex 134
▁Great 134
▁mobil 134
▁Van 134
lain 134
▁تكون 134
▁Stra 134
▁अ_hi 134
ला_hi 134
▁van_li 134
IBM 134
▁amb_ca 134
其 134
《 134
በት 134
▁criteri 134
▁طرف_ur 134
▁بل 134
▁مست 134
▁om_nl 134
▁License 134
ထား 134
▁được 134
ын_tt 134
җ 134
▁একটি 134
よ 134
▁Le_fr 134
visible 134
ma_lt 134
je_lt 134
inių 134
ែ 134
▁at_no 134
▁av_no 134
▁В_ru 134
▁si_it 134
▁dan_mt 134
ung_de 134
▁pa_lv 134
ذكر 134
Sa_en 134
rea_en 134
▁welcome 134
▁ach_en 134
lder_en 134
▁pre 133
▁ca 133
bli 133
zel 133
▁We 133
כ 133
ם 133
Ne 133
▁Iran 133
hel 133
▁Ein 133
▁Hal 133
▁protest 133
eks 133
▁34 133
▁colle 133
tio 133
▁Na_mg 133
àna 133
▁Human 133
ery 133
ile 133
AD 133
Name 133
下 133
》 133
ിയ 133
ො 133
та_mk 133
▁ایمان 133
اغ 133
▁to_sr 133
သူ 133
ni_pl 133
▁ئىش 133
za_xh 133
▁vi_sv 133
▁από 133
▁simpl 133
ହ 133
▁I_ga 133
▁chomh 133
on_ga 133
▁huma 133
Accord 133
ū 133
mo_lt 133
ді_kk 133
־ 133
▁گه 133
▁Π 133
zu_eu 133
يض 133
ar_mt 133
▁Nru 133
▁tad_mt 133
▁des_de 133
▁ko_lv 133
▁ਹੈ 133
ले_mr 133
▁एक_mr 133
▁السلام_ar 133
▁ج_ar 133
▁حال_ar 133
▁El_en 133
▁il_en 133
▁smo_en 133
▁qu_en 133
▁der_en 133
hara_en 133
org_en 133
▁mar_oc 132
che_oc 132
▁es 132
▁son 132
General 132
(3) 132
▁9. 132
▁Het 132
▁Mal 132
▁El 132
vos 132
▁ves 132
▁stu 132
▁skr 132
▁mis 132
RI 132
gel 132
▁pixels 132
▁Print 132
▁potential 132
kla 132
▁(@ 132
phan 132
▁Has 132
ई 132
ín 132
▁satisf 132
国际 132
会 132
▁ነገር 132
▁kif 132
▁we_nl 132
لەر 132
▁ياخشى 132
▁l_vi 132
ar_sv 132
▁әлбәттә 132
▁por_pt 132
▁Germany 132
อ 132
но_bg 132
al_ga 132
си_uz 132
▁pro_cs 132
▁ikke_nb 132
▁Special 132
employe 132
mas_lt 132
▁Α 132
ko_fi 132
▁ជា 132
პვ 132
ే 132
రి 132
no_sl 132
▁d_wa 132
منظمة 132
▁بإ 132
zi_en 132
cha_en 132
▁detect_en 132
dan_en 132
rit 131
▁translation 131
ley 131
ei 131
cor 131
Co 131
▁Em 131
▁af 131
▁Balti 131
iga 131
▁Serbia 131
▁של 131
▁Ku 131
ita 131
Al 131
ros 131
▁st 131
▁dan 131
DA 131
tr 131
WE 131
▁ind 131
▁spar 131
▁liber 131
▁Islam 131
ध 131
đa 131
cip 131
▁descri 131
▁musu 131
▁ක 131
ප 131
▁قدم 131
ő 131
▁gali 131
my_pl 131
▁no_pt 131
ગ 131
▁નથી 131
ให้ 131
ス 131
し 131
▁aon 131
▁এ_bn 131
টা_bn 131
▁Ma_et 131
▁чӣ 131
re_se 131
▁untuk_ms 131
▁tidak_ms 131
ki_eu 131
عين 131
st_is 131
▁i_lv 131
ಯ 131
ਰੀ 131
يه_ar 131
▁Za_en 131
▁Z_en 131
bri_en 131
STE_en 131
cho_en 131
▁surviv 131
▁av_en 131
▁chi 130
pur 130
59 130
iva 130
rimin 130
ow 130
▁hotel 130
ov 130
lje 130
lak 130
kli 130
bru 130
▁Des 130
tte 130
date 130
▁mm 130
▁respond 130
▁Ir 130
▁positiv 130
▁A_mg 130
sem 130
▁House 130
ए 130
!) 130
▁bez 130
7) 130
▁36 130
ኛ 130
▁ہے۔ 130
▁تف 130
▁ett 130
▁A_gl 130
▁disco 130
▁maar 130
▁discuss 130
ów 130
ىل 130
كل 130
▁cho_vi 130
ме_tt 130
down 130
মা 130
มัน 130
▁be_nb 130
og_sh 130
▁wata 130
ើ 130
ப்ப 130
▁მთ 130
▁P_gd 130
▁eo_br 130
nsu_ha 130
▁со_ru 130
▁l_wa 130
ਕ 130
▁ست_ar 130
zz_en 130
▁mon_en 130
▁bet_en 130
▁regul_en 130
zip 129
▁Access 129
ken 129
▁pal 129
▁Report 129
vid 129
FI 129
nge 129
ku 129
▁85 129
▁ISO 129
scar 129
▁revi 129
▁a_mg 129
yin 129
▁अस 129
▁plat 129
▁eine 129
▁impos 129
preci 129
▁我 129
හ 129
▁Не_mk 129
نا_ur 129
▁مح 129
▁әйтте 129
ଲ 129
aigh 129
ře 129
nje_sh 129
EMAIL_se 129
▁bi_ku 129
▁شما 129
▁நீங்கள் 129
ли_uk 129
la_sl 129
▁الفترة 129
▁untuk_id 129
ya_en 129
▁written 129
▁dan_en 129
▁tur_en 129
▁warning 128
scope 128
▁sen 128
▁ka_sq 128
▁Fu 128
▁Paul 128
▁pare 128
▁3, 128
7, 128
▁regula 128
▁signal 128
/4 128
ister 128
▁7. 128
▁f_mg 128
▁ilay 128
hy_mg 128
▁aho 128
HER 128
etan 128
▁वे 128
▁स_hi 128
ून 128
▁sud 128
▁mort 128
▁പ 128
ස 128
ел 128
инг 128
سع 128
atu 128
ော 128
تا_ug 128
▁ze_xh 128
▁ama_xh 128
▁White 128
ыр_tt 128
▁ґәзаб 128
gging 128
▁що 128
▁ch_ga 128
▁бер_uz 128
ce_cs 128
ske_nb 128
▁অ_bn 128
▁онҳо 128
ος 128
كن 128
ាយ 128
ட 128
ე 128
▁Window 128
▁ви_uk 128
▁الخط 128
▁na_ha 128
▁к_ru 128
▁u_zu 128
ne_sl 128
in_de 128
서 128
▁الأساسية 128
▁مل_ar 128
▁<_en 128
▁Shi_en 128
pho_en 128
▁tempo_en 128
▁Nothing 128
▁den_en 128
ali_en 128
▁string 127
IP 127
Ga 127
ד 127
voj 127
▁fl 127
▁hy 127
IL 127
mes 127
nto 127
stream 127
▁component 127
get 127
▁54 127
mit 127
▁Western 127
वा_hi 127
▁मला 127
vre 127
nant 127
aspect 127
ക്ക 127
▁නෑ 127
И 127
یں 127
▁کرو 127
▁سل 127
iñ 127
fast 127
▁قىلغان 127
ư 127
Device 127
ン 127
って 127
▁Не_bg 127
▁Audio 127
▁performance 127
▁ne_fr 127
ونه 127
Manager 127
zh_br 127
خير 127
اري 127
▁id_mt 127
▁Die_de 127
ju_lv 127
▁السي 127
▁وبال 127
position_en 127
UTF_en 127
▁па_be 126
ны_be 126
▁menu 126
▁ў_be 126
Б 126
ice 126
▁ab 126
SI 126
cas 126
▁Mike 126
▁planet 126
”, 126
imi 126
▁mund 126
pal 126
▁sont 126
▁ag 126
ind 126
tering 126
gro 126
iv 126
Ha 126
▁slav 126
71 126
bas 126
▁liste 126
zana 126
main 126
AB 126
▁39 126
ें 126
▁Super 126
cco 126
▁les_ca 126
▁intent 126
▁recon 126
以 126
▁ഞാന്‍ 126
ка_mk 126
▁این 126
▁kan_nn 126
▁med_nn 126
င်း 126
كون 126
▁no_xh 126
де_tt 126
▁ga_ig 126
ટ 126
▁jsem 126
će_sh 126
▁U_sh 126
▁kaip 126
▁d_lt 126
▁Σ 126
сы_kk 126
▁kamu_ms 126
▁label_yi 126
si_fi 126
ου 126
ich_gd 126
ом_ru 126
ja_lv 126
نة 126
جميع 126
ib_en 126
lin_en 126
▁relative_en 126
ва_be 125
we 125
бу 125
▁Та 125
ria 125
ista 125
▁sal 125
▁Met 125
▁tradition 125
▁01 125
▁8. 125
▁Ter 125
▁panta 125
▁mad 125
▁Post 125
use 125
www 125
▁bes 125
▁lill 125
▁sad 125
▁absolut 125
ola 125
▁Wal 125
▁μ 125
का_hi 125
▁Chap 125
lage 125
sual 125
▁critic 125
行 125
▁تمہارے 125
بع 125
de_tr 125
ge_nl 125
▁specif 125
▁ba_xh 125
▁người 125
ган_tt 125
сез 125
▁as_pt 125
ଗ 125
má_ig 125
ষ 125
▁initial 125
ં 125
િ 125
ant_fr 125
▁Nr_lt 125
▁pri_lt 125
კჲ 125
▁fãce 125
че_ru 125
żi 125
▁Ver_de 125
mu_lv 125
▁Wa_en 125
til_en 125
▁je_en 125
Allah_en 125
▁bon_en 125
▁вы_be 124
PI 124
▁bel 124
UN 124
▁ste 124
FA 124
hat 124
▁ман 124
▁OF_oc 124
▁TRANSLATORS_oc 124
nal 124
▁Act 124
Add 124
zin 124
▁נ_he 124
te_sq 124
▁kre 124
▁negativ 124
▁Mari 124
▁operator 124
▁Park 124
ier 124
▁Bri 124
dra 124
en_fy 124
elt 124
▁profit 124
sal 124
▁la_mg 124
▁ha_mg 124
▁band 124
ख 124
prem 124
▁тоа 124
▁رب 124
▁ha_hu 124
got 124
ellen 124
ð 124
▁correspond 124
er_nn 124
▁တ 124
ရေး 124
ရှိ 124
▁agenc 124
ۆ 124
▁nói 124
୍ର 124
▁en_af 124
▁ge_af 124
▁breath 124
gər 124
ни_tg 124
jiet 124
▁dia_ms 124
▁ca_ro 124
ம 124
ჲ 124
ten_eu 124
اعتماد 124
ла_ru 124
▁uku_zu 124
▁to_sl 124
▁size_wa 124
ترك 124
▁مس_ar 124
▁ch_en 124
▁Hun_en 124
og_en 124
ndo_en 124
▁mg_en 124
SS 123
учы 123
▁э 123
55 123
▁Min 123
▁de_oc 123
▁inter 123
▁profil 123
hra 123
▁ap 123
Pre 123
▁Unit 123
her 123
fir 123
▁Er 123
▁bar 123
ika 123
▁borde 123
▁deleg 123
91 123
▁Cri 123
2003 123
▁beste 123
▁mba_mg 123
Go 123
še 123
ció 123
connect 123
ണ 123
▁ዘንድ 123
▁አይ 123
▁اسے 123
▁ساتھ 123
▁کار 123
▁is_hu 123
▁neu 123
▁ze_nl 123
▁det_nn 123
om_sk 123
▁Anh 123
әгәр 123
▁булыр 123
la_tk 123
য়ে 123
กับ 123
का_ne 123
た 123
ми_uz 123
▁il_fr 123
il_fr 123
▁participation 123
▁бо_tg 123
į 123
ید_fa 123
▁dõmin 123
▁sem_is 123
▁al_it 123
▁sie_de 123
로 123
اور_ar 123
los_en 123
nou_en 123
mista_en 123
ja_en 123
▁> 122
gt 122
ete 122
▁jo 122
▁ur 122
▁City 122
▁motor 122
▁Som 122
▁37 122
lap 122
▁tren 122
lem 122
kor 122
sim 122
hy 122
▁organi 122
ajn 122
erna 122
▁King 122
▁kan_da 122
der_da 122
gang 122
Ra 122
▁administrativ 122
▁inf 122
▁Abraham 122
And 122
▁प_hi 122
▁koja 122
▁šo 122
cion 122
联合国 122
者 122
ക 122
ർ 122
ෝ 122
ල් 122
جال 122
စ် 122
ည် 122
ny_pl 122
ch_pl 122
▁ئەگە 122
▁m_vi 122
▁cô 122
▁gì 122
et_sv 122
лары_tt 122
лә 122
▁гамәл 122
▁түгел 122
▁сезнең 122
▁Não 122
kwu 122
িত_as 122
খ 122
▁preview 122
શ 122
▁го_bg 122
▁c_ga 122
▁Улар 122
▁бу_uz 122
▁German 122
▁এটা_bn 122
্যা_bn 122
▁কি_bn 122
tud_et 122
tas_lt 122
σ 122
▁Name_se 122
▁م_ku 122
زي 122
ρα 122
▁C_gd 122
ия_ru 122
je_sl 122
gen_de 122
وقف 122
tem_en 122
pre_en 122
▁Ste_en 122
▁ama_en 122
▁wil_en 122
▁Ж 121
рт 121
78 121
Т 121
ung 121
This 121
MA 121
аш 121
cha 121
tso 121
stat 121
מ 121
נו 121
jem 121
VE 121
▁Programme 121
sole 121
administration 121
▁sva 121
▁stat 121
▁Joe 121
1) 121
73 121
bia 121
ppy 121
Is 121
wen 121
▁micro 121
▁कुछ 121
É 121
▁del_ca 121
▁expert 121
▁celebra 121
ാണ് 121
ില്ല 121
ැ 121
ነበ 121
▁والد 121
telli 121
▁için 121
▁en_gl 121
ို 121
مە 121
lwa 121
▁đi 121
▁ut_sv 121
έ 121
▁ón_ga 121
▁α 121
▁Romania 121
নি_bn 121
me_lt 121
▁to_hr 121
▁aku_ms 121
▁traffic 121
▁из_ru 121
ਡ 121
▁이 121
한 121
▁فر_ar 121
▁Q_en 121
shi_en 121
кі_be 120
na 120
$ 120
▁ку 120
play 120
new 120
ne 120
toolbar 120
▁500 120
▁Rec 120
▁res 120
▁aus 120
tty 120
▁hem 120
▁sama 120
▁kap 120
dal 120
100 120
▁Ed 120
lys 120
▁kg 120
my 120
▁vel 120
58 120
▁led 120
zie 120
▁maha 120
▁Win 120
▁Protocol 120
▁Mc 120
khu 120
▁čo 120
rp 120
▁دیا 120
رق 120
ပြ 120
▁ئۇنىڭ 120
گى 120
زى 120
se_xh 120
ye_xh 120
ny_xh 120
▁esi_xh 120
▁làm 120
▁phải 120
▁ch_vi 120
tä 120
▁Ий 120
ма_tt 120
▁କ 120
เธอ 120
ไม่ 120
▁Aontais 120
▁re_fr 120
▁avec 120
▁som_no 120
ை 120
ფ 120
▁მა 120
ώ 120
▁haƙĩƙa 120
▁ver_de 120
▁med_en 120
▁unit_en 120
П 119
▁fi 119
▁pop 119
▁Bru 119
▁Organiz 119
▁Wel 119
jet 119
tir 119
dit 119
lis 119
▁Is 119
-4 119
set 119
▁Str 119
slag 119
▁dra 119
Orientation 119
aux 119
▁sand 119
▁mene 119
▁Photo 119
gir 119
▁dokument 119
▁olona 119
▁fana 119
▁nas 119
▁Ireland 119
card 119
▁इस 119
▁ሰዎች 119
ኝ 119
ларни 119
▁خدا_ur 119
یان 119
فل 119
▁جانب 119
رار 119
▁me_nl 119
▁ein_nn 119
مى 119
▁nge_xh 119
▁Әг 119
জ 119
ર્ 119
▁ku_rw 119
わ 119
り 119
く 119
▁bhfuil 119
δ 119
▁o_cs 119
▁po_cs 119
▁se_fr 119
ées 119
us_et 119
ҷ 119
je_hr 119
▁នៅ 119
▁មិន 119
ல் 119
▁ότι 119
▁і_uk 119
▁до_uk 119
да_ru 119
▁E_it 119
▁is_mt 119
▁a_mt 119
▁r_mt 119
▁d_mt 119
▁سب_ar 119
▁لإ 119
▁pil_en 119
▁Name_be 118
▁Ш 118
Shortcut 118
version 118
97 118
▁destina 118
tat 118
én 118
pla 118
ula 118
end 118
wi 118
gos 118
lon 118
anta 118
tres 118
kt 118
▁sy 118
▁Google 118
▁sk 118
Ê 118
ne_da 118
bud 118
tali 118
▁informe 118
stituti 118
idad 118
▁io_mg 118
ih 118
نس 118
ti_bs 118
▁conflict 118
▁confi 118
▁Fuck 118
න්න 118
▁پاس 118
မ်း 118
▁تا_ug 118
چە 118
يق 118
phu_xh 118
▁wa_xh 118
▁lwe_xh 118
▁Ich 118
▁published 118
ларын 118
гы_tt 118
ка_tt 118
ଖ 118
▁প্র 118
ห 118
▁δ 118
ғ 118
EU_sh 118
▁n_fr 118
▁requested 118
▁tai_lt 118
▁tak_ms 118
▁په_ku 118
ជ 118
▁στο 118
te_eu 118
ra_eu 118
ка_uk 118
ar_ha 118
ti_sl 118
▁s_sl 118
بدأ 118
De_en 118
▁ris_en 118
▁br_en 118
udi_en 118
nia_en 118
II_en 118
▁ene_en 118
vit_en 118
ным 117
▁за_be 117
▁Windows 117
CO 117
Ta 117
▁it 117
ale 117
дар 117
▁Gro 117
stre 117
▁Joseph 117
▁ir 117
▁Gen 117
▁di 117
▁situa 117
gl 117
imin 117
▁Ky 117
oma 117
ito 117
lú 117
▁dit 117
ops 117
rid 117
br 117
▁bila 117
va_mg 117
▁India 117
ena 117
于 117
ace 117
eme 117
▁anima 117
▁nuclear 117
▁distin 117
▁നീ 117
ත 117
▁මේ 117
▁እናንተ 117
▁деб 117
▁بول 117
بت 117
او 117
× 117
▁len 117
wu 117
mañ 117
wel 117
te_sk 117
كم 117
يون 117
the_xh 117
▁en_xh 117
TOR 117
лы_tt 117
та_tt 117
્ 117
▁गर्न 117
▁F_ga 117
hair_ga 117
▁I_nb 117
▁fra_nb 117
va_sh 117
▁ya_az 117
▁pentru 117
ோ 117
ს 117
▁ღვ 117
გთ 117
ek_eu 117
▁on_gd 117
ные 117
ల్ 117
ست_fa 117
de_de 117
▁es_de 117
▁الدورة 117
لى_ar 117
ern_en 117
▁et_en 117
hou_en 117
ble 116
▁title 116
data 116
▁\ 116
▁Ok 116
Ho 116
▁problem 116
oz 116
▁website 116
▁09 116
▁kal 116
▁tekst 116
▁1990 116
▁spirit 116
▁12. 116
▁Appli 116
▁continu 116
▁ke 116
llis 116
ø 116
▁mandat 116
dla 116
▁registr 116
▁prote 116
▁teo 116
ah 116
nad 116
ink 116
▁करते 116
nut 116
▁bij 116
ló 116
▁consult 116
或 116
应 116
▁53 116
▁አለ 116
▁لیے 116
تا_ur 116
▁قبل 116
▁Christian 116
mili 116
ico 116
▁over_nl 116
ho_sk 116
wa_pl 116
сә 116
▁кылган 116
▁эш 116
▁na_pt 116
▁প_as 116
▁এটা_as 116
▁যা 116
ๆ 116
▁ผม 116
chair 116
▁é_ga 116
▁у_uz 116
▁kan_nb 116
▁to_lt 116
▁bisa 116
le_ro 116
▁se_ro 116
▁care_ro 116
▁க 116
▁ப 116
ევ 116
τε 116
άν 116
▁er_eu 116
us_br 116
ного_ru 116
ей_ru 116
šanas 116
ਸ਼ 116
art_en 116
ky_en 116
raq 115
бер 115
▁pas 115
ele 115
ג 115
ש 115
▁komp 115
kus 115
by 115
dos 115
gr 115
▁die 115
DP 115
▁Grand 115
BA 115
▁mag 115
bet 115
▁Proc 115
▁`% 115
▁44 115
▁Prim 115
▁centre 115
▁4, 115
▁FOR 115
▁propor 115
olo 115
كت 115
ui 115
▁Allaha 115
▁ස 115
▁කරන්න 115
▁کرنے 115
ران 115
▁iman 115
(_ 115
thu_xh 115
▁yin 115
aŭ 115
ূ 115
▁থেকে 115
ุ 115
ั 115
▁isə 115
▁C_fr 115
ré_fr 115
ta_lt 115
▁ჲ 115
▁თჱ 115
ეა 115
ლჲ 115
క్ 115
اني 115
ويل 115
na_is 115
▁это_ru 115
▁для_ru 115
▁rock 115
▁biex 115
▁līdz 115
▁o_cy 115
▁مثل_ar 115
مجموعة 115
mm_en 115
▁Ser_en 115
▁hint_en 115
ari_en 115
rich 114
CP 114
ib 114
▁time 114
FF 114
44 114
off 114
▁Aga 114
▁gro 114
▁Franc 114
osta 114
▁Red 114
stri 114
▁dal 114
ag 114
flu 114
▁database 114
Sta 114
ный 114
▁vil_da 114
▁pri 114
kle 114
4) 114
▁Nic 114
▁blind 114
▁Tsy 114
▁48 114
▁अल्लाह 114
Mac 114
性 114
96 114
以及 114
本 114
പ്പ 114
ത് 114
lich 114
▁ማ 114
▁из_mk 114
из 114
ние 114
قام 114
▁ö 114
▁de_tr 114
â 114
▁Sai 114
ś 114
▁يا_ug 114
سىز 114
▁li_eo 114
▁аларның 114
быз 114
os_pt 114
▁คุณ 114
te_ga 114
▁আমার 114
▁ver_az 114
in_fr 114
▁at_lt 114
▁s_hr 114
▁a_fi 114
▁Ez_eu 114
ar_is 114
го_ru 114
▁ku_zu 114
Kummissjoni 114
di_mt 114
in_mt 114
ಂ 114
▁خ_ar 114
▁قا_ar 114
bb_en 114
ug_en 114
▁То 113
5, 113
▁DE 113
дон 113
76 113
TE 113
▁08 113
▁Son 113
header 113
ול 113
▁38 113
hit 113
bul 113
▁Italia 113
nja 113
▁telefon 113
iri 113
▁SO 113
kal 113
pul 113
rata 113
az 113
▁koa 113
llu 113
TT 113
▁ren 113
te_da 113
elig 113
lev 113
hyl 113
rif 113
▁software 113
▁eo_mg 113
▁anatin 113
▁rai 113
kirin 113
▁Line 113
▁rat 113
▁rob 113
फ 113
sus 113
kie 113
▁profession 113
问题 113
PE 113
ли_mk 113
▁kell 113
▁van_hu 113
▁hall 113
▁fac 113
den_nl 113
▁သ 113
တဲ့ 113
ောင် 113
▁in_sv 113
▁я_tt 113
▁zone 113
▁faịlụ 113
સ 113
มี 113
▁ти_bg 113
▁hEorpa 113
مارس 113
ət 113
▁ta_et 113
▁a_lt 113
▁Du_no 113
▁ლთ 113
మ 113
ట్ 113
▁خدا_fa 113
يد_fa 113
ci_ha 113
su_ha 113
em_lv 113
▁d_cy 113
다 113
mar_en 113
Ma_en 113
▁sme_en 113
▁Ch_en 113
▁Facebook_en 113
ан 112
▁ка 112
▁Ф 112
▁Za 112
sia 112
cus 112
HE 112
▁הוא 112
rë 112
së 112
▁push 112
sional 112
▁ul 112
mel 112
nke 112
▁Iz 112
nnen 112
map 112
ning 112
▁je 112
▁inde 112
bran 112
▁pul 112
▁52 112
▁Belgi 112
79 112
▁haka 112
▁tena 112
▁tam 112
▁cool 112
▁هناك 112
▁Bol 112
aj 112
ष 112
▁gir 112
vien 112
▁manifest 112
▁conversa 112
就 112
▁ඒ 112
▁අපි 112
ී 112
ዕ 112
▁ይህ 112
ува_mk 112
یم 112
جل 112
جز 112
há 112
▁öz 112
ti_sr 112
▁frå 112
▁od_sk 112
▁قىلىپ 112
ىمىز 112
qo_xh 112
▁La_eo 112
▁Ĉu 112
ĉ 112
ographic 112
ле_tt 112
ଚ 112
ก็ 112
ป 112
▁et_nb 112
lig_nb 112
▁ক_bn 112
▁pre_sh 112
▁heç 112
▁Il_fr 112
▁või 112
▁σ 112
ст_tg 112
▁Europos 112
▁suke 112
γ 112
▁awak_ms 112
ke_ku 112
ყ 112
ె 112
▁под_ru 112
▁Nr_lv 112
▁तो_mr 112
▁الآن 112
ظل 112
توفير 112
▁القانون 112
هذه 112
▁تقرير 112
▁h_en 112
▁alt_en 112
▁una_en 112
eve_en 112
eur_en 112
лі_be 111
": 111
56 111
52 111
▁properly 111
▁bug 111
sy 111
jo 111
▁accident 111
sser 111
▁Gri 111
▁אין 111
▁hey 111
74 111
▁bre 111
isa 111
ev 111
lli 111
tore 111
ip 111
▁j 111
▁vol 111
print 111
gne 111
oxy 111
▁gift 111
69 111
ma_mg 111
ho_mg 111
anje 111
▁Heb 111
▁su_bs 111
▁ha_ca 111
▁actual 111
Down 111
ides 111
▁Way 111
rrangement 111
} 111
(4) 111
ර් 111
ቶች 111
ዛ 111
▁ти_mk 111
▁لوگوں 111
فو 111
مور 111
▁cancel 111
ွန် 111
تۇر 111
▁sono 111
▁kan_sv 111
ande_sv 111
ый_tt 111
ида 111
▁Албатта 111
li_az 111
▁violence 111
▁summa 111
EB_lt 111
ល 111
ிய 111
მვ 111
ჱ 111
na_eu 111
ద 111
▁To_ha 111
▁kuwa 111
▁до_ru 111
ва_ru 111
nie_lv 111
▁var_lv 111
▁ਲਈ 111
▁لو_ar 111
▁كانت 111
إقليمي 111
تون_ar 111
▁sufficient 111
bre_en 111
chi_en 111
▁vil_en 111
▁sh_en 111
▁prima_en 111
не_be 110
Ch 110
▁ven 110
sub 110
▁Dec 110
tric 110
▁Cam 110
ex 110
cí 110
..." 110
ët 110
▁fur 110
▁tur 110
nim 110
▁plane 110
▁histori 110
dik 110
▁heb 110
▁med 110
▁resto 110
▁10. 110
tis 110
dul 110
▁str 110
lek 110
▁kol 110
▁Director 110
ide 110
▁fra 110
▁familie 110
▁burde 110
AG 110
mbra 110
حل 110
run 110
▁लोग 110
▁to_bs 110
isen 110
▁́ 110
▁دن 110
رض 110
▁واحد 110
nan 110
▁Island 110
▁humanit 110
bu_xh 110
yi_xh 110
▁izan 110
▁sich 110
▁por_eo 110
▁ышан 110
▁ଆ 110
▁অ_as 110
▁হ_as 110
▁из_bg 110
сиз 110
achadh 110
иш_uz 110
ини_uz 110
te_cs 110
nom_sh 110
que_fr 110
▁condition 110
ên_ku 110
▁وانه 110
მა 110
PS_gd 110
ки_uk 110
ні_uk 110
ijiet 110
야 110
▁مشروع 110
▁حتى 110
▁طريق 110
enti_en 110
▁Ben_en 110
▁Vis_en 110
▁cri_en 110
ell_en 110
▁surprise 110
iden_en 110
ix_en 110
▁мал 109
на_be 109
▁regions 109
▁om 109
▁attribute 109
action 109
ich 109
nga 109
▁Minu 109
til 109
▁spi 109
▁Hol 109
jali 109
stu 109
the 109
pru 109
cer 109
▁Spa 109
▁Kor 109
rom 109
yn 109
▁we 109
▁NO 109
por 109
▁Ob 109
▁izao 109
▁Egypt 109
▁oma 109
ज़ 109
▁si_bs 109
en_ca 109
▁බ 109
لت 109
حت 109
ler_tr 109
▁intens 109
▁terrible 109
▁interpret 109
တွေ 109
شى 109
▁ĉi 109
▁Аллаһуның 109
▁ягъни 109
ação 109
▁ọ 109
▁বাবে 109
เลย 109
การ 109
na_ga 109
▁th_ga 109
▁už_lt 109
ση 109
▁will_gd 109
▁that_gd 109
▁ఒక 109
تصوي 109
▁yã 109
▁ni_ha 109
▁ĩmãni 109
▁ūú 109
▁я_ru 109
▁ri_it 109
am_lv 109
حماية 109
▁°_en 109
ц 108
▁Во 108
OP 108
Ja 108
PL 108
art 108
▁ata 108
▁grup 108
▁ta_sq 108
RT 108
PA 108
▁alarm 108
▁mini 108
▁Os 108
▁modern 108
▁Feder 108
oli 108
berg 108
alo 108
▁Fir 108
▁33 108
▁illegal 108
▁5, 108
ta_mg 108
▁misy 108
osa 108
ccup 108
tet 108
ित_hi 108
lus 108
jas 108
ሕ 108
▁с_mk 108
ви_mk 108
▁انہیں 108
▁تھے 108
▁تھا 108
دخل 108
ás 108
ın_tr 108
▁kum 108
la_sk 108
iť 108
▁ئۆز 108
▁قىل 108
▁za_xh 108
ma_xh 108
▁булды 108
▁Ε 108
ચ 108
นี้ 108
イ 108
▁ми_bg 108
or_ga 108
né_cs 108
▁বি_bn 108
▁হয়_bn 108
▁pro_sh 108
▁sizə 108
▁mereka_ms 108
▁កម្មវិធី 108
ნვ 108
▁ს 108
ta_eu 108
da_eu 108
IC_gd 108
ть_uk 108
ి 108
نظم 108
▁kõ_ha 108
▁hann_is 108
▁ha_es 108
▁se_it 108
ma_lv 108
ना_mr 108
기 108
▁spel_en 108
piece 108
eld_en 108
ESS 107
▁GNU 107
IE 107
EMAIL_oc 107
exp 107
mir 107
▁data 107
MP 107
▁Bos 107
▁Mill 107
gues 107
▁et 107
ham 107
▁Mag 107
nka 107
▁internet 107
▁sú 107
wo 107
▁plen 107
bund 107
ly_mg 107
ava 107
▁fel 107
▁diso 107
▁pra 107
▁nad 107
▁ഇ 107
▁ප 107
ሻ 107
▁ከዚያ 107
▁ми_mk 107
▁како 107
▁дин 107
▁تمہیں 107
قرب 107
ْ 107
/2012 107
le_tr 107
▁onların 107
▁sa_sr 107
▁adult 107
ောက် 107
▁ئې 107
▁c_vi 107
sä 107
һ 107
ળ 107
ข 107
ları_az 107
▁bu_az 107
un_fr 107
es_lt 107
ға_kk 107
ke_fi 107
▁se_fi 107
ړ 107
ா 107
ும் 107
ეთ 107
UR_gd 107
PO_gd 107
SE_gd 107
на_uk 107
ется 107
ధ 107
ా 107
▁kada_ha 107
ci_it 107
ri_mt 107
▁Ge_de 107
ties_lv 107
▁a_cy 107
إدارة 107
برامج 107
ole_en 107
ens_en 107
ret_en 107
ament_en 107
▁на_be 106
▁б 106
▁ад 106
лер 106
▁// 106
▁wrap 106
▁widget 106
Ex 106
ít 106
can 106
dim 106
teko 106
▁us 106
▁Hel 106
▁Agency 106
▁ide 106
lyn 106
TR 106
IM 106
▁defini 106
sky 106
inner 106
ort 106
▁rot 106
▁rapporter 106
▁Hold 106
▁VI 106
sistent 106
Ro 106
han_mg 106
án 106
▁Paris 106
तो 106
▁manual 106
ात 106
ilo 106
Constellation 106
šu 106
For 106
外 106
提供 106
ള 106
▁си_mk 106
▁ре 106
▁نفس 106
عداد 106
ja_hu 106
▁COM 106
ပြီး 106
لىك 106
ينا 106
sa_xh 106
▁Source 106
▁иман 106
te_pt 106
ିତ 106
axis 106
▁ম 106
▁na_rw 106
ル 106
imh 106
▁sé_ga 106
▁Бас_uz 106
ки_uz 106
re_nb 106
▁Ey_az 106
ni_az 106
importance 106
ҳои 106
▁pagal 106
ών 106
אַ 106
▁mai_ro 106
▁அவர்கள் 106
ே 106
STE_gd 106
▁మరియు 106
ూ 106
▁как_ru 106
aedje 106
ಿ 106
▁الأس 106
صبح 106
▁فإن 106
▁الفر 106
▁A_ar 106
▁ضرور_ar 106
ew_en 106
▁um_en 106
▁tr_en 106
au_en 106
▁не_be 105
▁type 105
▁እንደ 105
GA 105
tin 105
au 105
mbe 105
cin 105
djel 105
ht 105
▁informa 105
tera 105
kur 105
3, 105
last 105
reg 105
▁Vir 105
▁m_mg 105
lika 105
Un 105
zer 105
▁उनके 105
OW 105
te_bs 105
-125 105
NS 105
要 105
ന്‍ 105
▁ග 105
بان 105
▁Black 105
dzi 105
te_sr 105
mi_pl 105
▁دېدى 105
гән 105
▁агар 105
์ 105
▁Ballstáit 105
▁A_cs 105
ch_cs 105
عضو 105
nu_sh 105
▁o_az 105
▁vous 105
▁tik_lt 105
ті_kk 105
▁kau_ms 105
ធ 105
▁ஒரு 105
ία 105
▁ba_eu 105
idh_gd 105
VER_gd 105
IF_gd 105
ATION_gd 105
▁بود 105
um_is 105
la_zu 105
▁so_sl 105
▁أنها 105
▁وعلى 105
lah_id 105
▁ur_en 105
nti_en 105
▁bio_en 105
▁suspend_en 105
une_en 105
nis_en 105
▁у_be 104
нан 104
iza 104
▁Anna 104
gas 104
tana 104
pon 104
▁you 104
▁jam 104
eni 104
▁nerv 104
che 104
▁Martin 104
ey 104
▁han 104
ffi 104
dere 104
▁ME 104
/2011 104
hall 104
▁Ol 104
ydd 104
/3 104
amba 104
▁Pakistan 104
iny 104
▁aza 104
▁extrem 104
▁Pop 104
rac 104
▁dis 104
meni 104
labor 104
▁observa 104
▁bone 104
ന 104
▁മ 104
ቻቸው 104
▁ги_mk 104
ле_mk 104
▁زمین 104
ارت 104
▁stress 104
abil 104
▁da_gl 104
▁chan 104
▁ako_sk 104
▁A_sk 104
ေး 104
▁تە 104
▁بولىدۇ 104
كاف 104
wo_xh 104
▁chúng 104
үче 104
es_pt 104
ของ 104
して 104
んだ 104
▁това 104
те_bg 104
▁m_ga 104
ларга_uz 104
▁айт 104
is_fr 104
ne_et 104
al_et 104
mos_lt 104
▁كه 104
▁កំណត់ 104
▁behar 104
re_eu 104
но_uk 104
ను 104
▁تا_fa 104
▁e_es 104
▁Non_it 104
▁fis_mt 104
▁ते_mr 104
아 104
▁سن_ar 104
▁المقرر 104
▁dia_id 104
html_en 104
ung_en 104
una_en 104
sty_en 104
▁net_en 104
▁pie_en 104
▁prac_en 104
▁units 103
▁Без 103
fu 103
ora 103
dis 103
ket 103
sie 103
▁po_sq 103
ër 103
▁fir 103
pin 103
nji 103
▁gus 103
lai 103
▁idiot 103
ell 103
▁ned 103
▁Auto 103
keyboard 103
tum 103
▁ih 103
mode 103
hus 103
omis 103
▁51 103
ky_mg 103
la_mg 103
te_mg 103
▁sem 103
▁hij 103
▁कोई 103
▁जब 103
छ 103
▁ot 103
rà_ca 103
▁ning 103
▁nous 103
▁domin 103
法 103
ില്‍ 103
ዱ 103
▁ታ 103
مو 103
طبق 103
crit 103
▁De_nl 103
▁werden 103
▁als_nl 103
ing_nl 103
▁crisis 103
▁kui 103
bruk 103
غان 103
ىدىغان 103
▁h_vi 103
ră 103
еннән 103
▁тә 103
▁তা 103
▁қилган 103
ho_cs 103
der_nb 103
im_sh 103
▁et_az 103
▁La_fr 103
▁discussion 103
▁ka_et 103
vad_et 103
ри_tg 103
φ 103
ды_kk 103
▁ក្នុង 103
ப 103
პჲ 103
▁A_gd 103
уу 103
na_ha 103
đur 103
▁Я_ru 103
wr_cy 103
ete_en 103
Restart 103
▁Dar_en 103
▁Canada_en 103
ска 102
шу 102
Д 102
▁Qu 102
geri 102
▁Tele 102
▁grad 102
ende 102
א 102
▁Kur 102
oni 102
▁ndi 102
umi 102
SH 102
▁Et 102
nie 102
sje 102
▁Tan 102
▁Ano 102
▁Par 102
▁fan_fy 102
paper 102
▁Alle 102
grad 102
▁Charlie 102
▁pan 102
▁49 102
rais 102
▁momba 102
▁voa 102
ivo 102
RED 102
house 102
▁participant 102
报告 102
የ 102
ጎ 102
Л 102
▁size_ur 102
▁مر 102
صدر 102
▁ki_hu 102
▁limite 102
▁serie 102
▁ny 102
draw 102
▁u_sk 102
လို 102
ီ 102
များကို 102
wi_pl 102
ۋا 102
▁ب_ug 102
▁yoku_xh 102
nya_xh 102
ungen 102
to_eo 102
▁camera 102
нә 102
▁аларны 102
ଧ 102
বে 102
বি 102
▁selle 102
ют 102
▁bh_ga 102
ku_cs 102
▁তারা 102
▁Bu_az 102
le_fr 102
de_et 102
▁ū 102
kin_fi 102
▁vi_no 102
▁fi_ro 102
ன 102
დ 102
▁zi_eu 102
▁le_gd 102
ку_uk 102
туу 102
▁iz_sl 102
er_mt 102
▁m_mt 102
▁għandha 102
▁dem_de 102
▁im_de 102
▁Be_de 102
اب_ar 102
net_en 102
far_en 102
pool_en 102
▁min_en 102
ils_en 102
▁Се 101
menu 101
▁transi 101
▁Kri 101
▁ber 101
▁Zo 101
▁are 101
") 101
ré 101
cia 101
▁Ang 101
▁ali 101
pot 101
▁tim 101
ni_sq 101
are 101
shi 101
ndo 101
▁Ab 101
tik 101
▁04 101
pia 101
TO 101
▁Mil 101
▁mun 101
▁bru 101
CE 101
▁sto 101
ghe 101
7. 101
▁demonstra 101
▁[2] 101
▁Ch 101
stav 101
▁efa 101
pel 101
▁anda 101
▁CON 101
kele 101
▁od_bs 101
▁može 101
ad_li 101
oon 101
mh 101
▁director 101
61 101
වා 101
▁ቀን 101
ቸው 101
ውን 101
غر 101
قار 101
re_hu 101
ken_nl 101
▁tour 101
ne_nn 101
blis 101
mä 101
ခံ 101
ဝ 101
ချက် 101
لارنى 101
ầ 101
ta_sv 101
нәр 101
▁сугыш 101
as_pt 101
▁prejudic 101
ଜ 101
▁ପ୍ର 101
▁হবে 101
િત 101
▁ná_ga 101
▁invalid 101
da_az 101
occasion 101
re_fr 101
▁culture 101
▁commercial 101
inės 101
▁od_hr 101
▁gant 101
ី 101
et_no 101
te_ro 101
ந்த 101
தி 101
▁ε 101
tzeko 101
▁This_gd 101
▁تحت 101
ado_es 101
▁o_es 101
il_mt 101
라 101
nu_en 101
▁skil_en 101
▁Х 100
ым 100
▁int 100
▁met 100
ï 100
▁ama 100
ej 100
inio 100
▁ça 100
stru 100
▁fat 100
▁(19 100
▁eks 100
nika 100
burg 100
▁Program 100
▁oh 100
tse 100
▁Ek 100
▁op_da 100
▁be_da 100
▁tak 100
▁75 100
lang 100
mis 100
▁Got 100
fi_mg 100
try_mg 100
ty_mg 100
rika 100
▁hafa 100
eh 100
kaz 100
▁dana 100
edi 100
oj 100
tinu 100
▁permanent 100
▁va_ca 100
关于 100
ഭ 100
ക്ക് 100
▁በመ 100
تی 100
بد 100
▁si_sr 100
▁od_sr 100
▁RE 100
▁compensa 100
▁grave 100
.1. 100
space 100
▁Word 100
lung 100
ne_xh 100
▁th_vi 100
▁gh 100
▁бик 100
lar_tk 100
▁আল 100
▁Die_af 100
อยู่ 100
จ 100
▁และ 100
した 100
▁Chomhairle 100
▁by_cs 100
▁kao_sh 100
ne_fr 100
▁See_et 100
▁straipsnio 100
▁А_kk 100
▁dengan_ms 100
ja_fi 100
ايي 100
គ 100
▁så_no 100
▁ம 100
გვ 100
ουν 100
ια 100
ez_eu 100
▁Desktop 100
▁en_br 100
పు 100
يم_fa 100
ديم 100
in_ha 100
▁mutãne 100
▁kun_ha 100
encia_es 100
ni_sl 100
▁Er_de 100
▁feature 100
್ 100
ੁ 100
▁ਬ 100
▁أمر 100
▁الوقت 100
عسكر 100
نش_ar 100
▁kita_id 100
▁sy_en 100
▁Pe_en 100
CI_en 100
▁PM_en 100
▁tro_en 100
▁tid_en 100
рэ 99
▁м 99
▁кал 99
со 99
▁input 99
line 99
рак 99
ador 99
istan 99
▁ze 99
esti 99
▁bat 99
▁kgm_oc 99
▁Esta 99
▁parti 99
bridge 99
▁di_sq 99
vina 99
▁Stu 99
lig 99
mini 99
▁Ak 99
KO 99
PR 99
mien 99
▁Mid 99
eu 99
4, 99
▁Din 99
▁poly 99
▁inspir 99
hl 99
▁taona 99
▁wa 99
hala 99
2.1 99
bona 99
▁Ya 99
ych 99
▁nahi 99
sco 99
▁लोगों 99
▁Muka 99
pol 99
zer_li 99
▁%1$ 99
▁volt 99
turi 99
一个 99
会议 99
▁സ 99
▁ඉ 99
යක් 99
ሪ 99
М 99
فور 99
▁جائے 99
ثر 99
▁قدر 99
▁onları 99
la_sr 99
▁heeft 99
▁ut_nn 99
▁enn 99
၏ 99
ူ 99
ALL 99
قان_ug 99
▁ت_ug 99
▁nga_xh 99
ty_xh 99
▁defend 99
▁này 99
▁bụ 99
িয়ে 99
▁અ 99
ли_bg 99
▁h_ga 99
▁A_ga 99
ine_ga 99
▁si_cs 99
de_nb 99
▁মা_bn 99
▁is_sh 99
ləri 99
▁hər 99
▁Quran 99
une_fr 99
ur_fr 99
نمو 99
ista_fi 99
▁σου 99
ka_eu 99
ir_gd 99
il_gd 99
▁seo_gd 99
▁ur_br 99
జ 99
▁yake 99
er_es 99
▁mhux 99
sch_de 99
be_de 99
ಲ 99
▁ਫਾਇਲ 99
मध्ये 99
시 99
ستخدم 99
▁الخاصة 99
zy_en 99
nie_en 99
lt_en 99
▁п 98
▁kde 98
NAME 98
ye 98
▁It 98
▁Lar 98
tas 98
Style 98
gol 98
▁ו 98
kri 98
kro 98
▁mari 98
bin 98
oje 98
▁Um 98
▁terror 98
dien 98
▁it_fy 98
än 98
▁kur 98
hele 98
▁dag 98
pl 98
▁fan 98
▁ses 98
▁pli 98
sik 98
▁bin 98
2010 98
▁Stor 98
▁11. 98
▁Jen 98
no_mg 98
lam 98
dio 98
rod 98
▁Star 98
▁फिर 98
▁ti_bs 98
▁osta 98
oval 98
uku 98
▁pot 98
▁magi 98
wie_li 98
liga 98
▁sistema 98
42 98
ගේ 98
ሙ 98
ላቸው 98
ሱ 98
▁scor 98
▁آخر 98
جات 98
االله 98
nek_hu 98
hé 98
me_tr 98
▁po_sr 98
▁Brazil 98
▁by_sk 98
သည်။ 98
▁ئۇنىڭغا 98
▁aba_xh 98
hla_xh 98
▁olu_xh 98
▁Li_eo 98
▁upp_sv 98
▁ә_tt 98
ләре 98
▁গ 98
▁জ 98
ทํา 98
▁instance 98
▁қилиб 98
▁vy_cs 98
▁×_cs 98
▁mechanism 98
▁opp_nb 98
লি_bn 98
an_az 98
tion_fr 98
ks_et 98
ων 98
te_hr 98
▁što_hr 98
▁me_ms 98
مان_ku 98
mme_fi 98
te_fi 98
▁ត្រូវ 98
te_no 98
▁din_ro 98
க்கு 98
▁ფვ 98
θε 98
in_eu 98
ean_eu 98
ده_fa 98
▁تقديم 98
ka_ha 98
▁ma_ha 98
на_ru 98
ku_mt 98
▁über 98
unk_en 98
▁nu_en 98
▁billi_en 98
ую 97
kistan 97
В 97
▁бел 97
дам 97
cam 97
▁Ben 97
▁Blo 97
vor 97
ני 97
צ 97
▁vend 97
Institut 97
los 97
ço 97
▁ker 97
▁les 97
▁mora 97
-5 97
că 97
bus 97
vir 97
▁tog 97
82 97
cen 97
▁nam 97
lo_mg 97
nana 97
▁mp 97
aga 97
had 97
▁نحو 97
▁उन 97
▁s_bs 97
▁če 97
zem 97
ujem 97
uka 97
▁kuka 97
▁%2$ 97
tó 97
ട്ട 97
▁ሌላ 97
ната_mk 97
Ш 97
▁اپنی 97
▁والے 97
et_hu 97
▁sizin 97
▁ကျ 97
လာ 97
ပေး 97
science 97
▁بە 97
phe_xh 97
TRANS 97
▁transaction 97
▁yr 97
кән 97
▁হয়েছে 97
id_ga 97
int_ga 97
▁Italy 97
▁tonn 97
▁unknown 97
ci_sh 97
▁kako_sh 97
▁bə 97
▁Les_fr 97
▁consultation 97
ξ 97
▁то_tg 97
▁itu_ms 97
▁am_ro 97
νο 97
▁zer_eu 97
▁system_gd 97
ండి 97
ణ 97
ка_ru 97
▁С_ru 97
ле_ru 97
▁si_sl 97
den_de 97
ot_lv 97
▁Sch_en 97
Sa 96
tia 96
прав 96
▁syn 96
prim 96
eta 96
▁mot 96
▁Multi 96
▁pod 96
נה 96
▁je_sq 96
▁pen 96
ponent 96
leg 96
▁territori 96
ndra 96
▁nes 96
▁Social 96
▁Daniel 96
ante 96
este 96
▁Pres 96
yk 96
oka 96
▁AM 96
▁88 96
▁DO 96
▁minut 96
ST 96
▁2007, 96
aina 96
▁Sil 96
▁malo 96
▁Á 96
▁Hei 96
▁था 96
▁label_li 96
Forward 96
1995 96
这些 96
▁син 96
▁دی 96
▁دے 96
▁تک 96
▁بے 96
ű 96
ban_hu 96
kki 96
▁co_gl 96
▁distribu 96
▁uit_nl 96
(6) 96
ဂ 96
▁كو 96
ho_xh 96
maq 96
▁với 96
ệ 96
▁här 96
мәс 96
▁генә 96
үн 96
da_pt 96
▁respectiv 96
▁i_ig 96
▁vir_af 96
แ 96
▁Gu_rw 96
▁Eorpach 96
▁eile_ga 96
▁seal 96
▁সা_bn 96
▁ই_bn 96
ku_sh 96
me_et 96
▁buvo 96
▁su_hr 96
keyboard_yi 96
▁ته_ku 96
ថ 96
▁electronic 96
▁τη 96
ερ 96
ri_eu 96
action_ky 96
وني 96
دع 96
ɓ 96
сти_ru 96
▁bo_sl 96
▁A_mt 96
tu_lv 96
ch_cy 96
▁ਪ 96
का_mr 96
▁아 96
▁المشترك 96
▁كبير 96
▁بلد 96
ji_en 96
mad_en 96
▁fan_en 96
▁tas_en 96
▁van_en 96
▁ча 95
DR 95
вод 95
▁72 95
witzerland 95
nor 95
Н 95
Jo 95
spel 95
▁pin 95
amo 95
mai 95
name 95
▁don 95
▁Opera 95
ssa 95
=% 95
▁55 95
▁Mul 95
mani 95
▁sport 95
uan 95
ako 95
ova 95
rra 95
▁Ana 95
▁Del 95
▁Bes 95
▁tort 95
▁mat 95
▁Om 95
▁skal_da 95
▁var_da 95
▁så_da 95
▁bil 95
47 95
2011 95
ram 95
▁Bon 95
gna 95
▁nos 95
▁Pel 95
NO 95
yo 95
pis 95
ub 95
▁zama 95
▁Ona 95
lijk 95
asse 95
▁servi 95
你 95
ፊ 95
ነት 95
▁С_mk 95
▁наме 95
▁sz_hu 95
nak_hu 95
▁Tech 95
la_tr 95
▁siz 95
vanja 95
▁os_gl 95
▁declara 95
။ 95
ံ 95
▁u_pl 95
لىرىنى 95
ىپ 95
▁ھېچ 95
▁ئۆ 95
▁ئىمان 95
كي 95
mi_xh 95
▁yo_xh 95
enqanawa 95
gum 95
ләрен 95
ho_pt 95
▁virtu 95
พ 95
เขา 95
used 95
ca_ga 95
▁land_nb 95
▁করতে 95
▁a_sh 95
λ 95
▁mö_az 95
▁de_az 95
▁si_hr 95
ғы 95
ټ 95
▁den_no 95
te_gd 95
ు 95
▁А_ky 95
▁ضد 95
كس 95
ить_ru 95
ти_ru 95
lo_sl 95
▁A_cy 95
▁ಅ 95
ਾਂ 95
ਬ 95
▁내 95
▁그 95
ables_en 95
wedd_en 95
▁fram_en 95
ams_en 95
yan_en 95
▁er_en 95
▁ima_en 95
▁proc_en 95
CN_en 95
wr_en 95
▁Со 94
▁кол 94
▁adapt 94
▁ш 94
йно 94
cs 94
▁98 94
Screen 94
▁Australia 94
▁trans 94
ח 94
jes 94
ës 94
▁EU 94
tha 94
▁43 94
▁pasi 94
thi 94
▁Pos 94
▁organiz 94
sit 94
xi 94
anti 94
▁fru 94
▁Pol 94
▁kli 94
▁Taj 94
▁in_fy 94
kker 94
sse 94
kir 94
erer 94
lom 94
ys 94
▁Am 94
▁(4) 94
▁solo 94
ra_mg 94
be_mg 94
▁Mi_mg 94
ilay 94
adi 94
tok 94
life 94
定 94
Ver 94
havi 94
▁sa_bs 94
▁truc 94
▁Control 94
▁cho 94
组织 94
多 94
时 94
ቆ 94
▁በእርሱ 94
▁کسی 94
▁fel_hu 94
▁bu_tr 94
kka 94
▁audit 94
ဒ 94
င့် 94
သို့ 94
▁prze 94
wo_pl 94
▁قىلدى 94
▁ئۇلارنى 94
▁ở 94
▁thể 94
▁d_vi 94
▁та_tt 94
▁һәр 94
▁das_pt 94
୍ୟ 94
লে_as 94
Count 94
▁te_af 94
વ 94
กัน 94
ะ 94
▁Ва_uz 94
ent_fr 94
ère 94
▁apie 94
ės 94
▁kai_lt 94
▁asta 94
▁និង 94
▁ნჲ 94
▁მვ 94
ε 94
▁di_br 94
ొ 94
▁akwai 94
đi_is 94
da_es 94
то_ru 94
▁pri_sl 94
ļ 94
▁आहेत 94
▁ज_mr 94
яр 93
KA 93
gy 93
ding 93
wer 93
IO 93
▁Center 93
Stencils 93
cc 93
Me 93
▁principal 93
98 93
meri 93
kata 93
▁1993 93
▁ska 93
aci 93
ero 93
▁spe 93
▁description 93
google 93
trag 93
0000 93
nek 93
▁IS 93
PP 93
تُ 93
▁kgm 93
▁dio 93
angle 93
wick 93
进行 93
斯 93
නේ 93
ሸ 93
ло_mk 93
▁رہے 93
▁کہا 93
مات 93
mek 93
▁da_tr 93
nku 93
Ñ 93
ppi 93
ten_nl 93
gen_nl 93
lo_sk 93
▁honor 93
▁بولغان 93
دىكى 93
سەن 93
▁b_vi 93
ạ 93
▁smart 93
▁Мухәммәд 93
ър 93
τι 93
be_ig 93
ৱ 93
বার 93
き 93
ann_ga 93
са_uz 93
▁den_nb 93
▁eller_nb 93
▁raz_sh 93
nosti_sh 93
lo_sh 93
▁sa_sh 93
▁Həqiqət 93
▁in_fr 93
▁vien 93
ais_lt 93
la_hr 93
▁ada_ms 93
▁טעקסט 93
▁sa_ro 93
▁κ 93
ла_uk 93
є 93
▁Di_br 93
▁యొక్క 93
اسي 93
تحسين 93
▁como_es 93
▁dell 93
▁dass 93
rī 93
ਖ 93
▁ਚ 93
ायला 93
تحديد 93
tus_en 93
elle_en 93
▁kis_en 93
ун 92
AR 92
▁sensi 92
▁су 92
europa 92
▁eu 92
▁М 92
EX 92
▁din 92
▁tr 92
bla 92
▁Bulgaria 92
yan 92
uti 92
mi_sq 92
kut 92
▁eku 92
kara 92
▁Sto 92
▁1994 92
NA 92
▁lib 92
▁65 92
iro 92
imiz 92
leri 92
ach 92
nne 92
UM 92
ines 92
▁stoppe 92
▁specie 92
▁ST 92
▁III 92
▁my 92
▁57 92
▁distribution 92
▁male 92
fana 92
▁ka_mg 92
▁idir 92
ay 92
rog 92
essa 92
की 92
चे 92
▁दो_hi 92
श्_hi 92
▁še 92
plat 92
eer 92
▁considera 92
▁在 92
使 92
发 92
私 92
ാം 92
ፋ 92
▁በተ 92
▁до_mk 92
▁paper_ur 92
▁جن_ur 92
سلام 92
علم 92
▁Sound 92
▁Das 92
▁mi_tr 92
tives 92
▁combina 92
ိုး 92
▁ئۇنى 92
▁ng_vi 92
▁ra_vi 92
▁be_sv 92
▁сезне 92
сы_tt 92
▁и_tt 92
▁хөкем 92
▁юк 92
se_pt 92
ar_pt 92
▁conform 92
▁sani 92
ରୁ 92
ଷ 92
▁ବି 92
ত্র 92
તા 92
ઓ 92
ช 92
ите_bg 92
▁s_ga 92
oir 92
লা_bn 92
switch 92
▁ont_fr 92
▁su_et 92
jų 92
▁kuri_lt 92
ki_lt 92
▁mi_hr 92
▁ڕاستی 92
▁អាច 92
▁មាន 92
▁A_ro 92
ின் 92
▁Ο 92
itu_eu 92
as_gd 92
▁de_br 92
َّ 92
ja_is 92
▁Ūú 92
ur_is 92
ār 92
▁ты_ru 92
та_ru 92
▁tkun 92
▁huwa 92
du_mt 92
▁do_wa 92
▁ei_cy 92
▁가 92
사 92
▁المساعدة 92
▁مي_ar 92
ديسمبر 92
▁dengan_id 92
dir_en 92
lash_en 92
char_en 92
za_en 92
af_en 92
mping_en 92
gri_en 92
▁ve_en 92
▁Ма 91
пу 91
▁XML 91
▁EN 91
ves 91
!» 91
mmer 91
▁A_oc 91
ulo 91
▁tip 91
▁climat 91
רי 91
▁zem 91
zes 91
▁kop 91
▁divers 91
ove 91
ald 91
gri 91
yr 91
ville 91
fen 91
lie 91
▁spre 91
dt 91
vide 91
pr 91
▁rod 91
▁Shin 91
▁bol 91
▁tany 91
▁h_mg 91
▁tsa 91
▁Big 91
odi 91
vez 91
▁Ray 91
या_hi 91
nici 91
tta 91
▁ces 91
▁in_li 91
▁cer 91
lut 91
向 91
ക് 91
▁--- 91
▁ව 91
▁ጥ 91
ጽ 91
▁دو_ur 91
▁بان 91
▁Mü 91
▁nel 91
▁prie 91
▁Michael 91
▁mafi 91
يى 91
▁پەقەت 91
▁nó_vi 91
▁s_sv 91
нән 91
мы_tt 91
ига 91
▁Ọ 91
ঁ 91
▁ৰ 91
▁Cyangwa 91
▁sunt 91
ла_uz 91
▁görə 91
▁onu_az 91
mə 91
cə 91
di_az 91
ge_et 91
es_et 91
▁mis_et 91
▁taip 91
tą_lt 91
či_lt 91
▁Aku_ms 91
אָ 91
ده_ku 91
et_fi 91
▁to_fi 91
ள 91
▁Κ 91
▁duzu 91
▁de_gd 91
▁స 91
▁వి 91
డు 91
ce_ha 91
▁um_is 91
▁međ 91
▁El_es 91
▁А_ru 91
ой_ru 91
▁ha_it 91
ko_mt 91
ni_mt 91
is_lv 91
▁व_mr 91
▁أكثر 91
▁طرف_ar 91
▁via_en 91
ig_en 91
vin_en 91
▁BE_en 91
tant_en 91
▁Па_be 90
▁пра_be 90
stor 90
▁кара 90
2001 90
ep 90
▁Samo 90
▁Region 90
pra 90
▁MA 90
▁Mont 90
▁המ 90
▁var 90
▁te_sq 90
▁vra 90
▁mili 90
▁editor 90
▁fil 90
▁kas 90
▁Ser 90
▁dar 90
▁gr 90
MAN 90
mint 90
▁Wil 90
▁Du_da 90
▁eller_da 90
▁ved_da 90
OM 90
▁tarif 90
▁ma_mg 90
Mar 90
lib 90
लाई 90
iš 90
▁mem 90
▁pov 90
mpa 90
▁og 90
▁arna 90
▁ger 90
ab 90
利 90
该 90
亚 90
▁ආ 90
ጅ 90
ቡ 90
они 90
▁тот 90
▁اے 90
▁عالم 90
اخ 90
جان 90
شف 90
خط 90
ála 90
▁cum 90
▁mod 90
no_sr 90
me_gl 90
▁«% 90
ci_sk 90
▁mi_pl 90
go_pl 90
▁od_pl 90
awa 90
▁ngo_xh 90
phi_xh 90
▁rồi 90
▁đây 90
▁без_tt 90
лаш 90
▁তুমি 90
▁Аллоҳнинг 90
▁du_nb 90
▁år_nb 90
▁এর 90
▁je_fr 90
▁Je_fr 90
▁me_et 90
▁барои 90
▁ti_hr 90
ar_ro 90
ட்ட 90
్ 90
تون_fa 90
▁الحال 90
بين 90
ƙa 90
▁Shi_ha 90
ãwa 90
▁s_is 90
▁in_es 90
▁Ne_sl 90
▁jiġu 90
▁wir_de 90
▁غ_ar 90
▁>_en 90
▁und_en 90
bin_en 90
▁pred_en 90
▁sna_en 90
▁dig_en 90
▁alle_en 90
sia_en 90
▁v_en 90
▁dispos 89
cho 89
No 89
▁mai 89
ian 89
▁ח 89
▁und 89
62 89
af 89
zor 89
taj 89
▁maj 89
▁Pac 89
▁pati 89
▁politika 89
▁kes 89
▁pris 89
pine 89
kke 89
▁tema 89
▁mig_da 89
▁Foundation 89
▁ø 89
kul 89
trans 89
die 89
¡ 89
▁Asia 89
nsa 89
nya 89
šanu 89
avimo 89
▁combat 89
Í 89
▁dut 89
ificat 89
部 89
▁ඔයාට 89
በላቸው 89
ен_mk 89
▁ор 89
▁شب 89
شع 89
▁ره 89
▁مؤ 89
lar_tr 89
▁Bat 89
ju_sr 89
▁mi_sr 89
▁dere 89
▁Robot 89
me_sk 89
▁ك_ug 89
▁ئادەم 89
tsha 89
▁s_vi 89
▁Tä 89
för 89
▁så_sv 89
▁шул 89
bụrụ 89
্য_as 89
้า 89
▁प_ne 89
から 89
▁g_ga 89
লে_bn 89
da_sh 89
▁ilə 89
fection 89
▁directive 89
curi 89
▁see_et 89
▁кунед 89
imą 89
ijas 89
دا_ku 89
▁شي 89
han_ps 89
τά 89
▁am_gd 89
то_uk 89
▁za_ha 89
▁No_es 89
ко_ru 89
ро_ru 89
▁dei_it 89
▁do_sl 89
mod_mt 89
▁S_de 89
se_de 89
▁paper_wa 89
ಸ 89
▁수 89
▁تشري 89
▁se_id 89
▁Kau_id 89
▁dari_id 89
ang_en 89
cin_en 89
lor_en 89
stand_en 89
ele_en 89
ён 88
Object 88
▁tooltip 88
став 88
▁LexUriServ 88
▁file 88
MI 88
▁Ag 88
▁dire 88
▁dí 88
▁cara 88
ף 88
BC 88
▁si_sq 88
hte 88
▁god 88
▁Ce 88
▁sur 88
onia 88
▁vert 88
▁Demo 88
sider 88
▁poli 88
vite 88
ette 88
ets 88
kop 88
▁kod 88
▁typ 88
ance 88
▁over_da 88
mme 88
rer 88
▁union 88
▁subsidi 88
ller 88
søk 88
▁Fur 88
▁Gw 88
ñ 88
migr 88
anda 88
sun 88
▁iad 88
đen 88
bbi 88
▁Gran 88
力 88
ാന്‍ 88
▁‍ 88
▁አሉ 88
бор 88
миз 88
یا 88
▁بہت 88
▁شک 88
▁عذاب 88
زان 88
درج 88
▁طلب 88
لق 88
den_tr 88
▁kimi 88
▁их 88
asta 88
lea 88
do_gl 88
▁la_nn 88
image 88
اق_ug 88
گەن 88
غۇ 88
▁eli_xh 88
▁tr_vi 88
▁biết 88
ck_sv 88
itä 88
▁соң 88
че_tt 88
без 88
▁definit 88
▁electric 88
ta_ig 88
▁ব্যৰ্থ 88
▁বা_as 88
▁কা 88
ধ 88
© 88
คน 88
ดี 88
▁dtagraítear 88
▁Chonradh 88
▁Rialachán 88
▁Қа 88
ří 88
ere_nb 88
▁আমরা 88
▁নি_bn 88
ায়_bn 88
▁তিনি 88
▁আমাদের 88
▁başqa 88
sə 88
îne 88
▁conclusion 88
▁B_se 88
גע_yi 88
▁វា 88
▁ដោយ 88
▁om_no 88
ce_ro 88
ி 88
▁ஆ 88
za_eu 88
▁muku 88
▁про_uk 88
да_uk 88
రు 88
شير 88
to_es 88
▁ma_it 88
▁ki_sl 88
▁meta_mt 88
▁I_mt 88
Kunsill 88
▁wird 88
ವ 88
ੂ 88
게 88
나 88
نتائج 88
شت_ar 88
▁map_en 88
cr_en 88
▁appointment 88
▁sky_en 88
уз 87
ін 87
▁Media 87
▁х 87
▁буд 87
▁Ger 87
èr 87
dat 87
▁Prote 87
ux 87
▁כ 87
ar_sq 87
▁së 87
itu 87
ando 87
▁foto 87
nci 87
mbu 87
uz 87
rok 87
lia 87
▁Fla 87
war 87
▁appar 87
▁license 87
ntar 87
▁metal 87
▁behandling 87
▁95 87
but 87
▁2020 87
initiative 87
< 87
lent 87
bo_mg 87
ntsika 87
NY 87
▁Qa 87
iso 87
chan 87
▁candidat 87
BO 87
▁क_hi 87
-8859-1 87
▁mi_bs 87
friendly 87
▁Kö 87
jun 87
▁impossible 87
▁invent 87
\\ 87
▁prí 87
方 87
∙ 87
file 87
ва_mk 87
ти_mk 87
ماع 87
باب 87
▁ez_hu 87
ek_hu 87
▁gün 87
ría_gl 87
chas 87
▁was_nl 87
▁vil_nn 87
▁eller_nn 87
bug 87
▁Rela 87
to_sk 87
နိုင် 87
ရာ 87
ty_pl 87
سىلەر 87
▁قىلىدۇ 87
qu_xh 87
kwa_xh 87
ileyo 87
▁ông 87
▁bú 87
9) 87
лай 87
▁булса 87
▁күр 87
▁dos_pt 87
ାଇ 87
ଇ 87
▁op_af 87
▁ને 87
▁Na_rw 87
▁t_ga 87
inn_ga 87
▁á_ga 87
ларини 87
▁уларга 87
▁over_nb 87
▁S_sh 87
ӯ 87
ам_tg 87
na_hr 87
▁se_ms 87
▁روه 87
ita_fi 87
ដ្ឋ 87
▁នេះ 87
ួ 87
களை 87
▁எ 87
τη 87
▁de_eu 87
▁of_gd 87
▁ت_fa 87
▁ke_ha 87
ɗa 87
▁sũ 87
▁ye_zu 87
kho_zu 87
▁applica 87
ga_sl 87
ੱ 87
रा_mr 87
▁저 87
▁أفريقيا 87
▁بي_ar 87
توجيه 87
enda_en 87
zo_en 87
war_en 87
lle_en 87
▁tan_en 87
File 86
▁д 86
▁ру 86
CF 86
8, 86
▁bom 86
mus 86
ís 86
mpu 86
cular 86
▁co 86
▁kam 86
▁Dy 86
anga 86
ngo 86
poli 86
hai 86
▁terrorist 86
gli 86
bija 86
tiv 86
▁1992 86
yd 86
▁Aus 86
▁Hai 86
tab 86
sent 86
▁Merc 86
▁London 86
▁Bet 86
von 86
hi_mg 86
▁nama 86
alan 86
bab 86
dala 86
tava 86
So 86
▁Journal 86
front 86
schi 86
▁لي 86
تقل 86
▁Shar 86
oi 86
▁या_hi 86
▁मुझे 86
दा_hi 86
ši 86
▁Č 86
▁osob 86
▁nog 86
▁bé 86
ios 86
asc 86
▁convert 86
lari 86
个 86
分 86
及 86
سو 86
▁വ 86
දි 86
ሮ 86
ንና 86
▁ስ 86
▁በአላህ 86
ڈ 86
ان_ur 86
▁ا_ur 86
▁طرح 86
ین_ur 86
قدر 86
ضح 86
▁onlara 86
▁li_sr 86
▁te_gl 86
da_gl 86
▁Xa 86
▁zo_nl 86
WA 86
.2. 86
တစ် 86
င 86
▁ھە 86
ۋ 86
▁دەپ 86
▁kunye 86
ANT 86
aj_eo 86
▁em_vi 86
▁con_pt 86
▁રહ્ય 86
જ 86
ีย 86
▁लागि 86
faidh 86
▁bhf 86
le_cs 86
▁V_cs 86
▁দ_bn 86
ta_et 86
▁s_lt 86
▁Ne_hr 86
▁ter_ms 86
▁ole_fi 86
▁ដ 86
ரி 86
▁நான் 86
▁რვ 86
▁Θα 86
▁αυτό 86
λα 86
▁φ 86
▁των 86
ού 86
de_eu 86
▁har_eu 86
▁ƙasa 86
▁til_is 86
ло_ru 86
▁kon_mt 86
Anness 86
ācijas 86
▁jā 86
들 86
자 86
스 86
▁يكون 86
▁contra_en 86
rah_en 86
io_en 86
▁bul_en 86
dry_en 86
чы_be 85
▁size 85
▁KDE 85
▁фа 85
ering 85
▁таб 85
▁nom 85
▁Tam 85
Mi 85
sion 85
▁vin 85
Disc 85
▁Alex 85
ור 85
▁fol 85
ike 85
▁zi 85
▁Ji 85
▁rang 85
pres 85
▁zo 85
rije 85
▁Sr 85
▁Mad 85
ndre 85
uru 85
jam 85
eli 85
▁Spi 85
kil 85
TC 85
▁dig_da 85
▁lang 85
▁rent 85
mal 85
eller 85
▁journalist 85
dici 85
adoption 85
▁tablet 85
▁noho 85
ona_mg 85
▁Bill 85
omp 85
elo 85
uma 85
▁Uz 85
▁करने 85
ले_hi 85
झ 85
la_bs 85
▁svoj 85
▁James 85
▁svo 85
er_li 85
dé 85
到 85
最 85
用 85
¶ 85
ጡ 85
ባቸው 85
ди_mk 85
▁Ка 85
фи 85
▁اب 85
▁الله_ur 85
ژ 85
▁اجتماع 85
em_hu 85
ben_hu 85
▁Top 85
▁kan_nl 85
nie_sk 85
▁pri_sk 85
li_sk 85
▁ma_sk 85
▁prosp 85
▁ပ 85
▁ကို 85
အား 85
▁W_pl 85
ki_pl 85
▁قوي 85
▁مۇ 85
▁كۆر 85
بۇ 85
▁esan 85
▁ska_sv 85
▁tun 85
▁à_pt 85
Arabic 85
▁কৰিব 85
ના 85
ู 85
ต้อง 85
▁reminder 85
った 85
ク 85
far_ga 85
▁f_ga 85
▁te_ga 85
▁£ 85
▁бўлган 85
ил_uz 85
ин_uz 85
▁co_cs 85
li_cs 85
▁hypo 85
▁L_fr 85
▁c_fr 85
is_et 85
▁pat_lt 85
▁na_lt 85
ams_lt 85
▁po_hr 85
▁o_hr 85
▁טעקע 85
ka_fi 85
ty_fi 85
am_ro 85
ஸ் 85
tik_eu 85
сь_uk 85
▁при_uk 85
▁так_uk 85
ించ 85
▁о_ky 85
▁wannan 85
▁kã 85
mu_ha 85
en_es 85
не_ru 85
ся_ru 85
▁le_zu 85
na_it 85
ħa 85
Unjoni 85
jā 85
▁ja_lv 85
da_lv 85
ļu 85
wch 85
ਗ 85
مساعدة 85
قلق 85
▁me_id 85
▁Ali_en 85
▁fil_en 85
ette_en 85
uch_en 85
▁jour_en 85
▁dir_en 85
▁fis_en 85
▁бо 84
цы 84
ру 84
▁2) 84
cl 84
▁Wa 84
▁plain 84
TM 84
▁Бо 84
лат 84
▁dot 84
nas 84
ар 84
▁Pic 84
▁stor 84
▁pa_sq 84
mica 84
ix 84
▁Hy 84
▁Pra 84
▁sm 84
▁mus 84
▁fer 84
▁Prov 84
ez 84
▁pis 84
HI 84
passe 84
color 84
ane 84
▁Automat 84
▁2006/ 84
▁base 84
▁99 84
2002 84
▁sava 84
▁Green 84
▁Cro 84
▁licence 84
▁Att 84
hol 84
रे_hi 84
▁तुम्हारे 84
▁ये_hi 84
DVD 84
▁taj 84
▁platform 84
▁slo 84
▁Total 84
▁com_ca 84
▁clar 84
▁hori 84
▁vei 84
公约 84
体 84
▁කියලා 84
ቂ 84
▁мин 84
ит 84
гез 84
▁ب_ur 84
حسب 84
ki_tr 84
▁var_tr 84
▁ya_tr 84
mur 84
▁ti_sr 84
▁as_gl 84
os_gl 84
mi_sk 84
နှင့် 84
uwa 84
▁كېيىن 84
▁پ_ug 84
lisa 84
▁dã 84
▁regime 84
▁stock 84
әт 84
▁торган 84
mos_pt 84
ções 84
ଟି 84
▁କରି 84
▁attachment 84
ụ̀ 84
ks_ig 84
▁শ 84
▁কোন 84
▁ver_af 84
ิ 84
อะไร 84
▁съм 84
ra_ga 84
achtaí 84
se_ga 84
▁бор_uz 84
ур_uz 84
▁EU_nb 84
ার 84
▁to_sh 84
yə 84
▁şey_az 84
▁sonra_az 84
▁tə 84
ın_az 84
▁été 84
en_fr 84
ään 84
▁po_lt 84
▁nu_lt 84
er_se 84
Subject 84
▁voi_fi 84
lla_fi 84
is_fi 84
▁Vi_no 84
enn_br 84
▁پس_fa 84
سير 84
▁fa_ha 84
▁Mun_ha 84
▁ūetta 84
▁h_is 84
▁A_es 84
▁jkun 84
▁An_de 84
▁li_wa 84
st_lv 84
ība 84
saskaņā 84
īt 84
▁안 84
면 84
▁علم_ar 84
ده_ar 84
▁أعمال 84
▁ter_id 84
gt_en 84
lah_en 84
fall_en 84
▁і_be 83
▁will 83
loc 83
▁Centre 83
▁41 83
▁dre 83
▁bur 83
ado 83
col 83
▁Pan 83
▁ei 83
zen 83
rim 83
uj 83
▁64 83
zego 83
▁organ 83
▁sj 83
▁Sol 83
▁ski 83
▁tek 83
▁Download 83
ffer 83
▁an_da 83
NG 83
▁gal 83
▁Ski 83
ester 83
▁59 83
▁maro 83
bon 83
▁firenena 83
nio 83
▁sar 83
Palestin 83
▁Mur 83
▁हूँ 83
कर 83
▁म_hi 83
je_bs 83
▁po_bs 83
▁Ne_bs 83
iji 83
▁svoje 83
mana 83
ment_ca 83
cie 83
▁forma 83
▁I_ca 83
前 83
后 83
包括 83
ണം 83
▁ብቻ 83
ምን 83
ለን 83
ев 83
▁сез 83
▁بات_ur 83
حص 83
¢ 83
وان 83
ük 83
da_tr 83
▁Onun 83
imas 83
▁premi 83
▁con_gl 83
▁por_gl 83
ector 83
▁sei 83
▁conven 83
▁ook 83
▁u_nl 83
▁parameter 83
/2010 83
စစ် 83
ဖ 83
by_pl 83
▁Hän 83
▁Муса 83
Ий 83
гыз 83
▁иш 83
▁ou_pt 83
▁mutu 83
ଓ 83
ge_af 83
ણ 83
▁સ 83
する 83
▁gach 83
▁réir 83
heart 83
ги_uz 83
▁иймон 83
ci_cs 83
▁k_cs 83
té_fr 83
ement_fr 83
▁pe_et 83
▁ту_tg 83
▁li_hr 83
▁Second 83
ұ 83
▁de_ku 83
ښ 83
ៈ 83
ფა 83
და 83
ჟრ 83
▁e_eu 83
▁after_gd 83
in_gd 83
▁crash 83
ై 83
حافظ 83
عرض 83
ще_ru 83
▁ti_mt 83
▁अ_mr 83
▁معلوم_ar 83
uto_en 83
mma_en 83
▁Nautilus_en 83
▁1: 82
ая 82
kup 82
▁ya 82
ific 82
▁Мен 82
▁ai 82
zar 82
▁Sand 82
▁י 82
▁Fre 82
mena 82
▁mama 82
gun 82
▁pet 82
med 82
vesti 82
aks 82
▁yn_fy 82
▁patro 82
rê 82
ple 82
passing 82
▁sada 82
RD 82
lå 82
chi 82
▁initiativ 82
▁USA 82
▁red 82
bord 82
CB 82
ente 82
ota 82
illa 82
adian 82
cola 82
के_hi 82
▁कहा 82
▁साथ 82
▁li_bs 82
▁prije 82
▁formal 82
vr 82
uze 82
kali 82
▁Actual 82
▁cultura 82
6, 82
也 82
加 82
▁was 82
ഴ 82
නි 82
ነው 82
▁እኛ 82
▁ወይ 82
▁й 82
сан 82
ئی 82
▁پا 82
زو 82
▁o_tr 82
▁aktar 82
▁па 82
na_sr 82
▁Archi 82
▁waar_nl 82
▁naar 82
▁British 82
▁blir_nn 82
{1} 82
ní_sk 82
ný_sk 82
သွား 82
artha 82
سە 82
ال_ug 82
مەن 82
▁ن_ug 82
▁كور 82
▁in_xh 82
▁xa_xh 82
▁revenu 82
▁mig_sv 82
▁кер 82
ем_tt 82
▁сал 82
▁үзләре 82
to_pt 82
▁mais_pt 82
▁agricultura 82
ାର 82
ଛି 82
▁আ_as 82
▁na_af 82
ผม 82
ね 82
▁до_bg 82
▁ba_ga 82
▁fh_ga 82
cha_ga 82
▁улар 82
▁bruk_nb 82
▁Ya_az 82
lıq 82
ge_fr 82
ception 82
va_et 82
ni_hr 82
ឹម 82
▁OF_km 82
▁TRANSLATORS_km 82
ការ 82
▁må_no 82
▁εν 82
ορ 82
▁επι 82
▁ja_eu 82
▁S_gd 82
aidh_gd 82
▁ты_uk 82
▁هل 82
ƙ 82
▁fyrir 82
ci_es 82
ля_ru 82
▁mal_mt 82
ati_mt 82
et_mt 82
en_mt 82
Istati 82
ಗ 82
▁मा_mr 82
▁الاجتماع 82
التأكيد 82
▁Im_en 82
are_en 82
▁Als_en 82
site_en 82
ero_en 82
ку_be 81
GenericName 81
ры_be 81
▁Meta 81
raw 81
tion 81
про 81
▁artist 81
У 81
EG 81
▁del 81
▁Ama 81
peri 81
▁au 81
all 81
▁15. 81
inde 81
rc 81
hin 81
▁pilot 81
rati 81
▁san 81
imo 81
ar_fy 81
syn 81
▁terminal 81
▁sel 81
▁her_da 81
▁må_da 81
▁Kun 81
▁Hand 81
nam 81
tany 81
usta 81
▁LE 81
bio 81
▁Fel 81
tang 81
▁Pie 81
▁ले_hi 81
gama 81
▁dira 81
▁gel 81
▁abandon 81
▁produ 81
▁prohibi 81
可 81
.6. 81
bba 81
▁වි 81
ስተ 81
▁58 81
ла_mk 81
وت 81
اش 81
lán 81
▁vill 81
▁mer 81
▁Point 81
▁su_sr 81
▁o_sr 81
▁O_gl 81
ven_nl 81
▁om_nn 81
နိုင်ငံ 81
ka_pl 81
▁To_pl 81
▁يې 81
▁oku_xh 81
▁ka_xh 81
▁ezin_xh 81
di_xh 81
▁Uma 81
▁Thi 81
▁pela 81
▁туры 81
ла_tt 81
▁аның 81
▁үтер 81
▁protocol 81
▁এই_as 81
▁het_af 81
▁પર 81
ફ 81
▁เธอ 81
éad 81
AE 81
brukere 81
session 81
▁নিয়ে 81
বা_bn 81
rə 81
▁əzab 81
▁Version 81
▁apa_ms 81
▁פֿאַרב 81
ហ 81
ាក់ 81
▁var_no 81
ρε 81
▁έ 81
▁i_eu 81
▁e_gd 81
ing_gd 81
ся_uk 81
▁чтобы 81
▁ти_uk 81
▁N_br 81
ట 81
▁ها_fa 81
▁lõkacin 81
▁en_is 81
ta_es 81
▁И_ru 81
▁od_sl 81
▁V_sl 81
ka_mt 81
▁jin_mt 81
ēm 81
ta_lv 81
▁ವಿ 81
▁म्हण 81
but_en 81
ende_en 81
som_en 81
air_en 81
▁Twitter_en 81
stru_en 81
ля_be 80
зу 80
▁Су 80
ова 80
RL 80
рд 80
▁has 80
bal 80
▁אבל 80
▁ק_he 80
ësh 80
▁E_sq 80
Fa 80
▁bir 80
jeni 80
lja 80
▁politik 80
▁Ze 80
vit 80
vest 80
▁dur 80
rg 80
ug 80
aasje 80
▁kontrol 80
▁root 80
Server 80
▁Hori 80
cula 80
ske_da 80
▁frem 80
▁restaurant 80
▁bak 80
bie 80
▁pun 80
GE 80
able 80
rek 80
▁kn 80
ores 80
ano 80
Space 80
▁ثم 80
bini 80
मा_hi 80
▁करो 80
▁Kako 80
▁noe 80
da_ca 80
▁resol 80
gil 80
▁volunt 80
▁pré 80
我们 80
▁പ്ര 80
▁psycho 80
▁ду 80
или 80
▁لے 80
▁بیشک 80
ات_ur 80
▁قائم 80
dá 80
ség 80
▁onun 80
ni_tr 80
▁Alba 80
▁Ne_sr 80
▁Kosovo 80
▁na_gl 80
ick 80
▁technologi 80
▁inn_nn 80
ch_sk 80
ndu 80
ီး 80
ۈر 80
لد 80
▁si_xh 80
▁thế 80
▁ä 80
на_tt 80
▁гыйбадәт 80
са_tt 80
ды_tt 80
ky_tk 80
ଡ଼ 80
ৰি 80
▁be_af 80
▁એ 80
▁फाइल_ne 80
▁Idosiye 80
▁OYA 80
eachta 80
▁amach 80
▁Биз 80
lo_cs 80
em_cs 80
▁Ne_cs 80
itte 80
তি_bn 80
▁Unije 80
ncaq 80
mi_az 80
▁être 80
ci_fr 80
mise_et 80
mi_lt 80
ių 80
▁ap_lt 80
li_hr 80
сі_kk 80
mu_ms 80
tî 80
kä_fi 80
▁រ 80
្យ 80
▁cred 80
▁உ 80
გჲ 80
εί 80
zi_eu 80
▁thu_gd 80
inn_gd 80
ло_uk 80
▁ప్ర 80
వు 80
▁او_fa 80
قض 80
▁La_es 80
mos_es 80
▁más_es 80
ение_ru 80
fayela 80
si_it 80
Direttiva 80
li_sl 80
te_wa 80
री_mr 80
▁나 80
▁س_ar 80
إن 80
ert_en 80
▁bil_en 80
▁org 79
вед 79
мак 79
slot 79
▁ч 79
▁Var 79
rica 79
Е 79
▁Tor 79
jat 79
מה 79
נט 79
▁gre 79
▁dje 79
▁duke 79
zul 79
titu 79
▁proces 79
çe 79
▁Robert 79
gara 79
▁Ber 79
▁Med 79
▁Siz 79
▁Net 79
iko 79
ame 79
uw 79
stone 79
▁produkt 79
mann 79
sek 79
programm 79
▁[3] 79
eo 79
▁Vor 79
saf 79
▁2004/ 79
intervention 79
▁iza 79
EP 79
imp 79
▁Mel 79
tung 79
LAN 79
An 79
र्_hi 79
▁जिस 79
▁उ_hi 79
▁Vo 79
stvo 79
▁Nick 79
UP 79
pita 79
▁elimin 79
政府 79
ഷ 79
▁ነበር 79
▁ሕዝቦች 79
▁чи 79
▁бил 79
тел 79
▁уч 79
об 79
▁ن_ur 79
▁ہمارے 79
خر 79
▁کریں 79
الم 79
▁گو 79
▁رس 79
صدق 79
▁Vel 79
to_gl 79
▁E_gl 79
as_gl 79
ar_gl 79
▁robot 79
se_nn 79
▁Brasero 79
▁mi_sk 79
li_pl 79
▁Portugal 79
▁ni_eo 79
te_eo 79
▁kommer_sv 79
▁мәгәр 79
гъ 79
▁está_pt 79
Cyrillic 79
▁জন 79
▁সাথে 79
▁Spain 79
ેલ 79
નો 79
íoch 79
▁gcomhréir 79
мас_uz 79
la_cs 79
ge_nb 79
▁পা_bn 79
▁প্রতি 79
en_sh 79
si_az 79
▁si_fr 79
▁Ӯ 79
tos_lt 79
▁da_lt 79
▁bo_se 79
▁per_ms 79
▁wara 79
אַר 79
▁di_ku 79
▁bike_ku 79
▁نه_ps 79
▁este_ro 79
▁in_ro 79
▁te_ro 79
▁ჟა 79
ίν 79
λε 79
έρ 79
▁s_gd 79
▁this_gd 79
ого_uk 79
▁منع 79
راك 79
si_zu 79
zi_zu 79
▁U_zu 79
▁pre_sl 79
ża_mt 79
kon_mt 79
tra_mt 79
ġen 79
▁ਕਰੋ 79
ती_mr 79
▁के_mr 79
▁النامية 79
tta_en 79
RC_en 79
ques_en 79
ai_en 79
▁dy_en 79
chen_en 79
▁prost_en 79
tho_en 79
▁Tha_en 79
га_be 78
із 78
ах 78
▁Ч 78
9, 78
ай 78
rea 78
group 78
▁кас 78
lor 78
Current 78
▁fond 78
▁nau 78
▁ס 78
▁שלי 78
▁לך 78
nje 78
▁2008. 78
ret 78
RAN 78
tko 78
rez 78
▁aj 78
▁ani 78
▁aktiv 78
▁unit 78
rou 78
▁nok 78
« 78
nyt 78
▁Phil 78
▁stabil 78
84 78
▁Angel 78
▁uniform 78
spir 78
▁hen 78
▁som 78
▁bon 78
nzi 78
▁bay 78
▁mate 78
CL 78
▁Kim 78
▁gor 78
tvor 78
čio 78
▁problema 78
▁ol 78
▁Vijeća 78
▁sao 78
▁pol 78
▁o_ca 78
▁si_ca 78
stel 78
sc 78
യും 78
බ 78
▁የሚያ 78
▁И_mk 78
▁سو_ur 78
▁ہر 78
نج 78
▁فا 78
ság 78
▁mér 78
om_hu 78
▁Adam 78
in_tr 78
их 78
mos_gl 78
EST 78
▁gera 78
uten 78
▁opp_nn 78
ých_sk 78
▁73 78
မြ 78
သည့် 78
ါ 78
▁PRO 78
▁ق_ug 78
سا_ug 78
khulu 78
ẽ 78
anlar_tk 78
▁des_pt 78
1" 78
pụ 78
▁તે 78
▁नाम_ne 78
▁<_rw 78
▁cheart 78
▁nach_ga 78
ist_ga 78
▁feidhme 78
▁Cuir 78
ї 78
øy_nb 78
▁ন_bn 78
▁Uredbe 78
an_sh 78
▁treba_sh 78
▁mə 78
▁comme_fr 78
▁tä_et 78
▁Austria 78
αρ 78
▁פֿו 78
▁oli_fi 78
▁هر 78
យ 78
▁ឲ្យ 78
ட் 78
εις 78
▁μια 78
▁Δεν 78
al_gd 78
▁Жа_ky 78
ку_ru 78
▁а_ru 78
▁esi_zu 78
▁su_it 78
▁so_it 78
▁ni_sl 78
der_de 78
▁um_de 78
ībā 78
▁क_mr 78
죠 78
قان_ar 78
▁بالإ 78
وش_ar 78
▁الوطنية 78
▁restr_en 78
▁radi_en 78
met_en 78
▁bene_en 78
▁ба 77
лю 77
▁сум 77
раз 77
▁1) 77
▁ха 77
rip 77
lec 77
▁Ham 77
▁Ad 77
▁Pr 77
bat 77
tura 77
▁dia 77
ulu 77
▁stabilit 77
qan 77
▁incident 77
▁pole 77
present 77
bol 77
-0 77
▁Han 77
14/ 77
BI 77
▁bord 77
bere 77
ingen 77
kum 77
▁dollars 77
▁fundamental 77
▁ch 77
dd 77
aba 77
▁alternativ 77
sa_mg 77
▁indrindra 77
lama 77
▁vara 77
▁Š 77
Á 77
▁sat 77
UK 77
▁अपनी 77
ढ 77
▁moje 77
cije 77
jums 77
▁juri 77
▁sexual 77
▁Content 77
发展 77
adur 77
ിച്ച 77
де_mk 77
▁уни 77
▁تی 77
شان 77
en_hu 77
yen 77
▁Má 77
áin 77
sort 77
nna 77
▁a_tr 77
▁doğru 77
má 77
mento 77
▁evit 77
lais 77
boot 77
▁gjennom 77
▁nie_sk 77
ဘ 77
ىش 77
▁مۇھەممەد 77
▁edo 77
▁Tom_eo 77
▁pri_eo 77
ning_sv 77
тер_tt 77
▁иткән 77
ler_tk 77
▁como_pt 77
▁incorpora 77
▁interface 77
ଉ 77
▁নহয় 77
ভ 77
▁પસંદ 77
બ 77
ด้วย 77
▁अ_ne 77
ま 77
▁bearta 77
▁sco 77
ча_uz 77
▁u_cs 77
ens_nb 77
▁op_sh 77
▁мардум 77
ūr 77
▁dari_ms 77
▁דורכפֿאַל 77
▁te_fi 77
us_fi 77
sta_fi 77
▁په_ps 77
▁នឹង 77
ச 77
யா 77
▁என்று 77
ப்பு 77
ρι 77
▁αν 77
▁ga_eu 77
ku_eu 77
▁и_uk 77
▁ప 77
▁ఎ 77
ారు 77
ды_ky 77
▁sanya 77
▁sabõda 77
▁al_ha 77
▁af_is 77
▁var_is 77
cu_es 77
▁re_es 77
isi_zu 77
we_zu 77
▁come_it 77
lo_it 77
na_sl 77
wa_mt 77
ben_de 77
ums_lv 77
ņem 77
wy_cy 77
वा_mr 77
▁न_mr 77
만 77
인 77
▁بشكل 77
▁بالنسبة 77
▁ada_id 77
ady_en 77
DI_en 77
rial_en 77
▁Musa_en 77
assa_en 77
dd_en 77
▁Han_en 77
del_en 77
hol_en 77
▁ble_en 77
ную 76
PH 76
ном 76
mma 76
pass 76
▁category 76
iran 76
▁Defini 76
mont 76
tari 76
כו 76
nti 76
▁plot 76
▁Hen 76
▁130 76
itet 76
kni 76
▁temp 76
▁Kal 76
▁Radio 76
stoj 76
▁divi 76
▁termin 76
isto 76
isk 76
eel 76
aid 76
▁2006, 76
inn 76
▁De_da 76
▁Roy 76
kis 76
▁dom 76
lise 76
▁slik 76
ahana 76
ao 76
▁M_mg 76
lay 76
re_mg 76
▁hala 76
pé 76
▁Street 76
chu 76
▁हे 76
▁तुम्हें 76
šti 76
▁dobro 76
▁o_bs 76
kas 76
▁nap 76
tie 76
▁his 76
▁hija 76
▁activa 76
fusion 76
数 76
各 76
机构 76
被 76
▁ത 76
ങ്ങ 76
▁හ 76
▁ත 76
ጉ 76
уд 76
сен 76
▁کن 76
▁تل 76
lár 76
AK 76
larını 76
ол 76
opp 76
itt 76
ší 76
ať 76
ىتى 76
ۇش 76
ۈپ 76
▁lo_xh 76
ACH 76
jä 76
▁зарар 76
тыр_tt 76
▁юл 76
▁су_tt 76
ге_tt 76
▁ялган 76
▁unit_tk 76
ha_pt 76
▁prescri 76
ৰে 76
▁module 76
्य_ne 76
す 76
ция 76
иши 76
▁S_ga 76
rú_ga 76
eanna 76
ise_ga 76
чи_uz 76
ат_uz 76
▁leur 76
▁distance 76
▁pra_lt 76
čių 76
да_kk 76
פּ 76
▁بێت 76
tu_fi 76
ni_fi 76
▁ក 76
ில் 76
▁வி 76
ბ 76
▁ნთ 76
▁რჲგა 76
▁δια 76
▁ber_eu 76
ari_eu 76
▁automat_gd 76
▁ann_gd 76
▁మ 76
ба_ky 76
▁خارج 76
تش 76
▁Yã 76
▁cu_es 76
вер_ru 76
le_it 76
▁pa_sl 76
xx_mt 76
ċe 76
ter_de 76
해 76
▁أعضاء 76
▁الأوروبي 76
▁per_id 76
hor_en 76
▁wir_en 76
Unicode_en 76
zer_en 76
ich_en 76
▁opp_en 76
▁mal_en 76
да_be 75
чка 75
▁пар 75
▁inmenu 75
▁са 75
рат 75
dr 75
▁Des_oc 75
▁bana 75
▁Ut 75
inger 75
▁Ven 75
▁Libr 75
▁tempo 75
▁ע_he 75
gene 75
rij 75
dem 75
▁hap 75
▁kontra 75
▁pension 75
▁03 75
▁2009. 75
rut 75
aty 75
itz 75
llen 75
▁Ú 75
koa 75
Bluetooth 75
unt 75
▁Live 75
▁Ми 75
lac 75
▁gå 75
-2- 75
een 75
SK 75
dynami 75
installation 75
cis 75
kre 75
▁suite 75
nost 75
vo_mg 75
on_mg 75
fan 75
▁tout 75
non 75
iya 75
▁den 75
ठ 75
ॅ 75
vno 75
ža 75
▁Henry 75
▁seda 75
at_ca 75
▁vida 75
tip 75
方案 75
其他 75
而 75
起 75
ന്ന 75
റ്റ 75
තු 75
▁ඇ 75
ሁ 75
ሌ 75
ኩ 75
ائی 75
قابل 75
توقع 75
át_hu 75
▁od 75
▁mı 75
▁Ã 75
app 75
ď 75
ky_sk 75
▁suo 75
စီ 75
ဝင် 75
ły 75
ne_pl 75
ىسى 75
لەرنى 75
مىز 75
da_xh 75
nga_xh 75
SO 75
▁Vi_eo 75
▁el_eo 75
▁eller_sv 75
▁яхшы 75
▁Аллаһу 75
▁interven 75
▁ମ 75
▁ପାଇଁ 75
▁একটা 75
ওয়া 75
▁om_af 75
ตัว 75
▁a_rw 75
ла_bg 75
CE_ga 75
ré_ga 75
▁leanas 75
дилар 75
идан 75
ná_cs 75
lust 75
ør_nb 75
▁আছে_bn 75
▁y_az 75
ma_az 75
▁Allahdan 75
na_az 75
siz_az 75
lik_az 75
▁biz_az 75
ıb 75
▁ku_et 75
ku_et 75
▁pas_lt 75
▁lab 75
▁kita_ms 75
▁باو 75
ki_fi 75
ګ 75
▁ប្រើ 75
ți 75
மை 75
▁ச 75
ார் 75
σα 75
ές 75
atzen 75
▁tha_gd 75
▁your_gd 75
ль_uk 75
▁نمي 75
تر_fa 75
▁cẽwa 75
▁jik 75
azione 75
mo_it 75
▁fi_mt 75
▁jiġi 75
▁din_mt 75
▁Membri 75
▁als_de 75
le_de 75
ol_cy 75
▁ਦੀ 75
▁कर_mr 75
▁있 75
▁إذا 75
▁ها_ar 75
▁Dia_id 75
▁va_en 75
ben_en 75
▁pot_en 75
знач 74
▁ф 74
83 74
мат 74
0, 74
▁tas 74
▁con 74
▁Dre 74
gina 74
▁Long 74
▁gener 74
gor 74
▁vid 74
▁Sud 74
▁Dar 74
pper 74
▁vas 74
▁כל 74
▁pad 74
iu 74
▁kra 74
vac 74
Ka 74
evi 74
limit 74
▁nisu 74
rina 74
▁interes 74
▁py 74
pit 74
uro 74
if 74
▁2008, 74
igu 74
dine 74
▁Den 74
dina 74
fte 74
iet 74
▁hat 74
sty 74
kning 74
lé 74
mente 74
▁Pea 74
▁liv 74
AF 74
binding 74
DD 74
▁2011. 74
▁minister 74
2- 74
63 74
/1999 74
▁[1] 74
pi_mg 74
▁rehetra 74
▁I_mg 74
mela 74
za_mg 74
atra 74
xu 74
cina 74
TU 74
▁रहे 74
ली_hi 74
शी 74
skih 74
▁cm 74
es_li 74
et_li 74
▁molt 74
▁té 74
▁examina 74
▁eh 74
▁invita 74
▁precis 74
▁resident 74
拉 74
此 74
新 74
说 74
ි 74
යා 74
▁හරි 74
ናቸው 74
ጭ 74
ትም 74
کی 74
▁شامل 74
بلغ 74
صنع 74
asa 74
anci 74
▁Pur 74
▁worden 74
zwe 74
host 74
▁visa 74
Spanish 74
▁tak_sk 74
တို့ 74
kwi 74
▁popular 74
▁[...] 74
قە 74
▁acid 74
те_tt 74
▁Prince 74
▁Management 74
ତି 74
▁e_ig 74
▁O_ig 74
ખ 74
▁มัน 74
่า 74
ไม่ได้ 74
не_bg 74
▁tar_ga 74
▁tak_cs 74
to_cs 74
st_nb 74
ক্ষ_bn 74
▁কথা 74
সা_bn 74
oj_sh 74
lja_sh 74
né_fr 74
aire_fr 74
în 74
ди_tg 74
во_tg 74
▁ki_lt 74
▁i_ms 74
▁boleh 74
ta_ms 74
▁harus 74
به_ku 74
ten_fi 74
▁si_fi 74
▁d_km 74
ផ 74
អ 74
ბჲ 74
▁კჲ 74
du_eu 74
ba_eu 74
ur_eu 74
▁pe_br 74
దు 74
та_ky 74
▁آ_fa 74
ها_fa 74
inn_is 74
ство_ru 74
mi_mt 74
lu_mt 74
fi_mt 74
je_mt 74
▁vor_de 74
ēju 74
▁noteikt 74
au_cy 74
ರ್ 74
▁ਨਹੀਂ 74
ੈ 74
ابة 74
يست_ar 74
تان_ar 74
▁mereka_id 74
▁apa_id 74
▁Que_en 74
▁str_en 74
bon_en 74
▁ya_en 74
ore_en 74
later_en 74
hwe_en 74
nc_en 74
ян 73
▁ша 73
▁мы 73
City 73
▁whatsthis 73
ам 73
/% 73
eri 73
iki 73
бы 73
▁ро 73
май 73
NU 73
sil 73
sat 73
select 73
gat 73
▁ג_he 73
▁shumë 73
et_sq 73
jte 73
▁Hej 73
▁07 73
vier 73
▁47 73
▁NA 73
▁radi 73
ango 73
kje 73
kat 73
skir 73
Show 73
NC 73
punt 73
▁job 73
mpe 73
▁Fall 73
▁LI 73
lov 73
▁2006. 73
pil 73
minister 73
▁2012. 73
▁minu 73
hydro 73
▁bid 73
▁asa 73
▁2014. 73
▁fomba 73
▁hay 73
▁vaovao 73
▁fid 73
bah 73
▁tom 73
idi 73
▁Common 73
▁sana 73
▁cri 73
कार 73
▁काम 73
ju_bs 73
ni_bs 73
▁Pod 73
▁zal 73
▁bih 73
laš 73
▁tvoj 73
lju 73
▁jako 73
▁est 73
▁horizontal 73
kó 73
gia 73
▁cursor 73
里 73
主 73
好 73
行动 73
▁2007. 73
▁നിങ്ങള്‍ 73
▁ቅጣት 73
ቢ 73
ку_mk 73
не_mk 73
во_mk 73
▁کرے 73
وال 73
غرض 73
ül_hu 73
ok_hu 73
ád 73
li_tr 73
siniz 73
▁kuru 73
ppa 73
▁nove 73
tea 73
▁Remote 73
mach 73
▁hebben 73
▁concept 73
9660 73
ją_pl 73
▁co_pl 73
▁تو_ug 73
ۇپ 73
دەك 73
jo_eo 73
▁muốn 73
▁Vi_sv 73
▁lä 73
чә 73
▁сора 73
▁сиңа 73
ନି 73
▁ନାହିଁ 73
▁হৈছে 73
ৃ 73
▁wat_af 73
▁દ 73
ไ 73
▁स_ne 73
▁di_ga 73
iste_ga 73
ire_ga 73
▁cho_ga 73
▁bhaineann 73
íonn 73
▁gcás 73
▁od_cs 73
for_nb 73
কার 73
sti_sh 73
ske_sh 73
ta_sh 73
▁examine 73
▁Sa_et 73
ом_tg 73
тар_tg 73
αν 73
▁no_se 73
ші 73
ты_kk 73
تان_ku 73
tta_fi 73
▁کې 73
▁ពី 73
▁សម្រាប់ 73
▁ច 73
த்தை 73
ன் 73
უ 73
ზვ 73
ιστ 73
ti_eu 73
▁in_gd 73
an_br 73
er_br 73
ین_fa 73
lo_es 73
ны_ru 73
ства_ru 73
ния_ru 73
le_zu 73
▁isi_zu 73
co_it 73
si_mt 73
et_lv 73
ģi 73
stā 73
▁wedi 73
ೋ 73
▁com_kn 73
▁सं_mr 73
به_ar 73
▁ليس 73
▁الديمقراطية 73
▁المؤرخ 73
▁المجلس 73
▁`_ar 73
▁tahu_id 73
▁Dia_en 73
▁plu_en 73
IR_en 73
vou_en 73
sen_en 73
paper_en 73
пер 72
▁Вы_be 72
ран 72
▁out 72
▁Дар 72
нд 72
бе 72
▁ўз 72
▁Ро 72
▁Colo 72
world 72
▁via 72
tua 72
Image 72
▁Mas 72
▁Ç 72
hil 72
▁priv 72
stig 72
▁metod 72
ifik 72
ein 72
▁net 72
▁Ind 72
fla 72
zni 72
▁Ima 72
like 72
▁net_fy 72
igen 72
Stock 72
inten 72
stand 72
dele 72
Port 72
▁tid 72
bhar 72
▁AT 72
▁virus 72
soft 72
ella 72
▁temperature 72
▁16. 72
De 72
bhu 72
dy_mg 72
di_mg 72
▁man_mg 72
onta 72
Indian 72
”) 72
koli 72
▁दिया 72
▁सं_hi 72
▁njegov 72
▁život 72
▁prema 72
▁ion 72
▁Ó 72
▁deze 72
ös 72
Ó 72
▁Ei 72
▁á 72
lumin 72
▁lub 72
明 72
内 72
执行 72
合作 72
人权 72
物 72
这 72
toxic 72
ൊരു 72
ത്ത 72
නා 72
ති 72
▁මගේ 72
መጣ 72
▁Син 72
▁Gir 72
ест 72
صندوق 72
دور 72
▁é_hu 72
ír 72
mene 72
dium 72
▁şey_tr 72
▁do_sr 72
irí 72
▁tend 72
st_nn 72
Tra 72
▁Nord 72
ľ 72
၊ 72
▁ရ 72
တော့ 72
▁ma_pl 72
▁ئاندىن 72
▁سىلەرنى 72
▁بولسا 72
▁y_xh 72
▁la_xh 72
▁lại 72
ắ 72
▁trong 72
▁ph_vi 72
▁con_vi 72
▁trí 72
ghị 72
▁måste 72
▁ao_pt 72
▁word_af 72
▁jy 72
દ 72
ધ 72
า 72
▁iyi_rw 72
ояд 72
▁bhfeidhm 72
it_ga 72
alta_ga 72
air_ga 72
▁o_ga 72
tar_ga 72
óidh 72
▁албатта 72
re_sh 72
▁uz_sh 72
▁Mən 72
ijos 72
no_hr 72
▁vuo 72
▁О_kk 72
▁Bi_ku 72
▁ش_ku 72
▁hän_fi 72
▁Mae 72
▁jekk 72
em_km 72
ok_km 72
▁ល 72
▁et_no 72
ீ 72
▁ந 72
த் 72
არა 72
▁გჲ 72
▁hau_eu 72
▁o_br 72
ho_br 72
▁నాకు 72
▁so_ha 72
tar_ha 72
ría_es 72
▁пере_ru 72
де_ru 72
▁lo_it 72
mi_it 72
▁o_it 72
ità_it 72
tur_mt 72
ġġ 72
▁so_de 72
▁hat_de 72
▁In_de 72
▁da_lv 72
▁s_lv 72
वर_mr 72
▁प_mr 72
▁أول 72
عات 72
▁السابق 72
▁ته_ar 72
المنظمات 72
▁IN_ar 72
if_en 72
▁mira_en 72
▁mere_en 72
dis_en 72
▁Б 71
ду 71
▁Са 71
▁ut 71
mie 71
▁symbol 71
▁Wat 71
hon 71
▁sci 71
ity 71
esc 71
▁אם 71
ום 71
RA 71
▁fal 71
ku_sq 71
hti 71
jak 71
▁poz 71
JE 71
tine 71
rov 71
▁mano 71
▁Hong 71
▁rus 71
▁habit 71
Ju 71
lah 71
▁Bil 71
▁ken 71
▁Hur 71
▁goed 71
▁tebe 71
▁Ly 71
slu 71
iel 71
ning_da 71
▁vor 71
▁Kong 71
▁Jane 71
▁Jim 71
aka 71
rror 71
izy 71
▁lasa 71
▁mpanao 71
ongo 71
▁Linux 71
Kon 71
avo 71
rib 71
▁المجتمع 71
cos 71
ौ 71
▁उसे 71
▁मु_hi 71
▁उसके 71
▁ईमान 71
भ 71
▁श 71
ां 71
▁Wall 71
čen 71
tina 71
▁nema 71
ključ 71
rze 71
sies 71
ta_ca 71
▁cam 71
lana 71
egi 71
▁Circ 71
还 71
方面 71
دن 71
▁അത് 71
▁ച 71
▁එයා 71
▁Com 71
፦ 71
▁ቢ 71
▁Да_mk 71
ата_mk 71
ко_mk 71
▁замин 71
▁کام 71
▁پی 71
جمع 71
غو 71
▁مختلف 71
▁الف 71
ünk 71
vé_hu 71
▁vagy 71
▁È 71
▁cen 71
jumu 71
▁Па 71
▁pasa 71
▁dan_nl 71
▁Finland 71
▁hin 71
▁Fram 71
▁Health 71
တင် 71
▁ဖ 71
အတွက် 71
ဒီ 71
ရှ 71
▁بولۇپ 71
تە 71
kwe_xh 71
▁Uku_xh 71
ha_xh 71
ả 71
▁gá 71
▁dig_sv 71
▁han_sv 71
nä 71
▁kull 71
▁булып 71
▁ser_pt 71
ଥ 71
তা_as 71
নে 71
ঃ 71
থ 71
▁র 71
de_af 71
▁પ્ર 71
▁મ 71
ใน 71
▁เรา 71
▁แต่ 71
ความ 71
▁र_ne 71
え 71
la_ga 71
▁éis 71
▁mi_cs 71
vě 71
ende_nb 71
ke_sh 71
ći_sh 71
qə 71
▁edən 71
▁daha_az 71
▁surveillance 71
nfrastructure 71
یه 71
▁مه_ku 71
ssa_fi 71
issa_fi 71
EMAIL_km 71
▁ឯកសារ 71
hem_km 71
ម្ 71
வு 71
▁კა 71
კთ 71
σε 71
▁F_gd 71
òr_gd 71
▁for_gd 71
wydd 71
▁года 71
ioù 71
▁game_ha 71
▁kansu 71
▁Ūađ 71
▁si_es 71
se_es 71
ca_it 71
ne_it 71
či_sl 71
▁bħala 71
UE_mt 71
bi_mt 71
▁du_de 71
ļa 71
ņēm 71
▁vērā 71
ਘ 71
니 71
▁نها_ar 71
▁شيء 71
▁تا_ar 71
▁Ji_en 71
▁Ele_en 71
ador_en 71
▁ben_en 71
ici_en 71
zar_en 71
ма_be 70
мі_be 70
▁ар 70
са 70
▁this 70
сто 70
фар 70
▁KMail 70
▁inden 70
▁Пас 70
▁www 70
▁кра 70
▁tut 70
тор 70
▁ю 70
LD 70
list 70
▁вер 70
▁вас 70
ів 70
▁Comment_oc 70
▁Ignor 70
ole 70
ost 70
▁Mai 70
cul 70
liv 70
rel 70
▁Jun 70
lles 70
re_sq 70
▁provo 70
graf 70
kta 70
NE 70
ym 70
uni 70
▁vul 70
▁Kara 70
nem 70
▁ik 70
▁bla 70
plant 70
▁Kol 70
page 70
ch_fy 70
-% 70
▁glu 70
else_da 70
▁ty 70
▁hemm 70
lings 70
reb 70
▁Natur 70
▁2010. 70
▁7, 70
cio 70
▁variable 70
/2002 70
FO 70
▁toy_mg 70
▁ala 70
▁han_mg 70
aon 70
oko 70
kaj 70
▁nie 70
▁vidi 70
zza 70
kala 70
▁pac 70
▁Boy 70
dil 70
his 70
▁गया 70
▁प्र_hi 70
▁रहा 70
न् 70
uv 70
▁pie 70
xel 70
té 70
▁bastard 70
▁Danny 70
▁FBI 70
TAR 70
权 70
通过 70
自 70
1998 70
දා 70
ዙ 70
ልክ 70
▁пре_mk 70
ади 70
▁пеш 70
▁ہوئے 70
▁شد 70
گر 70
جی 70
▁امت 70
داد 70
جب 70
▁وجود 70
ál_hu 70
▁fog 70
▁kot 70
▁yok 70
gian 70
▁kura 70
GI 70
▁kann 70
teen 70
▁စ 70
ရွေး 70
▁s_pl 70
dzie 70
ام_ug 70
▁نى 70
▁ki_eo 70
▁när 70
▁ит 70
▁ләкин 70
▁үз 70
▁теләгән 70
▁пәйгамбәр 70
▁E_pt 70
ência 70
ନ୍ତୁ 70
▁ফোল্ডাৰ 70
▁বে 70
▁পৰা 70
▁ন_as 70
ীয় 70
▁ક 70
ко_bg 70
▁са_bg 70
▁Comh 70
▁leith 70
chain 70
▁Coimisiún 70
▁Uimh 70
▁faire 70
▁шу_uz 70
қа_uz 70
ky_cs 70
es_nb 70
▁an_nb 70
že_sh 70
▁pot_sh 70
iz_sh 70
▁gətir 70
▁A_fr 70
▁о_tg 70
no_lt 70
mu_lt 70
▁būtų 70
▁do_hr 70
▁name_se 70
▁жа_kk 70
▁Ji_ku 70
▁ku_fi 70
kho_km 70
nak_km 70
▁pis_km 70
eth_km 70
at_ro 70
მთ 70
λι 70
ουμε 70
▁Το 70
▁egiten 70
ми_uk 70
ля_uk 70
тель 70
స 70
▁فعل 70
ون_fa 70
▁dare 70
▁ūig 70
▁Es_es 70
miento 70
rá_es 70
▁sobre_es 70
▁me_es 70
▁ci_it 70
▁u_sl 70
azzjonijiet 70
▁tiġi 70
▁I_lv 70
▁es_lv 70
▁pēc 70
da_cy 70
▁ಶ 70
▁ਕ 70
▁보 70
▁مه_ar 70
▁فضل_ar 70
مشاركة 70
▁جدول 70
illa_en 70
▁kde_en 70
nda_en 70
▁Er_en 70
▁Ko_en 70
▁mai_en 70
▁Comment_be 69
▁ва 69
зе 69
▁К 69
▁qui 69
▁прав 69
ор 69
)... 69
cion_oc 69
▁Poli 69
start 69
im_sq 69
kë 69
▁sektor 69
▁gru 69
▁projekt 69
▁monet 69
dje 69
duk 69
▁pat 69
▁1991 69
IC 69
lina 69
▁transport 69
kov 69
zik 69
▁sistem 69
▁Solo 69
sar 69
iden 69
zim 69
inga 69
nak 69
▁gradu 69
▁Sti 69
nen 69
jir 69
USE 69
dika 69
▁direkt 69
▁SSL 69
ær_da 69
▁I_da 69
vede 69
▁s_da 69
mming 69
▁42 69
mati 69
cino 69
▁Hva 69
▁lag 69
Vi 69
une 69
▁sa_mg 69
kevitra 69
▁hana 69
ja_mg 69
▁Mah 69
jom 69
▁Syria 69
▁eso 69
▁photos 69
yi 69
▁व_hi 69
▁वि_hi 69
▁मा_hi 69
▁करता 69
-10 69
šla 69
▁I_bs 69
žu 69
▁raz 69
ša 69
▁gest 69
čne 69
stva 69
pus 69
keyboard_li 69
▁Apple 69
6) 69
▁car 69
▁més 69
▁benefici 69
化 69
工作 69
▁你 69
有关 69
▁我们 69
尔 69
ണ്ട 69
▁නි 69
▁උ 69
ሉት 69
▁Те 69
ски_mk 69
кор 69
ие 69
▁ши 69
▁کتاب 69
▁جان 69
▁چی 69
بحث 69
▁rá 69
ké 69
ince 69
je_sr 69
ma_sr 69
de_gl 69
▁wat_nl 69
▁brand 69
▁Du_nn 69
▁ei_nn 69
sjonen 69
va_sk 69
IX 69
ဖြစ် 69
စာ 69
▁Earth 69
em_pl 69
ئا_ug 69
▁ئال 69
ۇن 69
اك 69
▁باس 69
manzi 69
▁lwa 69
pha_xh 69
qi 69
▁kamar 69
▁để 69
▁Ý 69
▁över 69
▁mul 69
▁там 69
▁equivalent 69
ଏ 69
ଲା 69
ତା 69
▁छ_ne 69
ん 69
リ 69
れ 69
ag_ga 69
ic_ga 69
▁ri_ga 69
ni_uz 69
▁эди 69
▁inn_nb 69
st_sh 69
▁financijsk 69
te_sh 69
inə 69
▁sa_fr 69
▁personnel 69
nspection 69
▁Ta_et 69
ed_et 69
▁шуморо 69
▁ҷо 69
▁ӯ 69
au_lt 69
uojam 69
▁I_hr 69
lin_se 69
де_kk 69
شي 69
▁kan_no 69
▁ოპთ 69
თრვ 69
უთ 69
ფვ 69
αγ 69
ον 69
το 69
▁o_eu 69
▁eus 69
▁Tha_gd 69
ни_uk 69
ской 69
▁నా 69
▁Sa_ha 69
▁ūér 69
ni_is 69
▁mi_es 69
▁По_ru 69
wa_zu 69
▁av_it 69
se_it 69
▁all_it 69
▁oder 69
▁jit 69
rigward 69
▁S_mt 69
▁einen 69
▁nach_de 69
▁A_lv 69
▁jo_lv 69
īd 69
려 69
▁거 69
▁يا_ar 69
▁جز_ar 69
▁Anda_id 69
KE_en 69
isten_en 69
ido_en 69
iso_en 69
▁Ну 68
лу 68
▁Го 68
ур 68
province 68
▁that 68
ал 68
▁Jan 68
▁Cha 68
zak 68
cy 68
tos 68
▁LA 68
▁tres 68
שי_he 68
וס 68
eke 68
▁kontroll 68
▁ting 68
▁Amb 68
bine 68
mele 68
▁76 68
ono 68
▁klas 68
▁62 68
▁be_fy 68
ope 68
kere 68
re_da 68
▁fra_da 68
st_da 68
▁Mala 68
▁være_da 68
▁land 68
▁Juli 68
rett 68
punkt 68
▁EF 68
.3. 68
mina 68
▁92 68
95 68
▁azo 68
pirenena 68
GO 68
▁meta 68
inu 68
93 68
vala 68
।" 68
▁बोल 68
li_bs 68
▁bi_bs 68
▁tijela 68
▁tipo 68
server 68
▁Era 68
合 68
点 68
心 68
▁analyse 68
▁ബ 68
ነገ 68
መስ 68
ውም 68
▁така 68
ните_mk 68
▁тар 68
тир 68
ке 68
▁Сен 68
▁تب 68
▁رسول 68
▁تاکہ 68
عظم 68
سط 68
کن 68
▁lé 68
▁Ü 68
kai 68
iff 68
ye_tr 68
üb 68
vai 68
se_gl 68
cción 68
ña_gl 68
▁á_gl 68
▁compromis 68
▁Pass 68
▁mellom 68
ovať 68
ny_sk 68
▁Hotel 68
စား 68
မိ 68
ży 68
gno 68
ازىل 68
▁li_xh 68
▁Ku_xh 68
ayo 68
▁noku 68
ĝo 68
▁ŝi 68
▁đang 68
▁gall 68
▁an_sv 68
▁белә 68
▁урын 68
▁ал_tt 68
ça_tk 68
modification 68
ado_pt 68
▁OF_or 68
▁TRANSLATORS_or 68
▁ଏହି 68
▁K_ig 68
▁তথ্য 68
▁ব্যৱহাৰ 68
ফ 68
মান 68
te_af 68
▁નહિં 68
▁કે 68
▁કરવા 68
ले_ne 68
▁Izina 68
ът 68
álacha 68
▁ca_ga 68
íocht 68
▁sna_ga 68
aíochta 68
▁амал 68
▁করেছে 68
▁ako_sh 68
▁I_sh 68
ve_sh 68
▁nije_sh 68
▁Komisije 68
▁belə 68
nə 68
▁mais_fr 68
▁Ce_fr 68
gi_et 68
ant_lt 68
▁skol_se 68
ux_se 68
▁Ga_se 68
▁tahu_ms 68
▁y_fi 68
iden_fi 68
ille_fi 68
▁Se_fi 68
▁va_fi 68
▁کو_ps 68
▁ធ្វើ 68
ង់ 68
▁fost_ro 68
▁நீ 68
த்து 68
▁στην 68
ής 68
lick_gd 68
▁У_uk 68
▁А_uk 68
కి 68
డ్ 68
▁ఈ 68
ين_fa 68
▁سر_fa 68
فعل 68
خبر 68
▁Yanã 68
▁alhãli 68
▁está_es 68
ku_zu 68
ato_it 68
▁ga_sl 68
de_mt 68
suq 68
▁war_de 68
▁n_wa 68
ೂ 68
▁ಕ 68
▁ಎ 68
▁ಪ್ರ 68
دار_ar 68
▁آ_ar 68
ssi_en 68
▁til_en 68
len_en 68
ori_en 68
▁enga_en 68
▁Мы 67
▁кам 67
ша 67
"; 67
Mouse 67
▁Ме 67
▁OpenPGP 67
▁ent 67
cr 67
▁za 67
▁division 67
▁continent 67
▁if 67
Free 67
try 67
▁Person 67
das 67
aires 67
qui 67
▁Una 67
▁Ste 67
▁Tom 67
Preview 67
ncer 67
▁היא 67
ון 67
▁ר_he 67
▁ju_sq 67
▁Sel 67
▁ime 67
▁pas_sq 67
se_sq 67
mos 67
bert 67
▁2005. 67
rak 67
▁Oli 67
▁num 67
ega 67
ingu 67
tit 67
▁SE 67
taria 67
ovan 67
▁Jer 67
▁Die 67
▁02 67
▁mir 67
ien 67
▁sku 67
ON 67
▁is_fy 67
rø 67
lande 67
▁EUR 67
▁nomin 67
DU 67
▁Ord 67
sled 67
5000 67
genera 67
▁fro 67
▁dedi 67
▁CH 67
lege 67
▁nan_mg 67
▁vet 67
fo_mg 67
▁E_mg 67
▁nome 67
▁vz 67
▁pit 67
▁भ_hi 67
ती_hi 67
थ 67
▁ब_hi 67
▁कार्य 67
घ 67
▁खेल 67
gnome 67
eš 67
jela 67
uju 67
▁ordin 67
▁nebo 67
EY 67
estra 67
▁sí 67
▁propi 67
▁Dé 67
▁pala 67
▁Elle 67
úl 67
十 67
实 67
特 67
▁79 67
ശ 67
ാന 67
▁එ 67
ණ 67
▁ම 67
ඩ 67
ጸ 67
▁የኾነ 67
ቻችሁ 67
ቻ 67
еб 67
ра_mk 67
лег 67
ити 67
ден 67
▁тур 67
дик 67
▁مجھے 67
اک 67
کر 67
طلاع 67
کار 67
▁Ez_hu 67
mm 67
▁gibi 67
▁günah 67
li_sr 67
ности 67
▁ti_gl 67
▁xe 67
▁parte 67
Active 67
át 67
▁determina 67
▁hier_nl 67
▁Je_nl 67
»: 67
na_pl 67
wie_pl 67
گۈ 67
xesha 67
xa_xh 67
bi_xh 67
os_eo 67
▁гына 67
сең 67
▁ике 67
▁үзе 67
me_pt 67
pụta 67
াৰ 67
▁চা 67
નું 67
ซ 67
we_rw 67
レ 67
う 67
▁съ 67
▁О_bg 67
▁imeachta 67
Airteagal 67
ne_ga 67
le_ga 67
▁aici 67
▁B_ga 67
оқ 67
▁келтир 67
▁Panel 67
me_cs 67
ě 67
ale_nb 67
▁য_bn 67
নের 67
ba_sh 67
ir_az 67
▁qal 67
tre_fr 67
▁Excuse 67
ad_et 67
hu_et 67
мон_tg 67
▁sa_hr 67
▁ga_hr 67
ны_kk 67
▁چه 67
ului 67
zi_ro 67
வை 67
▁நிச்சயமாக 67
ლს 67
▁οι 67
▁Η 67
▁ή 67
▁bi_eu 67
не_uk 67
చే 67
ди_ky 67
▁عد 67
wã 67
▁in_ha 67
▁gaskiya 67
▁Mu_ha 67
te_es 67
ча_ru 67
▁во_ru 67
thi_zu 67
vo_it 67
▁s_it 67
▁La_it 67
▁ti_sl 67
▁p_mt 67
▁sabiex 67
▁auch 67
ti_lv 67
kārt 67
ējā 67
ಿಸು 67
▁OF_kn 67
▁TRANSLATORS_kn 67
ਹ 67
ਵ 67
ਲਾ 67
▁सा_mr 67
कडे 67
에서 67
▁سو_ar 67
▁هنا 67
▁Id_en 67
tori_en 67
under_en 67
alt_en 67
tak_en 67
nim_en 67
▁spr_en 67
▁parti_en 67
це_be 66
south 66
▁та 66
Text 66
шта 66
▁кош 66
▁Про 66
оз 66
▁eur 66
▁municipal 66
PS 66
▁Les 66
ому 66
ыш 66
▁(" 66
gio 66
qu 66
pond 66
▁suspens 66
▁አስ 66
tifi 66
▁lin 66
pie 66
▁mie 66
JA 66
▁Jess 66
bl 66
▁הא 66
מו 66
▁A_sq 66
mbre 66
inis 66
▁05 66
ande 66
plo 66
fur 66
RES 66
nden 66
nit 66
stil 66
OK 66
▁Ao 66
sir 66
▁Cur 66
▁pel 66
nos 66
pet 66
▁kin 66
▁sko 66
▁Form 66
▁Cra 66
▁mange 66
▁hans 66
erings 66
som 66
▁nye 66
chlor 66
IGH 66
▁Til 66
▁800 66
▁stan 66
sso 66
▁Kir 66
OV 66
▁Mexico 66
▁federal 66
wart 66
ello 66
▁Este 66
▁moral 66
▁कह 66
▁करें 66
▁सर्व 66
no_bs 66
▁već 66
▁prav 66
▁sv 66
ón 66
▁des_ca 66
▁acu 66
正 66
他 66
都 66
子 66
▁ന 66
▁മു 66
ച്ച 66
ලි 66
ኖ 66
undo 66
▁в_mk 66
▁дода 66
ции 66
▁нас 66
▁ол 66
▁56 66
نی 66
خلص 66
ائر 66
▁be_hu 66
▁üz 66
ta_hu 66
▁Light 66
▁Bu_tr 66
▁ka_tr 66
▁Bir_tr 66
▁sizi 66
ttu 66
ni_sr 66
▁з 66
▁Ada 66
жда 66
es_gl 66
ño_gl 66
▁ca_gl 66
▁lei 66
▁vou 66
Exec 66
▁We_nl 66
▁moet_nl 66
▁nr 66
▁sein 66
attr 66
▁ná_sk 66
▁sme_sk 66
▁compris 66
▁م_ug 66
▁قىلىش 66
ىدىن 66
ۋە 66
▁ئىنكا 66
ng_xh 66
ndawo_xh 66
elwe 66
▁v_vi 66
ợ 66
▁như 66
▁кеби 66
▁баш_tt 66
чы_tt 66
деләр 66
ять 66
▁Вә 66
dy_tk 66
mente_pt 66
esse 66
ରି 66
▁mgbe 66
▁windo 66
buru 66
রি 66
নো 66
ડ 66
▁થયેલ 66
щ 66
▁co_ga 66
irt_ga 66
▁e_ga 66
ларига 66
se_nb 66
▁করার 66
▁ভ_bn 66
ন্ত_bn 66
▁ত_bn 66
ji_sh 66
iti_sh 66
ində 66
▁az_az 66
ya_az 66
dilər 66
▁travail 66
▁accompli 66
▁ar_et 66
▁имон 66
iniai 66
▁veik 66
▁sudah 66
▁គឺ 66
▁ប្រ 66
▁ដើម្បី 66
▁vil_no 66
▁han_no 66
▁Am_ro 66
ற 66
னை 66
▁ბთ 66
ოჲ 66
▁ένα 66
▁al_eu 66
▁den_eu 66
▁Test_gd 66
▁check_gd 66
th_gd 66
ప్ 66
▁azãba 66
kunã 66
yã 66
ir_is 66
ма_ru 66
▁все_ru 66
▁scientific 66
ali_mt 66
▁Ewropea 66
zjoni 66
hr_de 66
▁les_wa 66
ēt 66
tī 66
ಗಳು 66
Name_kn 66
ਜ 66
▁हा_mr 66
▁ये_mr 66
할 66
장 66
하 66
▁يجب 66
تى_ar 66
▁بالأ 66
أخذ 66
الخارج 66
ta_id 66
har_en 66
▁upp_en 66
▁dar_en 66
cken_en 66
▁Ber_en 66
hin_en 66
termin_en 66
▁а_be 65
ла_be 65
▁У_be 65
ты_be 65
ча_be 65
луч 65
▁Ко 65
ак 65
аф 65
рас 65
▁translate 65
ode 65
▁ана 65
èi 65
cions 65
▁contra 65
▁diplom 65
gla 65
adas 65
ons 65
oc 65
▁Cli 65
-6 65
hta 65
92 65
▁ima 65
VO 65
kit 65
▁media 65
▁Gor 65
njo 65
▁Bre 65
tori 65
▁Kap 65
▁gur 65
▁arra 65
▁hr 65
▁brut 65
tul 65
▁Fort 65
▁Bob 65
endo 65
▁devi 65
▁dig 65
se_fy 65
▁foar 65
weg 65
iche 65
ato 65
drag 65
ste_da 65
▁Vi_da 65
lyg 65
kler 65
vik 65
luk 65
▁plast 65
81 65
▁96 65
▁passa 65
IV 65
▁Fa_mg 65
Na 65
ki_mg 65
pak 65
dura 65
unci 65
▁Roll 65
▁Cooper 65
▁46 65
▁उन्हें 65
▁ती 65
▁राह 65
▁Če 65
▁dva 65
vati 65
▁este 65
▁cur 65
▁osigura 65
nó 65
▁Vai 65
tzat 65
▁conta 65
▁independent 65
区域 65
次 65
ിൽ 65
▁വി 65
യാ 65
ූ 65
▁ද 65
ጻ 65
2012 65
▁О_mk 65
ист 65
▁У 65
▁нам 65
▁Хо 65
▁Ин 65
▁گیا 65
بول 65
▁geri 65
▁ne_tr 65
lı_tr 65
vine 65
ja_sr 65
mo_sr 65
▁Đ 65
▁Como 65
▁Fun 65
▁aber 65
bis 65
te_nl 65
zone 65
▁ob_sk 65
တယ်။ 65
သိ 65
သား 65
ည 65
ထုတ် 65
▁ဆ 65
မှတ် 65
▁Po_pl 65
▁tak_pl 65
▁(5) 65
بى 65
نا_ug 65
▁سىلەرنىڭ 65
▁ئەمەس 65
en_xh 65
va_xh 65
iswa 65
▁soku 65
▁cái 65
▁ấy 65
▁nào 65
лән 65
се_tt 65
▁кыл 65
▁нәрсә 65
ына_tt 65
▁ата 65
▁һич 65
▁transform 65
ଠ 65
we_ig 65
▁ফাইল 65
ং 65
▁কিন্তু 65
▁পরি 65
কি 65
કો 65
લા 65
▁વિ 65
โ 65
อีก 65
สิ 65
▁gut 65
▁Да_bg 65
ки_bg 65
pho_ga 65
▁gCoimisiún 65
▁náisiúnta 65
íochtaí 65
aí 65
▁to_ga 65
▁gai 65
▁қилиш 65
▁ble_nb 65
▁হ_bn 65
skog_sh 65
zi_sh 65
po_sh 65
ska_sh 65
▁çox 65
miş_az 65
▁yer_az 65
▁an_fr 65
▁multiple 65
▁to_et 65
▁à_et 65
dė 65
та_kk 65
▁dalam_ms 65
ng_ms 65
▁خه 65
▁دا_ku 65
▁ne_ku 65
ti_fi 65
ku_fi 65
ញ 65
▁បង្ហាញ 65
▁លើ 65
▁ne_ro 65
ta_ro 65
ოა 65
ισ 65
birthday 65
ar_eu 65
▁это_uk 65
▁un_br 65
శ 65
үү 65
ат_ky 65
▁نه_fa 65
ذار 65
طي 65
fi_ha 65
▁le_es 65
an_es 65
▁En_es 65
▁пред_ru 65
ме_ru 65
ру_ru 65
zo_zu 65
ka_zu 65
▁de_it 65
va_sl 65
aw_mt 65
▁jista 65
▁ja_mt 65
▁fitchî 65
▁tas_lv 65
▁tās 65
dz_lv 65
na_lv 65
er_lv 65
▁pants 65
▁Y_cy 65
▁ਲ 65
▁जा_mr 65
ارة 65
▁Gener_en 65
▁Mas_en 65
ov_en 65
rish_en 65
pad_en 65
ISO_en 65
▁да_be 64
▁За_be 64
RR 64
ль_be 64
ав 64
aire 64
▁lice 64
ов 64
ул 64
дж 64
▁П 64
DC 64
нь 64
▁оп 64
▁06 64
rick 64
▁Му 64
▁amb 64
▁Ali 64
elle 64
XDMCP 64
▁יש 64
▁היה 64
ונג 64
▁duhet 64
isë 64
▁t_sq 64
▁tha_sq 64
nin 64
▁pretend 64
▁Times 64
pun 64
▁epi 64
▁privat 64
▁mono 64
ull 64
illi 64
rci 64
rad 64
pti 64
▁universit 64
lara 64
oti 64
fon 64
elles 64
usi 64
an_fy 64
▁dy 64
▁pani 64
▁barre 64
ger_da 64
ør_da 64
▁17. 64
▁før 64
▁ry 64
▁jer 64
xa 64
lad 64
▁seg 64
fr 64
▁kla 64
gere 64
CAS 64
290 64
▁hita 64
ba_mg 64
zina 64
▁fotoana 64
▁nak 64
parte 64
▁द_hi 64
▁ग_hi 64
▁करा 64
मान 64
ci_bs 64
▁me_bs 64
radi 64
▁impre 64
šli 64
▁Bit 64
▁izi 64
▁entra 64
▁trac 64
▁El_ca 64
rei 64
▁esco 64
▁categori 64
▁pes 64
代表 64
所有 64
过 64
受 64
ഗ 64
ുക 64
▁ර 64
▁እኔ 64
ችን 64
▁የምት 64
▁ሰ 64
▁Ал 64
▁پیدا 64
▁اسی 64
یش 64
ورد 64
▁mi_hu 64
▁akar 64
sol 64
▁Tel 64
ları_tr 64
ya_tr 64
▁te_sr 64
▁como_gl 64
nega 64
ane_nn 64
gga 64
ných_sk 64
▁aby_sk 64
katu 64
chod 64
▁percent 64
မျိုး 64
မာ 64
▁dla 64
▁a_pl 64
ję 64
مان_ug 64
ات_ug 64
▁قورق 64
▁سۆز 64
▁قىلدۇق 64
so_xh 64
isa_xh 64
ci_xh 64
sebenzi 64
ga_xh 64
▁mũ 64
är_sv 64
ендә 64
▁кыла 64
▁кабул 64
▁эшләр 64
▁с_tt 64
▁китап 64
is_pt 64
EMAIL_or 64
ଥିବା 64
▁maka_ig 64
ị̀ 64
io_ig 64
ભ 64
ัง 64
หา 64
▁Ububiko 64
ち 64
▁при_bg 64
▁кет 64
▁ann_ga 64
▁bheith 64
▁bheidh 64
ка_uz 64
ма_uz 64
lar_uz 64
▁Wow 64
▁pří 64
▁Previous 64
▁Det_nb 64
▁সম_bn 64
স্_bn 64
রে 64
li_sh 64
▁zahtjev 64
▁pis_az 64
Þ 64
ää 64
ти_tg 64
та_tg 64
da_lt 64
oms_lt 64
▁To_hr 64
ып_kk 64
ме_kk 64
ге_kk 64
ang_ms 64
▁lain 64
▁ניט 64
er_ku 64
▁sen_fi 64
lle_fi 64
▁و_ps 64
▁e_km 64
ti_ro 64
▁ჟჲ 64
▁მჲ 64
ვნ 64
ზთ 64
▁απο 64
ρά 64
λη 64
▁ni_eu 64
▁ir_eu 64
ну_uk 64
ో 64
▁خيلي 64
حكم 64
▁kai_ha 64
ki_ha 64
tu_is 64
ca_es 64
al_es 64
▁или_ru 64
▁раз_ru 64
tho_zu 64
tta_it 64
▁ho_it 64
ce_it 64
▁Il_it 64
▁delle 64
▁gli_it 64
▁o_sl 64
al_mt 64
▁im_mt 64
▁einer 64
zu_de 64
pack 64
▁on_wa 64
ēja 64
iad_cy 64
▁فقط_ar 64
▁لقد 64
▁تفعل 64
ang_id 64
▁orang_id 64
▁Bla_en 64
tis_en 64
▁val_en 64
▁Croatia 64
▁ai_en 64
thu_en 64
bide_en 64
іп 63
ко 63
тка 63
▁Ку 63
▁Мар 63
▁гу 63
String 63
фе 63
сно 63
шка 63
▁Бел 63
▁Ре 63
dev 63
Я 63
▁$ 63
рав 63
èl 63
▁ora 63
▁nov 63
agra 63
▁Rus 63
▁mala 63
RY 63
yu 63
וד 63
▁dollar 63
▁fakt 63
xo 63
▁bud 63
▁qa 63
▁Ker 63
kia 63
plan 63
migrant 63
▁Sar 63
apa 63
▁Anti 63
mme_fy 63
▁op_fy 63
▁Fan 63
ffen 63
▁simul 63
plu 63
▁Scott 63
▁Saint 63
vs 63
ende_da 63
vne 63
iser 63
rå 63
landene 63
▁nem 63
haus 63
▁sna 63
szt 63
▁mati 63
entes 63
▁Lee 63
▁Bor 63
▁ah 63
▁Có 63
▁Bai 63
viet 63
▁sai 63
▁nik 63
Wa 63
Wh 63
-8859- 63
्या_hi 63
▁सा_hi 63
▁प्रयोग 63
acije 63
▁Mislim 63
▁dat 63
▁ljudi 63
čko 63
▁proizvoda 63
▁broj 63
▁Gun 63
uje 63
lio 63
ELL 63
▁che 63
▁izda 63
▁bie 63
▁veur 63
organ 63
▁Ctrl 63
生 63
名 63
着 63
这一 63
・ 63
ല്‍ 63
වි 63
▁ගැන 63
ቻችን 63
при 63
тар 63
фат 63
мер 63
▁име 63
гина 63
▁نظر 63
الت 63
os_hu 63
▁tud 63
▁Az_hu 63
ma_tr 63
sin_tr 63
▁zaman_tr 63
▁insan 63
wl 63
▁saat 63
▁s_sr 63
ne_sr 63
▁bi_sr 63
▁I_sr 63
▁máis 63
te_gl 63
▁of_nl 63
lo_nl 63
arbeid 63
▁speciali 63
ing_nn 63
▁farge 63
mount 63
ná_sk 63
▁tu_sk 63
▁Ne_sk 63
▁proced 63
ဆက် 63
ုံ 63
နောက် 63
da_pl 63
mą 63
▁CE 63
▁ساڭا 63
▁ي_ug 63
kha_xh 63
tho_xh 63
▁ath 63
ta_eo 63
▁đến 63
▁thì 63
▁vậy 63
▁tê 63
▁Сез 63
▁кәферләр 63
▁тәгалә 63
▁ти_tt 63
▁була 63
▁mas_pt 63
▁discrimina 63
▁ridic 63
ଲେ 63
▁নাই 63
ছি 63
ান 63
Album 63
es_af 63
રી 63
ยัง 63
▁size_rw 63
ith_ga 63
▁Пайғамбар 63
▁Парвардигори 63
▁Je_cs 63
ři 63
▁na_nb 63
▁også_nb 63
land_nb 63
▁diff 63
কা_bn 63
▁ye_az 63
sa_az 63
▁mü_az 63
ini_az 63
▁kəs 63
lé_fr 63
▁on_fr 63
elle_fr 63
▁ju_et 63
▁aasta 63
mist_et 63
▁ё_tg 63
ное 63
▁bendr 63
la_lt 63
▁jo_lt 63
ja_lt 63
▁će_hr 63
▁Viđ 63
мен_kk 63
ма_kk 63
▁Dan_ms 63
▁ve_ku 63
ئه 63
na_fi 63
den_fi 63
kö_fi 63
ិត 63
ភ 63
▁kgm_km 63
ci_ro 63
ქვ 63
წრ 63
▁προ 63
▁γ 63
▁β 63
er_gd 63
ED_gd 63
le_gd 63
▁L_gd 63
▁Не_uk 63
మా 63
ات_fa 63
ذي 63
دير 63
▁ha_ha 63
▁mig_is 63
▁me_it 63
qa_mt 63
tta_mt 63
▁se_mt 63
es_de 63
▁da_de 63
▁No_wa 63
vē 63
EMAIL_kn 63
ੰ 63
ित_mr 63
▁حيث 63
نى_ar 63
▁ثلاث 63
وار_ar 63
▁tak_id 63
mod_en 63
gui_en 63
chy_en 63
ame_en 63
▁chur_en 63
▁Men_en 63
association 63
rin_en 63
бо 62
аў 62
сці 62
▁се 62
▁ас 62
▁1" 62
▁Файл 62
se_be 62
кс 62
SIS 62
▁arti 62
500 62
лет 62
ара 62
▁PM 62
дов 62
mpli 62
ጨ 62
▁עם 62
ojnë 62
ke_sq 62
liber 62
▁het 62
mbro 62
▁Kra 62
nov 62
raj 62
▁formula 62
lug 62
▁600 62
▁meny 62
▁Sad 62
▁Washington 62
▁Mira 62
▁Univers 62
pati 62
rane 62
mbo 62
▁bet 62
wal 62
open 62
asjon 62
tus 62
▁fand 62
dde 62
Ø 62
▁smi 62
Europe 62
anana 62
andra 62
▁mbola 62
Fi 62
aran 62
raka 62
inti 62
حسن 62
▁dik 62
مستقبل 62
▁المؤ 62
ont 62
dum 62
raf 62
eira 62
operativ 62
cou 62
▁Nó 62
क़ 62
▁कु 62
▁गा 62
▁PA 62
ča 62
neš 62
▁neko 62
ismo 62
▁ubu 62
SU 62
▁navigation 62
▁pensa 62
ries 62
▁cel 62
▁cada 62
cala 62
▁maxim 62
▁Ent 62
▁Richard 62
经济 62
设 62
段 62
马 62
根据 62
社会 62
入 62
▁Environment 62
▁යන්න 62
කු 62
▁የማ 62
▁А_mk 62
▁ди 62
▁при_mk 62
ствен 62
чки 62
▁ہیں۔ 62
سار 62
انی 62
ای 62
▁داد 62
tás 62
▁lát 62
rsa 62
dus 62
▁mó 62
iyor 62
ım 62
± 62
size 62
▁MP 62
dú 62
ích 62
▁Imi 62
tamine 62
merk 62
▁ho_sk 62
▁k_sk 62
ပုံ 62
ဖိုင် 62
နဲ့ 62
နှ 62
ဘာ 62
▁خ_ug 62
▁ماڭا 62
▁شۈبھىسىزكى 62
▁ھەر 62
▁el_xh 62
mhla 62
ca_xh 62
▁isi_xh 62
▁mà_vi 62
▁Ә 62
▁һәлак 62
сың 62
▁әйттеләр 62
▁иреш 62
йт 62
ba_tk 62
▁Μ 62
gharịa 62
▁o_ig 62
▁বি_as 62
▁হচ্ছে 62
▁કરી 62
▁વ 62
▁તમે 62
เรื่อง 62
เรา 62
▁paper_rw 62
вър 62
▁те_bg 62
▁b_ga 62
aíocht 62
▁forálacha 62
os_ga 62
nú_ga 62
▁bunú 62
▁о_uz 62
▁ў_uz 62
▁бошқа 62
▁кўр 62
mě 62
▁Aug 62
▁var_nb 62
▁অনেক 62
▁utvrđen 62
rđu 62
▁sə 62
▁edər 62
▁həm 62
▁consent 62
▁la_et 62
na_et 62
ва_tg 62
ly_lt 62
uoti 62
ri_lt 62
▁paš 62
▁ħ 62
▁te_hr 62
▁orang_ms 62
▁adalah_ms 62
ان_ku 62
ځ 62
وري 62
ស្ 62
ក្រ 62
▁មួយ 62
▁de_no 62
வி 62
ுக்கு 62
კს 62
έν 62
ela_eu 62
▁A_eu 62
tzea 62
ha_gd 62
че_uk 62
క్ష 62
లా 62
లో 62
▁halitta 62
▁bai_ha 62
▁yanã 62
ɗ 62
во_ru 62
▁Isi_zu 62
kha_zu 62
▁alla_it 62
at_mt 62
▁bei_de 62
▁d_lv 62
▁Es_lv 62
ਤਾ 62
▁पा_mr 62
러 62
▁يُ 62
▁الحق 62
قضايا 62
ميزانية 62
تقييم 62
▁بالا_ar 62
link_en 62
ski_en 62
▁bun_en 62
bie_en 62
▁NAME_en 62
▁mod_en 62
ступ 61
▁від 61
тры 61
ван 61
▁Real 61
▁стар 61
bb 61
ха 61
▁Т 61
▁ake 61
рам 61
empla 61
http 61
▁был 61
vok 61
wand 61
usa 61
placement 61
▁unique 61
▁יודע 61
▁18. 61
rz 61
▁para_sq 61
psi 61
▁(2 61
kina 61
▁8, 61
▁paga 61
▁aku 61
▁kontakt 61
▁rum 61
▁Bir 61
II 61
▁dol 61
▁ana 61
liku 61
▁Ako 61
▁Yn 61
▁Y_fy 61
balk 61
wich 61
▁Wy 61
alt 61
▁wij 61
tsy 61
naud 61
▁VII 61
vig 61
▁prim 61
▁komme 61
CI 61
pha 61
▁vam 61
▁dok 61
▁[1], 61
mana_mg 61
am_mg 61
hets 61
▁isan 61
enja 61
inci 61
▁aiz 61
udi 61
▁gla 61
▁196 61
▁Software 61
tique 61
gie 61
▁Ia 61
wir 61
nol 61
नी_hi 61
्य_hi 61
ृ 61
मे 61
इ 61
णी 61
▁do_bs 61
na_bs 61
▁ovdje 61
boli 61
▁Sj 61
čka 61
▁neet 61
▁wo 61
▁fer_ca 61
▁nou 61
▁Bene 61
TAN 61
▁utili 61
号决议 61
克 61
得 61
意 61
大会 61
2015 61
നി 61
▁ഈ 61
ෑ 61
ፉ 61
ам_mk 61
▁Би 61
▁про_mk 61
▁след 61
дин 61
▁Ни 61
▁رہا 61
▁والوں 61
▁پہلے 61
تمام 61
واقع 61
te_hu 61
▁Ny 61
lett 61
rü 61
▁değil 61
▁Evet 61
▁Hay 61
▁što_sr 61
utu 61
▁album 61
▁rural 61
xe_gl 61
tico 61
axud 61
ál 61
▁door_nl 61
▁meer 61
et_nl 61
val_nn 61
rapport 61
▁Spo 61
မ် 61
ဆုံး 61
سۇن 61
▁ئاتا 61
▁تۇر 61
▁ياكى 61
▁ko_xh 61
▁em_xh 61
lu_xh 61
iwe 61
kê 61
▁ni_sv 61
▁Du_sv 61
▁нәрсәләр 61
▁пакь 61
мен_tt 61
▁мөшрикләр 61
▁шу_tt 61
▁гөнаһ 61
▁мөэминнәр 61
▁тор_tt 61
er_pt 61
▁competitiv 61
GL 61
ଥି 61
▁নাম_as 61
▁কিছু 61
ত্ত 61
শি 61
en_af 61
▁ไม่ 61
ho_rw 61
つ 61
igh_ga 61
▁u_ga 61
▁ré_ga 61
▁cur_ga 61
pháirt 61
▁gcomh 61
OUR 61
▁уларни 61
na_cs 61
ou_cs 61
▁data_nb 61
lige_nb 61
PV 61
▁članice 61
▁mogu_sh 61
pharma 61
▁M_az 61
▁iş_az 61
▁e_et 61
üü 61
juma 61
▁m_et 61
▁Мо_tg 61
▁кунад 61
▁гуфт 61
ja_hr 61
на_kk 61
ku_ms 61
▁ت_ku 61
to_fi 61
▁mi_fi 61
▁En_fi 61
▁بيا 61
tul_ro 61
அ 61
ான 61
▁சி 61
▁ჲბ 61
λέ 61
▁τις 61
Turkish 61
▁ar_eu 61
▁device_gd 61
ga_gd 61
▁bet_br 61
▁ha_br 61
రణ 61
гы_ky 61
▁کنم 61
▁شده 61
▁ji_ha 61
▁des_es 61
▁его_ru 61
ен_ru 61
ке_ru 61
сто_ru 61
▁mi_it 61
livell 61
▁po_it 61
▁me_sl 61
tu_mt 61
▁tiegħu 61
▁ri_mt 61
▁bejn 61
▁sa_mt 61
ità_mt 61
▁wie_de 61
▁valsts 61
ināt 61
▁S_lv 61
wn_cy 61
▁L_cy 61
ಮ 61
ೀ 61
र्_mr 61
ساعد 61
▁dalam_id 61
san_en 61
▁Und_en 61
ith_en 61
▁Bre_en 61
cia_en 61
ssa_en 61
ini_en 61
ныя 60
та_be 60
вы_be 60
сп 60
▁no_be 60
▁alt 60
tag 60
▁cap 60
она 60
000 60
сов 60
rè 60
hor 60
king 60
ua 60
▁או 60
ri_sq 60
▁mirë 60
me_sq 60
▁Shi 60
▁parlament 60
▁tua 60
▁River 60
▁solid 60
▁arma 60
SE 60
▁mak 60
jal 60
▁pamat 60
▁Hall 60
Per 60
OG 60
ede 60
▁61 60
nel 60
▁ingen 60
lg 60
▁barn 60
▁lov 60
▁Carl 60
▁vegeta 60
▁81 60
▁esti 60
τ 60
▁Rock 60
8. 60
▁pil 60
▁centr 60
SM 60
vita 60
▁rehefa 60
hara 60
▁fampi 60
▁Sa_mg 60
izany 60
▁have 60
vela 60
valo 60
▁fiz 60
vad 60
▁zor 60
pani 60
ganda 60
▁Maria 60
▁حر 60
▁Camp 60
Break 60
ISO 60
स्त_hi 60
दार 60
▁पा_hi 60
Š 60
ško 60
▁Kada 60
▁kim 60
▁prev 60
▁Drug 60
▁Ge_li 60
▁noi 60
▁aug 60
▁hou 60
haya 60
请 60
开 60
它 60
ൊ 60
ുന്ന 60
ං 60
නවා 60
▁ጠ 60
▁ዐዋቂ 60
ሪያ 60
ሐ 60
▁መንገድ 60
▁треба 60
су 60
▁ح_ur 60
▁اُن 60
▁قوم 60
▁دست 60
زار 60
▁já 60
▁te_hu 60
ly_hu 60
Box 60
paragrafu 60
Brussel 60
▁много 60
ста 60
▁Fac 60
Result 60
▁mijn 60
▁K_nn 60
▁denne_nn 60
▁moj 60
tú 60
▁2007/ 60
ဖွင့် 60
ယူ 60
ko_pl 60
je_pl 60
dlu 60
يان 60
weni_xh 60
▁zoku 60
ONE 60
▁mult 60
▁k_vi 60
▁ý 60
▁från 60
сәләр 60
▁ни_tt 60
▁безгә 60
ырга 60
▁булмас 60
▁булу 60
▁тәүбә 60
ча_tt 60
магыз 60
▁күрсәт 60
дө 60
▁isso 60
idade_pt 60
ria_pt 60
▁circula 60
▁m_ig 60
ভি 60
▁১ 60
▁কাজ 60
▁পর 60
▁ન 60
เก 60
้ 60
มาก 60
ल्या 60
ラ 60
▁ви_bg 60
ят_bg 60
▁se_ga 60
▁Бу_uz 60
лардан_uz 60
▁zá_cs 60
st_cs 60
▁kokain 60
se_sh 60
kom_sh 60
▁O_sh 60
▁Denmark 60
▁yaxşı 60
me_fr 60
us_fr 60
▁fait_fr 60
inclu 60
user 60
▁p_et 60
est_et 60
зи_tg 60
▁если 60
▁o_lt 60
▁dalies 60
▁finans_lt 60
tu_lt 60
mo_hr 60
up_se 60
▁Са_kk 60
қа_kk 60
▁bo_ku 60
▁aikata 60
van_km 60
ាប់ 60
▁ម 60
▁ពេល 60
▁skal_no 60
ca_ro 60
▁அல்லாஹ் 60
▁ήταν 60
ρω 60
νε 60
ζ 60
πε 60
ro_eu 60
▁baina 60
action_gd 60
bh_gd 60
итель 60
▁ఇ 60
తి 60
దా 60
دين 60
fa_ha 60
▁te_es 60
▁У_ru 60
▁рас_ru 60
▁A_zu 60
ere_it 60
are_it 60
▁mi_sl 60
▁oħra 60
vi_mt 60
għa 60
hen_de 60
ssen_de 60
mēr 60
▁attiecībā 60
ci_lv 60
ਾਈ 60
▁ब_mr 60
었 60
▁أنا 60
▁أحد 60
أت 60
تدريب 60
ras_en 60
▁Qur_en 60
аль 59
▁для_be 59
▁Н 59
▁аб 59
▁inlistbox 59
11) 59
ус 59
▁пу 59
ней 59
гер 59
▁Vis 59
cal 59
firma 59
bula 59
יי 59
▁שה 59
אי 59
יו 59
evolution 59
▁13. 59
▁von 59
ti_sq 59
▁Mama 59
▁ato 59
Je 59
▁Tak 59
▁favorit 59
izi 59
FE 59
Ku 59
▁vur 59
▁Fred 59
eran 59
▁OF_fy 59
▁TRANSLATORS_fy 59
▁Kate 59
▁JPEG 59
ppel 59
iert 59
▁kunne 59
pred 59
lagt 59
eurs 59
lig_da 59
sig 59
ge_da 59
▁67 59
▁hele 59
▁energi 59
▁svi 59
▁bang 59
person 59
▁6, 59
bad 59
oro 59
▁vent 59
▁kru 59
▁Ara 59
RU 59
▁Ma_mg 59
ity_mg 59
xin 59
▁An_mg 59
▁3) 59
mile 59
▁Little 59
▁rak 59
▁Thailand 59
▁Kevin 59
▁University 59
▁savo 59
▁बहुत 59
ियों 59
▁च_hi 59
{0} 59
Li 59
▁nešto 59
▁kraj 59
uen 59
corre 59
▁importa 59
▁dic 59
cida 59
▁14. 59
没有 59
需要 59
▁71 59
ൻ 59
▁എനിക്ക 59
ുന്നു 59
ഹ 59
ാവ 59
▁ඔව් 59
රි 59
ታቸው 59
▁ከአላህ 59
ција 59
Х 59
▁مق 59
▁گفت 59
▁° 59
hle 59
جعل 59
▁mint 59
ért 59
▁gy_hu 59
tá 59
legg 59
cs_hu 59
▁hon 59
▁kun 59
sett 59
▁uno 59
ğa 59
** 59
indu 59
ти 59
▁И 59
▁di_gl 59
cchi 59
▁zou 59
▁geen 59
▁zin 59
lasting 59
▁74 59
▁nan 59
ကာ 59
ရဲ့ 59
▁przy 59
czy 59
▁ż 59
ھە 59
ئە 59
ىي 59
▁ئىككى 59
no_xh 59
▁ez_xh 59
lunga 59
▁estis 59
▁Ne_eo 59
▁descend 59
ơ 59
▁skulle_sv 59
ska_sv 59
▁кайт 59
▁итә 59
▁кылыр 59
үк 59
уда 59
▁Ny_tk 59
ca_pt 59
am_pt 59
▁କି 59
କ୍ଷ 59
▁paneelụ 59
▁zum 59
▁অন্য 59
উ 59
heit 59
▁ફાઈલ 59
ૂ 59
จาก 59
ดู 59
ลูก 59
แค่ 59
ํา 59
ित_ne 59
こ 59
ろ 59
さ 59
▁Това 59
▁о_bg 59
▁И_bg 59
че_bg 59
uithe 59
he_ga 59
ol_ga 59
ana_ga 59
▁нарса 59
мон_uz 59
▁Аллоҳга 59
ish_uz 59
ř 59
ko_nb 59
ing_nb 59
▁vil_nb 59
▁তো 59
ća_sh 59
lu_sh 59
nika_sh 59
▁Za_sh 59
▁zaman_az 59
lərə 59
▁peut 59
▁complex 59
▁üle 59
html_et 59
▁касоне 59
ba_lt 59
▁kurios 59
ne_hr 59
ti_ms 59
▁אַ 59
ne_ku 59
ne_fi 59
illä 59
va_fi 59
▁بايد 59
Name_km 59
▁her_no 59
▁i_ro 59
ங்க 59
დჲ 59
მჲ 59
▁ოპჲ 59
▁კაკგჲ 59
ρο 59
▁συν 59
▁Τ 59
▁in_eu 59
▁di_eu 59
▁dago 59
▁E_eu 59
▁from_gd 59
ди_uk 59
ность 59
గు 59
ృ 59
▁జ 59
▁ا_fa 59
▁خود_fa 59
▁Ubangijinka 59
▁kãfirta 59
ra_ha 59
ía_es 59
▁todo_es 59
им_ru 59
по_ru 59
ии_ru 59
▁О_ru 59
▁In_zu 59
▁lahko 59
▁bil_mt 59
▁tagħha 59
▁Sch_de 59
▁A_de 59
▁li_lv 59
▁de_lv 59
to_lv 59
▁starp 59
▁r_cy 59
th_cy 59
ನ 59
▁ਨਾਂ 59
▁OF_pa 59
▁TRANSLATORS_pa 59
▁ह_mr 59
▁فقد 59
ng_id 59
mal_en 59
dar_en 59
▁era_en 59
▁Des_en 59
▁san_en 59
RA_en 59
▁Bi_en 59
▁Ama_en 59
лог 58
▁С_be 58
чо 58
раб 58
▁Це 58
фт 58
▁f_be 58
▁non 58
▁Шу 58
сон 58
▁UTF 58
▁Ха 58
▁nh 58
▁aquest 58
zoom 58
▁Jul 58
udio 58
▁vos 58
▁Link 58
▁porta 58
▁televisi 58
▁Argent 58
rab 58
àn 58
ish 58
בר 58
hr 58
▁Stan 58
xe 58
▁Der 58
sione 58
DER 58
▁rezultat 58
vas 58
▁Parlament 58
rem 58
▁Invest 58
ndan 58
iku 58
kes 58
▁Fra 58
▁Bag 58
hod 58
ambi 58
ûn 58
▁Map 58
lk 58
tika 58
FTP 58
bou 58
▁tel 58
▁Gan 58
▁hun 58
lige_da 58
▁Hvis 58
▁hvis 58
dag 58
▁klar 58
▁handling 58
▁mens 58
▁[4] 58
fung 58
▁21. 58
▁Transport 58
▁ras 58
▁nett 58
▁N_mg 58
▁mikasik 58
kav 58
▁zava 58
ni_mg 58
ija 58
nze 58
▁كنت 58
eka 58
eiro 58
द्ध 58
▁सब 58
टा 58
ja_bs 58
ne_bs 58
▁država 58
▁zar 58
▁pokr 58
▁Rand 58
▁rub 58
roz 58
▁Ä 58
▁Hmm 58
object 58
▁cui 58
▁Cel 58
flex 58
XX 58
公 58
他们 58
条 58
可能 58
手 58
4.2 58
ന്ത 58
▁ඉන්න 58
් 58
▁ያለ 58
ሽ 58
ሞ 58
гу 58
пи 58
нов 58
▁пи 58
порт 58
▁ир 58
▁пок 58
▁От 58
ир 58
▁حق_ur 58
▁کان 58
فن 58
▁c_hu 58
▁kö 58
▁ese 58
▁Hij 58
di_tr 58
▁Land 58
▁zur 58
culo 58
▁numero 58
▁eman 58
ar_nl 58
▁Ze_nl 58
▁dit_nl 58
▁En_nl 58
ed_nl 58
▁den_nn 58
▁biletet 58
verktøy 58
▁vera 58
▁har_nn 58
eng 58
▁vår 58
▁Louis 58
▁tym 58
▁siad 58
▁مېنىڭ 58
▁قىلىڭلار 58
▁يوق 58
▁سەن 58
ما_ug 58
لىرىدىن 58
▁يول 58
bantu 58
ki_xh 58
▁ey 58
▁Ki_eo 58
▁rapid 58
▁n_vi 58
▁nén 58
istä 58
▁илә 58
▁Тәхкыйк 58
▁Алар 58
▁ким 58
▁ила 58
▁eu_pt 58
▁me_pt 58
ଭା 58
▁mọọbụ 58
▁ড 58
ঙ্গ 58
শা 58
মে 58
▁মে 58
▁mh 58
▁નામ 58
เหรอ 58
นาย 58
ใจ 58
รู้ 58
ाउनुहोस् 58
いた 58
には 58
ри_bg 58
ha_ga 58
▁dhéanamh 58
▁gComhairle 58
om_ga 58
▁Eorpaigh 58
án_ga 58
▁leas 58
▁бўлса 58
▁эмас 58
ҳа 58
та_uz 58
▁d_cs 58
▁men_nb 58
den_nb 58
▁meng 58
ux_nb 58
িক_bn 58
vi_sh 58
▁će_sh 58
dik_az 58
lərini 58
▁etmə 58
nt_fr 58
▁Tu_fr 58
absence 58
▁u_et 58
Ð 58
▁ма_tg 58
▁Ба_tg 58
▁A_lt 58
▁iki_lt 58
ør_se 58
▁template 58
ێ 58
▁س 58
▁برای 58
tää 58
▁ទៅ 58
ប់ 58
re_ro 58
ფთ 58
ჳა 58
▁απ 58
▁τους 58
▁la_eu 58
▁era_eu 58
irson 58
▁к_uk 58
сть 58
ed_br 58
▁అతను 58
▁న 58
▁پر_fa 58
فصل 58
una_ha 58
▁girma 58
▁kõme 58
no_es 58
▁но_ru 58
сь_ru 58
▁말 58
ba_zu 58
▁sa_it 58
ni_it 58
ra_mt 58
▁Ewropew 58
Istat 58
▁einem 58
▁haben 58
ft_de 58
▁c_wa 58
ko_lv 58
īgi 58
do_lv 58
▁ਜਾ 58
ਿੰ 58
▁ਨੂੰ 58
▁내가 58
과 58
드 58
▁لكن 58
▁عشر 58
▁الإقليمية 58
▁Dan_id 58
▁Se_id 58
ar_id 58
bal_en 58
sent_en 58
▁fue_en 58
crawl_en 58
pan_en 58
ект 57
зо 57
му 57
▁то 57
▁няма 57
зан 57
▁Но 57
▁take 57
Bo_be 57
▁n_be 57
▁ye_be 57
▁mani 57
▁vCard 57
▁пе 57
лаб 57
▁salva 57
▁Effect 57
eron 57
▁pana 57
▁2: 57
יה 57
eze 57
fant 57
nat 57
▁Dhe 57
shëm 57
▁une 57
▁Kem 57
kam 57
gur 57
qa 57
▁plu 57
▁adres 57
de_fy 57
ts_fy 57
eren 57
er_fy 57
eder 57
▁werk 57
▁shell 57
MY 57
rand 57
▁Beh 57
se_da 57
▁ml 57
▁u_da 57
føre 57
▁intra 57
▁Jean 57
elsen 57
bygg 57
▁mg 57
skim 57
▁Ltd 57
ppet 57
bare 57
▁punktu 57
pa_mg 57
▁mety 57
▁Raha 57
TP 57
▁vita 57
ngel 57
workspace 57
▁Guard 57
ique 57
▁Ryan 57
पर 57
▁दे_hi 57
▁बना 57
▁तक 57
▁ला_hi 57
▁चयन 57
▁pred 57
žo 57
lice 57
▁És_ca 57
▁em_ca 57
▁se_ca 57
yar 57
▁laborator 57
▁ví 57
fle 57
▁familiar 57
cli 57
由 57
当 57
女 57
പ 57
▁പോക 57
▁ከእርሱ 57
▁በፊት 57
ለው 57
መል 57
▁እና 57
ዎቹ 57
▁እነሱ 57
ቦ 57
▁ви_mk 57
▁ме_mk 57
▁воз 57
▁те_mk 57
ника 57
▁Ор 57
▁Ки 57
▁низ 57
▁انہوں 57
▁گی 57
ائد 57
فع 57
bb_hu 57
juk 57
▁ved 57
üt 57
▁sie 57
▁â 57
▁yap 57
▁al_tr 57
ında_tr 57
▁geç 57
▁olsun 57
▁verdi 57
liste 57
kulu 57
▁me_sr 57
▁ja_sr 57
umo 57
bij 57
▁tras 57
▁labor 57
▁haar 57
▁percentage 57
▁Georgia 57
jah 57
▁at_nn 57
le_nn 57
nej_sk 57
▁postup 57
sť 57
ရေ 57
ci_pl 57
▁pow 57
▁Za_pl 57
nia_pl 57
ۋى 57
مىدى 57
لارغا 57
ىم 57
▁ھەق 57
▁بې 57
▁is_xh 57
ze_xh 57
elwa_xh 57
▁ke_xh 57
▁Ii 57
banye 57
PER 57
mo_eo 57
▁Ŝi 57
▁a_eo 57
▁đâu 57
▁cậu 57
▁magni 57
▁файда 57
ты_tt 57
▁кылды 57
▁җит 57
▁каум 57
▁биргән 57
▁кыямәт 57
ki_tk 57
▁et_tk 57
▁inclu 57
ଙ୍କ 57
▁is_ig 57
▁কৰিবলে 57
▁স_as 57
▁দেখা 57
▁তালিকা 57
▁সব 57
હ 57
บอก 57
▁मा_ne 57
マ 57
the_ga 57
▁ҳақ_uz 57
ny_cs 57
sk_nb 57
ta_nb 57
fall_nb 57
▁hva 57
▁তোমার 57
▁বলে 57
▁Europsk 57
▁stavak 57
▁Canada_fr 57
▁sou_fr 57
▁o_et 57
▁oli_et 57
▁боз_tg 57
▁гоҳ 57
in_lt 57
ιν 57
▁suna 57
om_hr 57
рі_kk 57
▁saja 57
▁lebih 57
▁یان 57
្ល 57
ជា 57
ne_no 57
▁E_ro 57
▁நாம் 57
மே 57
டு 57
dan_eu 57
itza_eu 57
zio_eu 57
▁D_gd 57
во_uk 57
чи_uk 57
▁war_br 57
▁ma_br 57
▁d_br 57
uz_br 57
ష్ 57
▁paper_ky 57
▁size_ky 57
▁نمی 57
به_fa 57
▁tabbata 57
▁Shĩ 57
▁esta_es 57
▁мо_ru 57
ого_ru 57
ре_ru 57
▁kwi_zu 57
▁te_sl 57
mo_sl 57
▁kaj_sl 57
re_mt 57
▁n_mt 57
ed_mt 57
dan_mt 57
▁e_mt 57
is_mt 57
ne_de 57
fen_de 57
▁unter 57
▁D_wa 57
mi_lv 57
ve_lv 57
ಚ 57
ਸਟ 57
데 57
▁다 57
▁전 57
▁ولكن 57
▁إلا 57
▁القيام 57
▁Apa_id 57
▁men_id 57
▁Statisti_en 57
gur_en 57
▁au_en 57
Me_en 57
tul_en 57
mine_en 57
dem_en 57
ida_en 57
зна 56
▁А_be 56
мент 56
гра 56
▁пас 56
ой 56
▁true_be 56
▁fal_be 56
ум 56
янд 56
▁los 56
▁dos 56
▁Ret 56
▁hor 56
▁Sul 56
▁sia 56
▁Tommy 56
ric 56
PD 56
▁vil 56
▁lí 56
DI 56
▁orienta 56
רו 56
▁שלך 56
קר 56
▁כן 56
ëve 56
▁Po_sq 56
jy 56
rana 56
kru 56
lobo 56
dja 56
cili 56
▁humb 56
FP 56
jde 56
shumi 56
veni 56
▁kost 56
▁Bak 56
▁seks 56
▁fare 56
▁Hun 56
post 56
fal 56
kende 56
info 56
▁politi 56
▁inte 56
ema 56
▁alle_da 56
rang 56
▁Vil 56
delse 56
▁mio 56
▁Pal 56
▁dela 56
▁Sarah 56
MO 56
jö 56
HU 56
▁afaka 56
▁La_mg 56
▁zavatra 56
arana 56
po_mg 56
Te 56
▁mida 56
voir 56
Man 56
VA 56
eno 56
uh 56
gabe 56
lako 56
▁Stand 56
▁tant 56
नि 56
ड़ 56
▁तरह 56
▁मेरे 56
अ 56
गी 56
चं 56
▁vaš 56
▁oko 56
▁imam 56
zna 56
nice 56
▁obra 56
▁veterinar 56
▁bla_li 56
▁ge_li 56
isce 56
▁demande 56
rada 56
cap 56
▁princ 56
▁PC 56
▁retir 56
度 56
理 56
号 56
表 56
采取 56
സ്റ്റ 56
වත් 56
දු 56
ርሱ 56
▁ፍ 56
▁ጌታ 56
ሊ 56
▁ግን 56
▁пред_mk 56
мож 56
мир 56
ами 56
▁کرتا 56
خصوص 56
▁بنا 56
▁مگر 56
ری 56
▁آسمان 56
▁قر 56
rach 56
÷ 56
ve_hu 56
es_hu 56
▁ita 56
▁O_tr 56
▁et_tr 56
er_tr 56
iniz 56
dži 56
▁liquid 56
dade 56
▁cá 56
iamo 56
▁daar 56
▁ben_nl 56
ngen_nl 56
verk 56
Ombudsman 56
BS 56
ta_nn 56
▁skal_nn 56
de_nn 56
abbreviated 56
Original 56
ku_sk 56
▁För 56
▁pod_pl 56
ń 56
dy_pl 56
umiem 56
▁00: 56
▁چوقۇم 56
▁ئىدى 56
ەل 56
▁Um_xh 56
lwandle 56
▁zo_xh 56
ekile 56
hem 56
▁e_eo 56
▁povas 56
ŝ 56
▁nghĩ 56
st_sv 56
as_sv 56
▁у_tt 56
тә 56
▁дөнья 56
тау 56
▁foi_pt 56
▁Se_pt 56
co_pt 56
▁sobre_pt 56
de_pt 56
▁ସେ 56
ọ̀ 56
▁E_ig 56
▁এ_as 56
লি_as 56
▁ব_as 56
হা 56
এ 56
ন্ড 56
▁S_af 56
ઇ 56
▁เขา 56
▁Ubwoko 56
こと 56
て 56
га_bg 56
ната_bg 56
ireacht 56
aidh_ga 56
▁Ch_ga 56
▁che_ga 56
eadh 56
sh_uz 56
▁қол 56
▁а_uz 56
▁зот 56
ҳо_uz 56
ný_cs 56
ví_cs 56
¬ 56
ning_nb 56
erte_nb 56
▁দি_bn 56
▁করেছেন 56
ješ_sh 56
ca_sh 56
ovi_sh 56
▁Komisija_sh 56
ca_az 56
▁qarşı 56
çi_az 56
▁De_az 56
ce_fr 56
enforcement 56
▁nä_et 56
▁perlu 56
▁Оё 56
▁нест 56
▁И_tg 56
▁valstybės 56
▁iz_hr 56
▁емес 56
ған 56
лі_kk 56
▁kgm_kk 56
▁סעלעקציע 56
ײ 56
▁tu_fi 56
ند_ps 56
▁ឧបករណ៍ 56
ត្ 56
▁ឈ្មោះ 56
▁இல்லை 56
ந்து 56
▁எழுத 56
▁ე 56
ჟრა 56
ჟრთ 56
ბთ 56
▁μας 56
▁card_gd 56
▁not_gd 56
ar_gd 56
▁suspend_gd 56
liche 56
лі_uk 56
ці_uk 56
out_br 56
сы_ky 56
да_ky 56
شون 56
▁tãre 56
▁ƙa 56
ẽwa 56
мен_ru 56
▁пре_ru 56
€ 56
▁e_zu 56
che_it 56
al_sl 56
▁Po_sl 56
te_sl 56
ata_mt 56
▁jistgħu 56
test_mt 56
▁qabel 56
▁F_de 56
▁We_de 56
▁Der_de 56
▁Ja_lv 56
sa_lv 56
▁daudz 56
▁būtu 56
▁Komisijas 56
▁vēl 56
▁L_lv 56
ਰਾ 56
ਦ 56
▁स_mr 56
▁كذلك 56
▁داخل_ar 56
▁الحكومية 56
▁hel_en 56
dal_en 56
▁amb_en 56
lig_en 56
▁pan_en 56
▁substitu_en 56
▁od_en 56
іць 55
лас 55
▁Dia 55
▁Пра 55
▁ра 55
▁тр 55
зы 55
▁мар 55
▁ак 55
оч 55
▁DA 55
кот 55
▁KN 55
▁Det 55
▁Ве 55
▁map 55
medi 55
nc 55
ular 55
▁צו 55
▁ar_sq 55
ur_sq 55
inë 55
▁Ata 55
kolo 55
rku 55
▁Ish 55
ij 55
hina 55
▁g_sq 55
▁dy_sq 55
shon 55
▁ky 55
cka 55
▁dije 55
▁pik 55
IK 55
tara 55
atori 55
▁Amerika 55
▁az 55
▁Europa 55
forma 55
▁vod 55
rob 55
ces 55
▁93 55
ido 55
Slovak 55
▁ham 55
Name_fy 55
▁jo_fy 55
ma_fy 55
cht 55
aat 55
▁te_fy 55
CA 55
▁objekt 55
▁Ef 55
DIST 55
▁gaan 55
▁bem 55
ndring 55
1999 55
be_da 55
▁gjort 55
atan 55
▁87 55
▁ove 55
▁kil 55
▁Tony 55
▁England 55
vant 55
uks 55
lini 55
kana 55
da_mg 55
▁novo 55
▁governemanta 55
any_mg 55
iba 55
robe 55
‘ 55
zki 55
SR 55
urnal 55
▁Mais 55
से_hi 55
ओ 55
▁सूची 55
▁ता 55
▁te_bs 55
▁onda 55
▁zbog 55
jski 55
nuti 55
▁presta 55
čaj 55
▁jedno 55
nija 55
vanju 55
lica 55
istu 55
▁mental 55
▁aan_li 55
▁te_li 55
real 55
▁ho_ca 55
▁con_ca 55
iques 55
▁estar 55
▁sempre 55
ió 55
test 55
niu 55
tí 55
▁fo 55
dimension 55
gó 55
▁400 55
▁nua 55
世界 55
级 55
ches 55
റിയ 55
തി 55
▁ഞാൻ 55
ായ 55
ല്ല 55
නු 55
ዩ 55
▁መልካም 55
ጠራ 55
▁ጋር 55
ናችሁ 55
▁цел 55
▁може_mk 55
чи_mk 55
▁пол 55
▁Ке 55
▁послед 55
▁Из 55
ори 55
زی 55
▁مج 55
an_hu 55
▁jobb 55
iai 55
ATE 55
lda 55
▁kadar 55
Ya 55
▁Still 55
▁iz_sr 55
но 55
го 55
▁no_gl 55
ción_gl 55
lo_gl 55
nau 55
▁weet 55
▁wil_nl 55
reiz 55
▁publi 55
auto 55
▁ved_nn 55
▁Standard 55
▁vý_sk 55
▁Po_sk 55
ှ 55
တစ်ခု 55
ပြန် 55
ပြင် 55
လုပ် 55
ော် 55
cy_pl 55
ta_pl 55
le_pl 55
eż 55
▁== 55
▁كاپىرلار 55
in_xh 55
IB 55
▁ti_eo 55
▁insul 55
▁họ 55
▁về 55
▁där 55
ighet 55
▁ditu 55
oxid 55
ungs 55
▁ислам 55
▁ярдәм 55
▁ачык 55
▁барча_tt 55
▁хатыннар 55
өт 55
me_tk 55
▁in_pt 55
em_pt 55
▁co_pt 55
ମା 55
ଯ 55
▁ọbụla 55
ৰণ 55
েৰ 55
▁যদি 55
▁উ 55
▁met_af 55
isse 55
▁અને 55
▁ที่ 55
ี 55
ถึง 55
▁ya_rw 55
ト 55
▁но_bg 55
ен_bg 55
▁дей 55
líon 55
▁эса 55
▁уларнинг 55
на_uz 55
▁қил 55
оҳ 55
сси 55
dě 55
▁under_nb 55
ter_nb 55
lin_nb 55
to_sh 55
jer_sh 55
▁İ_az 55
se_fr 55
ér_fr 55
▁abi 55
il_et 55
▁olen 55
▁õ 55
на_tg 55
▁карда 55
▁Komisija_lt 55
osios 55
AIDS 55
ūt 55
▁darba 55
ju_hr 55
ру_kk 55
ja_ms 55
فه 55
▁hu_fi 55
it_fi 55
▁دوتنه 55
▁ឬ 55
வும் 55
ழு 55
யாக 55
▁இந்த 55
ჲრ 55
▁მჲზვ 55
▁πρέπει 55
άλ 55
era_eu 55
ik_eu 55
gi_eu 55
▁t_gd 55
lu_gd 55
ле_uk 55
▁С_uk 55
га_uk 55
▁которые 55
▁ని 55
వా 55
▁Ба_ky 55
مير 55
▁آنان 55
ني_fa 55
قبل 55
▁har_ha 55
ni_ha 55
▁f_is 55
▁sus_es 55
▁tu_es 55
▁так_ru 55
▁На_ru 55
▁то_ru 55
▁бы_ru 55
▁Да_ru 55
ться_ru 55
ni_zu 55
za_zu 55
▁Uku_zu 55
Deċiżjoni 55
▁mg_mt 55
enza_mt 55
ffiċ 55
▁kollha 55
▁taħt 55
de_lv 55
Ā 55
umā 55
▁R_cy 55
ಣ 55
▁नाहीये 55
▁일 55
▁♪_ko 55
▁حول 55
صرف 55
يرة 55
▁الفقر 55
ram_en 55
ez_en 55
▁пры 54
▁82 54
▁encoding 54
фр 54
▁Г 54
▁ме 54
ole_be 54
an_be 54
▁ema 54
кар 54
ала 54
▁нема 54
ров 54
▁General 54
▁ста 54
▁vis 54
ncia 54
▁Configura 54
rap 54
çar 54
▁sens 54
▁Eta 54
▁Math 54
enta 54
▁rei 54
יק_he 54
גר 54
וב 54
די 54
▁הש 54
dhë 54
▁d_sq 54
jë 54
▁dem 54
▁Ale 54
dek 54
jin 54
▁rast 54
alla 54
regul 54
hatra 54
jev 54
▁Nik 54
▁sl 54
▁motiv 54
hul 54
rus 54
▁PO 54
jel 54
▁transparent 54
ge_fy 54
earje 54
tear 54
▁Sk 54
▁punt 54
▁Zu 54
▁bli 54
▁Normal 54
▁22. 54
▁Cho 54
mens 54
span 54
▁Syn 54
skat 54
▁grupp 54
tisk 54
vå 54
▁86 54
▁rede 54
▁Bad 54
national 54
▁Ul 54
▁Bou 54
▁Bio 54
001 54
▁Agent 54
goslav 54
rien 54
mi_mg 54
▁Ni_mg 54
irana 54
▁mana_mg 54
qué 54
▁#1 54
lista 54
ants 54
aan 54
ً 54
▁bilet 54
andi 54
dad 54
2016 54
▁aha 54
▁Jacob 54
RAM 54
फ़ 54
▁बात 54
त् 54
टे 54
▁देख 54
▁यो 54
čno 54
▁To_bs 54
eć 54
▁pravo 54
▁podataka 54
On 54
▁Pot 54
rti 54
▁ser_ca 54
▁La_ca 54
▁cap_ca 54
▁A_ca 54
lega 54
▁mel 54
二 54
民 54
非 54
等 54
法律 54
动 54
活动 54
高 54
▁ഇത് 54
ാൻ 54
▁എന്ന 54
ළ 54
▁වෙන්න 54
කට 54
▁දෙන්න 54
ልን 54
ፈራ 54
▁ከመ 54
ቶ 54
▁አንተ 54
ጫ 54
ци_mk 54
ниот 54
ира 54
▁фи 54
бат 54
خا 54
▁چیز 54
▁آل 54
▁دا 54
حال 54
رن 54
تن 54
▁És_hu 54
üm 54
▁iste 54
▁bunu 54
▁şeyi 54
▁bera 54
▁Deci 54
er_gl 54
remos 54
▁mulle 54
▁amigo 54
▁sá 54
▁trá 54
el_nl 54
▁onder 54
la_nn 54
▁viktig 54
ja_sk 54
▁pred_sk 54
▁ktoré 54
▁d_sk 54
ko_sk 54
ိုက် 54
န့် 54
nych_pl 54
ać 54
zy_pl 54
▁Na_pl 54
▁س_ug 54
ان_ug 54
▁تىن 54
ۈم 54
▁كىر 54
لارنىڭ 54
▁جاي 54
phantsi 54
phezulu 54
inga_xh 54
▁n_xh 54
kwazi 54
mandla 54
▁Ni_eo 54
▁khi 54
ế 54
da_sv 54
▁under_sv 54
▁расүл 54
▁йөр 54
мый 54
ләргә 54
▁сар 54
▁É_pt 54
▁fa_pt 54
ve_pt 54
▁institu 54
▁τι 54
Α 54
▁ବା 54
୍ଯ 54
nya_ig 54
▁ক_as 54
▁চ 54
ড়া 54
ছ 54
▁মধ্যে 54
કા 54
ું 54
ัน 54
シ 54
dh_ga 54
tais_ga 54
▁ionad 54
▁ce_ga 54
нгиз 54
▁чун 54
▁být 54
▁při 54
ka_cs 54
LY 54
▁Europa_nb 54
▁Den_nb 54
▁B_nb 54
▁člankom 54
di_sh 54
inė 54
▁əl 54
▁pays_fr 54
de_fr 54
▁siis 54
ik_et 54
▁toimi 54
до_tg 54
lė 54
ig_lt 54
▁bei_lt 54
▁darb 54
ίσ 54
▁көрсету 54
қы 54
wa_ms 54
ײַ 54
ענט 54
▁ڵ 54
▁شه 54
▁منه 54
ne_ro 54
ல்ல 54
சி 54
ως 54
να 54
κα 54
tasun 54
ke_eu 54
gan_gd 54
ов_uk 54
▁g_te 54
▁com_te 54
ింగ్ 54
▁మా 54
ги_ky 54
ру_ky 54
▁zai_ha 54
▁an_ha 54
re_ha 54
ba_ha 54
ke_ha 54
▁S_is 54
ando_es 54
за_ru 54
чи_ru 54
каза_ru 54
na_zu 54
▁lo_zu 54
gli_it 54
▁ob_sl 54
če_sl 54
tar_mt 54
▁bl_mt 54
▁għat 54
▁de_de 54
we_wa 54
īga 54
ska_lv 54
tā 54
▁C_cy 54
ਕੋ 54
▁ਵਿੱਚ 54
▁उ_mr 54
▁म_mr 54
▁أنت 54
كتب 54
▁الأعمال 54
man_id 54
data_en 54
▁Ku_en 54
lam_en 54
▁Den_en 54
tte_en 54
por_en 54
ana_en 54
▁cannabis_en 54
▁На_be 53
жу 53
жо 53
▁Ра 53
▁ко 53
africa 53
quer 53
бра 53
▁NAME 53
▁план 53
▁суд 53
мет 53
ер 53
од 53
▁ут 53
Country 53
ès 53
▁Raz 53
▁Marc 53
ጀ 53
tud 53
jor 53
ós 53
שר 53
▁דו 53
בי 53
לי 53
-19 53
▁ne_sq 53
▁bis 53
▁mje 53
on_sq 53
▁a_sq 53
▁unë 53
▁Nuk 53
vjet 53
▁v_sq 53
▁Por 53
▁2- 53
gul 53
jek 53
KP 53
cil 53
him 53
▁Mali 53
mite 53
tun 53
iten 53
jana 53
▁MI 53
nije 53
▁gran 53
rol 53
dige 53
▁wie 53
inda 53
jong 53
site 53
▁under_da 53
rig 53
▁tale 53
vê 53
ød 53
▁gan 53
▁Denne 53
stå 53
▁Rou 53
▁27. 53
▁én 53
mil 53
▁84 53
ffet 53
▁beta 53
▁Band 53
▁108 53
skom 53
▁hast 53
eb 53
innovation 53
ICE 53
▁Fi_mg 53
en_mg 53
▁am_mg 53
▁hai 53
▁sala 53
vam 53
▁mata 53
iera 53
rah 53
edig 53
▁Indi 53
ière 53
▁rib 53
Association 53
kol 53
▁tapi 53
pek 53
▁OL 53
▁दिन 53
▁प्रकार 53
▁ध 53
▁बारे 53
क्ष_hi 53
▁any 53
će_bs 53
▁misli 53
▁Zašto 53
▁Victor 53
▁NE 53
đe 53
▁vampir 53
reich 53
meto 53
▁espera 53
▁Per_ca 53
ria_ca 53
us_ca 53
▁di_ca 53
Es 53
Ú 53
yat 53
▁tú 53
roma 53
给 53
影响 53
儿童 53
死 53
/2001 53
▁എ 53
ෙන් 53
▁ቅ 53
▁ኾነው 53
ቹ 53
ኋ 53
▁ገ 53
ደረ 53
▁ለእርሱ 53
▁би_mk 53
▁З 53
▁у_mk 53
ила 53
ив 53
ации 53
▁بڑا 53
1⁄4 53
خاص 53
▁Gy 53
▁De_hu 53
ök_hu 53
▁de_hu 53
sza 53
lü 53
▁20. 53
ová 53
ün_tr 53
im_tr 53
▁ara 53
dın 53
▁yalnız 53
âr 53
▁Da_sr 53
ta_gl 53
▁Que_gl 53
▁me_gl 53
▁corpo 53
▁oso 53
▁experiment 53
men_nl 53
▁vast 53
▁viss 53
▁brukt 53
▁Empathy 53
▁alebo 53
ného_sk 53
ခု 53
ပြု 53
ဟာ 53
ဇ 53
▁jak_pl 53
▁mnie 53
▁imi 53
wyd 53
ېرى 53
غى 53
شك 53
leni_xh 53
▁inqanawa 53
▁se_xh 53
hi_xh 53
de_xh 53
NGO 53
COM 53
▁kon_eo 53
▁kun_eo 53
▁thấy 53
▁T_vi 53
▁vào 53
gă 53
▁nu_sv 53
▁̈ 53
▁ди_tt 53
▁кем 53
▁А_tt 53
әләр 53
ергә 53
тән 53
▁ахирәттә 53
▁эшлә 53
▁ай 53
▁for_pt 53
▁déc 53
▁ma_ig 53
▁ka_ig 53
▁B_ig 53
লো 53
▁সি 53
জে 53
daemon 53
▁printer 53
▁પ 53
อร์ 53
คือ 53
▁छैन 53
▁>_rw 53
ви_bg 53
гин 53
▁gan_ga 53
▁thabhairt 53
úil 53
▁E_ga 53
ite_ga 53
▁ҳа_uz 53
cha_uz 53
моқда 53
▁фақат 53
?» 53
▁Қо 53
vá_cs 53
▁সং_bn 53
স্ক_bn 53
জন_bn 53
▁ছিল 53
ra_sh 53
tivi 53
sən 53
▁ibadət 53
ai_fr 53
▁ette 53
sid_et 53
ли_tg 53
uose 53
ne_lt 53
▁bi_hr 53
ca_hr 53
la_ms 53
▁pada_ms 53
▁kami_ms 53
▁דער 53
na_ku 53
▁ka_fi 53
▁vai_fi 53
otto 53
ليک 53
▁ښودل 53
▁او_ps 53
▁ut_no 53
▁s_ro 53
ச் 53
ற்ற 53
ரா 53
▁Είναι 53
▁Αν 53
▁Και 53
ός 53
ρό 53
▁zu_eu 53
▁gu_gd 53
disabled 53
pad_gd 53
▁По_uk 53
▁того 53
▁al_br 53
ni_br 53
▁ఏ 53
mail_te 53
тоо 53
ты_ky 53
▁فقط_fa 53
از_fa 53
▁دو_fa 53
مين 53
▁taƙawa 53
▁ƙ 53
lega_is 53
đu_is 53
ndo_es 53
жа_ru 53
▁также 53
ци_ru 53
hlu_zu 53
▁yohlu 53
▁Um_zu 53
▁vi_it 53
▁que_it 53
▁ad_it 53
▁fit_mt 53
jar_mt 53
▁ikun 53
Ċ 53
chen_de 53
nu_lv 53
▁tiek_lv 53
▁am_cy 53
iadau 53
ad_cy 53
ਿੱ 53
ਿਆ 53
▁वि_mr 53
हि_mr 53
일 53
▁어 53
ساء 53
▁جو_ar 53
▁الخاص 53
▁السيد 53
php_en 53
▁marked_en 53
stri_en 53
EG_en 53
▁info_en 53
▁plus_en 53
dol_en 53
▁fer_en 53
het_en 53
▁rapport_en 53
▁fo_en 53
ыя 52
▁рас 52
дан 52
яш 52
▁рад 52
1: 52
▁под 52
DL 52
▁ty_be 52
ins 52
стро 52
▁без 52
еш 52
▁a_oc 52
▁Tai 52
state 52
DS 52
▁Matt 52
▁col 52
mba 52
ografi 52
▁conten 52
טר 52
פי 52
▁אל 52
-20 52
▁rin 52
niz 52
▁kamp 52
kti 52
▁nje 52
tur_sq 52
olla 52
▁ek 52
tuar 52
▁fito 52
▁qe 52
ies 52
she 52
mod 52
▁Kam 52
roc 52
▁fus 52
tere 52
▁eksport 52
ego 52
toja 52
-12 52
sens 52
forum 52
-7 52
▁Bis 52
nosti 52
ngen 52
▁Tin 52
zig 52
teurs 52
ou 52
igt 52
Id 52
▁naam 52
ky 52
RM 52
vær 52
rne 52
klu 52
▁carbon 52
▁2003/ 52
enter 52
aine 52
▁vaccin 52
midler 52
▁efter_da 52
▁hos 52
teur 52
▁Kro 52
▁Orang 52
gem 52
▁spra 52
0.000 52
AV 52
▁Herr 52
ara_mg 52
▁indray 52
amina 52
▁Ho_mg 52
▁Bin 52
▁di_mg 52
inte 52
▁vola 52
ction 52
kg 52
▁hint 52
daga 52
▁उस 52
▁क़ 52
▁त_hi 52
▁अगर 52
▁पास 52
िया_hi 52
▁मि 52
रि 52
ius 52
▁sed 52
▁posta 52
inimo 52
▁ili 52
▁odgovor 52
▁koju 52
▁godina 52
ču 52
▁dosta 52
▁oni 52
▁države 52
ovat 52
▁između 52
godi 52
je_li 52
▁tuine 52
▁hä 52
▁En_ca 52
▁compara 52
pai 52
▁tio 52
工 52
基 52
同 52
از 52
ൾ 52
▁මේක 52
ට් 52
▁ነ 52
▁ለእናንተ 52
▁እርሱም 52
▁ሲ 52
▁ሥራ 52
ше_mk 52
▁работа 52
ве_mk 52
▁него 52
чно 52
ترا 52
▁ام 52
▁آب 52
بعد 52
▁tul 52
zzi 52
bí 52
▁fé 52
zd 52
▁erre 52
isten 52
▁oro 52
zek 52
▁sü 52
▁Philip 52
cca 52
▁kr 52
kl 52
▁Ben_tr 52
▁aç 52
selt 52
▁pola 52
▁Se_gl 52
▁es_gl 52
▁cú 52
anse 52
▁complic 52
▁Wood 52
▁mich 52
Imp 52
chten 52
▁χ 52
klo 52
▁kje 52
sjons 52
▁zá_sk 52
ve_sk 52
▁kto 52
uje_sk 52
အမည် 52
ရောက် 52
သာ 52
ej_pl 52
er_pl 52
ź 52
każ 52
▁Produ 52
▁nadzor 52
▁چاغدا 52
vu_xh 52
lelo 52
zantsi 52
iswe 52
▁lu_xh 52
▁kwaye 52
▁ebe 52
▁interval 52
ukan 52
▁giờ 52
▁chỉ 52
ör_sv 52
▁ta_sv 52
дылар 52
▁сөйлә 52
мәк 52
▁җир 52
учылар 52
▁хатын 52
▁алма 52
ең 52
▁кун 52
al_pt 52
▁re_pt 52
Ε 52
ଲି 52
▁ଗ 52
▁A_ig 52
ọ́ 52
▁ত_as 52
▁সং_as 52
▁পৰি 52
ষ্ট 52
▁হা 52
গুলো 52
▁মো 52
▁જ 52
લે 52
็ 52
▁Mine 52
nya_rw 52
▁何 52
ти_bg 52
▁За_bg 52
▁Be_ga 52
▁as_ga 52
▁san_ga 52
▁ní 52
▁hAirteagal 52
▁nós_ga 52
▁airgeadais 52
each 52
▁ваъда 52
▁u_nb 52
ær_nb 52
▁cannabis_nb 52
vis_nb 52
koak 52
স্ট_bn 52
ama_sh 52
cima_sh 52
▁Na_sh 52
▁deyə 52
ənlər 52
▁son_fr 52
ance_fr 52
▁fa_fr 52
ire_fr 52
▁va_et 52
▁sõ 52
as_et 52
el_et 52
▁дигар 52
▁до_tg 52
▁кард 52
▁му_tg 52
mų 52
▁tur_lt 52
▁punkta 52
ні_kk 52
▁a_ms 52
▁bija 52
יר_yi 52
ma_ku 52
▁ç_ku 52
▁aika 52
▁មើល 52
ភាព 52
▁តែ 52
ាំ 52
mi_ro 52
▁ai_ro 52
டை 52
▁வ 52
▁போ 52
ெ 52
▁მს 52
ნწ 52
▁გთ 52
μά 52
▁ό 52
εται 52
di_eu 52
▁be_eu 52
▁es_eu 52
az_eu 52
▁Cha_gd 52
▁ch_gd 52
ва_uk 52
▁о_uk 52
▁re_br 52
vez_br 52
▁ع_fa 52
Sa_ha 52
▁ƙi 52
▁A_ha 52
▁bãbu 52
▁di_es 52
ил_ru 52
ve_sl 52
mi_sl 52
le_sl 52
te_mt 52
▁dawn_mt 52
▁was_de 52
▁http_de 52
ai_lv 52
▁se_lv 52
ša_lv 52
▁m_lv 52
ਜ਼ 52
EMAIL_pa 52
▁ख_mr 52
गे_mr 52
नी_mr 52
어요 52
▁지 52
▁난 52
▁أس 52
▁دا_ar 52
▁نه_ar 52
▁org_en 52
▁Ze_en 52
ovi_en 52
hand_en 52
vir_en 52
ou_en 52
ato_en 52
▁cas_en 52
lon_en 52
inte_en 52
fen_en 52
▁comme_en 52
dien_en 52
буд 51
зі 51
ett 51
лік 51
ора 51
ец 51
ен 51
▁iso 51
фо 51
ALI 51
род 51
VP 51
Keywords 51
зер 51
▁qua 51
uch 51
és 51
itat 51
▁Im 51
laka 51
èn 51
gnet 51
fica 51
▁ד 51
בו 51
וש 51
▁טוב 51
ענ 51
▁ז 51
es_sq 51
▁tyre 51
për 51
het_sq 51
osh 51
timi 51
▁parlamenta 51
Du 51
iye 51
LI 51
hoz 51
▁Ili 51
eerd 51
▁63 51
▁Rod 51
vod 51
▁vad 51
eret 51
ille 51
▁feil 51
onym 51
▁Dji 51
tale 51
SV 51
▁Chuck 51
ler_da 51
▁period 51
▁mål 51
▁Der_da 51
vej 51
▁mine 51
▁1). 51
▁første 51
assi 51
nings 51
▁Walter 51
handle 51
▁aller 51
▁30. 51
▁Bila 51
cher 51
▁Tim 51
▁Lind 51
▁31. 51
▁Rich 51
vi_mg 51
si_mg 51
tena 51
▁nire 51
▁To_mg 51
tan_mg 51
asa_mg 51
▁tsara 51
▁Ay 51
▁tsi 51
▁Io 51
▁vali 51
rot 51
▁arte 51
▁Vad 51
keta 51
▁Plat 51
rri 51
udu 51
▁Yang 51
Engine 51
▁talent 51
ऊ 51
जा_hi 51
ल् 51
▁आज 51
स्ट 51
िश 51
▁मान 51
▁ga_bs 51
▁ja_bs 51
▁pose 51
znak 51
▁analiz 51
▁debe 51
ast 51
lou 51
▁Minimum 51
▁meu_ca 51
▁petit 51
shin 51
▁superior 51
▁constru 51
▁identifica 51
KI 51
▁consolida 51
妇女 51
援助 51
比 51
种 51
成 51
继续 51
放 51
作 51
小 51
話 51
മ്മ 51
▁അവ 51
▁എന്റെ 51
പ്പോ 51
යේ 51
▁በምድር 51
▁ከአ 51
▁አላ 51
ድን 51
нес 51
да_mk 51
▁сега 51
▁о_mk 51
вој 51
вин 51
ени 51
ба_mk 51
сти_mk 51
мал 51
ина 51
тен 51
тил 51
بن 51
▁اما 51
▁میرے 51
▁وسلم 51
ئے 51
▁آ_ur 51
ثق 51
▁le_hu 51
ép 51
án_hu 51
laş 51
ıyor 51
Ü 51
▁sve_sr 51
ka_sr 51
▁ga_sr 51
jama 51
praš 51
▁grande 51
▁neste 51
▁suicid 51
▁ho_nl 51
tie_nl 51
▁innova 51
cido 51
▁tego 51
▁biologi 51
▁leng 51
ka_sk 51
ni_sk 51
၀ 51
ပိုင်း 51
ျ 51
ပေါ် 51
▁Co_pl 51
▁będzie 51
za_pl 51
▁mok 51
▁ئېلىپ 51
▁قال 51
▁يەر 51
▁چ_ug 51
لۇق 51
▁مۆمىنلەر 51
قۇ 51
▁ئېيت 51
langa 51
wayo 51
no_eo 51
▁reven 51
▁Administr 51
▁điều 51
▁những 51
yên 51
äng 51
jär 51
▁detta 51
▁көн 51
ра_tt 51
▁бә 51
▁мөселманнар 51
▁бала 51
▁каты 51
▁Parlamento 51
▁frequent 51
ିବା 51
ୟ 51
▁ike 51
ba_ig 51
স্ট_as 51
▁নে_as 51
▁প্ৰদৰ্শন 51
স্থ_as 51
▁হয়ে 51
▁aan_af 51
▁as_af 51
▁lists 51
▁જો 51
▁હ 51
▁ફોલ્ડર 51
นั้น 51
ถ 51
っ 51
▁Но_bg 51
▁По_bg 51
tá_ga 51
▁Pharlaimint 51
(5) 51
▁йўқ 51
им_uz 51
ím_cs 51
▁For_nb 51
▁sto_nb 51
▁skol_nb 51
be_nb 51
্র 51
▁স্ব_bn 51
▁biti_sh 51
ću_sh 51
lərdən 51
ez_fr 51
ve_fr 51
▁M_fr 51
▁technique 51
▁arriva 51
▁li_et 51
use_et 51
an_et 51
▁Te_et 51
ми_tg 51
дор_tg 51
▁па_tg 51
im_lt 51
▁bet_lt 51
▁jų 51
dy_lt 51
▁jos_lt 51
κο 51
▁Da_hr 51
▁size_se 51
шы_kk 51
ту_kk 51
сіз 51
дер_kk 51
▁kepada_ms 51
אַל 51
װ 51
▁ئێوه 51
▁پێ 51
▁În 51
▁en_fi 51
ttu_fi 51
be_ps 51
▁mă 51
▁Dar_ro 51
▁O_ro 51
ான் 51
யை 51
ாக 51
▁ჲე 51
ეჲ 51
▁ბა 51
▁თმა 51
ούμε 51
πο 51
▁ζ 51
▁ikusi 51
▁nuen 51
▁ho_eu 51
▁jo_eu 51
pen_eu 51
▁ordain 51
id_gd 51
▁для_uk 51
▁як_uk 51
▁Ar_br 51
▁మీ 51
మైన 51
▁ఉంది 51
түү 51
مون_fa 51
تنظيم 51
▁abu_ha 51
▁biyu 51
▁san_ha 51
▁Hann_is 51
га_ru 51
же_ru 51
ше_ru 51
▁ko_sl 51
▁nazzjonali 51
sa_mt 51
ha_mt 51
tt_mt 51
▁M_mt 51
we_mt 51
ck_de 51
▁Ab_de 51
▁am_de 51
he_de 51
sche_de 51
ve_wa 51
kar_lv 51
ālā 51
īgu 51
hy_cy 51
ನ್ 51
ते_mr 51
▁द_mr 51
▁कि_mr 51
는데 51
▁것 51
거 51
으로 51
▁لديه 51
tt_en 51
mus_en 51
sin_en 51
aw_en 51
ddi_en 51
ami_en 51
any_en 51
▁jin_en 51
▁HIV_en 51
wal_en 51
rink_en 51
лад 50
фер 50
cima 50
▁во 50
он 50
нос 50
вет 50
▁кар 50
▁бе 50
▁т 50
ес 50
▁час 50
кон 50
web 50
▁name_oc 50
▁sus 50
▁Ele 50
ias 50
▁mea 50
trin 50
fm 50
▁Len 50
▁SMTP 50
בל 50
▁אותו 50
bile 50
▁ke_sq 50
▁sigur 50
loj 50
jt 50
ade 50
▁fest 50
▁mam 50
KU 50
str 50
UNI 50
▁Maj 50
▁Vas 50
▁lista 50
▁atas 50
uja 50
▁66 50
kte 50
▁mon 50
▁çok 50
▁klient 50
TRA 50
prof 50
EMAIL_fy 50
▁Nije 50
tele 50
▁hel 50
PM 50
Ke 50
UTF 50
▁Aaron 50
▁os_da 50
den_da 50
▁men_da 50
sk_da 50
▁Ren 50
ighed 50
▁Den_da 50
▁Robin 50
▁spin 50
lusion 50
▁Tie 50
▁manana 50
▁sera 50
▁Nah 50
▁keli 50
▁andro 50
ràna 50
maso 50
le_mg 50
▁Nan 50
mato 50
roka 50
mah 50
eza 50
▁Nie 50
ksa 50
kot 50
bang 50
rán 50
▁cha 50
▁teh 50
MU 50
▁थ 50
▁जा_hi 50
जि_hi 50
▁पु 50
▁पाठ 50
टि 50
शि 50
▁iz_bs 50
ljeni 50
▁naj 50
ma_bs 50
vrš 50
▁ovog 50
▁sje 50
▁Dobro 50
▁osnov 50
▁obu 50
▁skup 50
▁neces 50
daj 50
▁obzir 50
bun 50
▁%.1 50
te_ca 50
▁xi 50
ix_ca 50
▁pot_ca 50
na_ca 50
nell 50
segu 50
▁mín 50
lau 50
▁tau 50
rece 50
ologie 50
文 50
和平 50
南 50
通 50
技术 50
tech 50
മായ 50
▁എനിക്ക് 50
ുണ്ട് 50
ില 50
▁കു 50
රා 50
▁කියන්න 50
ኔ 50
▁አያ 50
symbols 50
▁об_mk 50
▁ки 50
работ 50
▁Ди 50
ств 50
гон 50
ہماری 50
▁یہاں 50
چھ 50
▁بند 50
▁وہی 50
عدل 50
▁مار 50
▁ہمیں 50
▁مرد 50
▁زن 50
GET 50
▁itt 50
ém 50
▁vez 50
▁Cat 50
ür 50
ası 50
▁ver_tr 50
▁havas 50
ibi 50
▁Brian 50
▁insanlar 50
▁не 50
È 50
stab 50
▁оз 50
ba_gl 50
tivo 50
▁in_gl 50
▁ao_gl 50
▁esa 50
▁pelo 50
▁cart 50
ur_nl 50
▁na_nl 50
al_nl 50
▁mij 50
gend 50
▁Rome 50
▁Mount 50
▁V_sk 50
ej_sk 50
je_sk 50
▁2005/ 50
yti 50
စဉ် 50
တိ 50
▁၁ 50
▁go_pl 50
▁A_pl 50
ku_pl 50
▁gw 50
▁dawk 50
▁مال_ug 50
لىنى 50
▁تې 50
▁مۇسا 50
ىرى 50
مې 50
يال 50
▁گۇناھ 50
▁yi_xh 50
▁ayi 50
▁ukuya 50
▁ukuze 50
▁min_eo 50
vus 50
▁B_vi 50
▁Không 50
ử 50
ligt_sv 50
lar_sv 50
▁men_sv 50
▁укы 50
▁Бу_tt 50
▁якын 50
▁хөкемнәрен 50
мас_tt 50
▁ишет 50
▁кешеләрне 50
ми_tt 50
ать 50
▁биз 50
▁Et_tk 50
▁Majest 50
କା 50
ଡ 50
ଫ 50
gharị 50
▁ọfụụ 50
na_ig 50
▁আৰু 50
▁ধ 50
▁পৰিচয় 50
ৌ 50
জা 50
ar_af 50
ณ 50
▁तर 50
▁Ubutumwa 50
や 50
君 50
ます 50
▁В_bg 50
▁du_ga 50
▁dlí 50
íodh 50
ófar 50
ларидан 50
▁му_uz 50
▁алайҳиссалом 50
қу 50
нда_uz 50
▁тавба 50
▁Эй 50
du_cs 50
dy_cs 50
de_cs 50
▁mě 50
▁jsou 50
vous 50
het_nb 50
ven_nb 50
▁OF_nb 50
▁TRANSLATORS_nb 50
ten_nb 50
noj_sh 50
▁stavka 50
▁Priloga 50
ati_sh 50
ski_sh 50
ını_az 50
ib_az 50
▁Şübhə 50
che_fr 50
▁même 50
on_fr 50
▁y_fr 50
ega_et 50
in_et 50
org_et 50
▁бошад 50
гӯ 50
данд 50
▁dalyje 50
▁ta_lt 50
▁šio 50
na_lt 50
lių 50
▁Sąjungos 50
ko_lt 50
inį 50
te_lt 50
▁vieno 50
▁O_hr 50
▁Comment_se 50
▁бар_kk 50
▁melihat 50
▁Se_ms 50
▁sekarang 50
▁لێ 50
▁ئێمه 50
ve_ku 50
▁کرده 50
▁nä_fi 50
ttä 50
pa_fi 50
▁ហើយ 50
ោះ 50
▁បញ្ជី 50
▁បន្ថែម 50
▁opp_no 50
▁scu 50
றி 50
▁პაჱ 50
▁ოპვ 50
▁bai_eu 50
▁bezala 50
▁Do_gd 50
▁ver_gd 50
▁no_gd 50
ро_uk 50
ві_uk 50
oc_br 50
్య 50
గా 50
ల్ల 50
చి 50
▁خوا_fa 50
نه_fa 50
▁اي_fa 50
▁ای_fa 50
ti_is 50
▁k_is 50
tur_is 50
in_is 50
дер_ru 50
те_ru 50
щи_ru 50
ная_ru 50
▁questo 50
la_it 50
▁essere 50
nih_sl 50
to_mt 50
▁tagħhom 50
mu_mt 50
▁permezz 50
ġu 50
▁B_de 50
ajā 50
im_lv 50
▁lpp 50
ie_lv 50
align 50
ವನ್ನು 50
ೊ 50
▁ಆ 50
ਚ 50
▁बा_mr 50
्य_mr 50
와 50
▁لذلك 50
مون_ar 50
▁حق_ar 50
▁الشر 50
▁Ve_en 50
▁Hon_en 50
▁wel_en 50
ед 49
▁бу 49
кам 49
нем 49
ват 49
▁Ба 49
vie 49
hm 49
chy 49
▁Ва 49
ск 49
ых 49
El 49
Ф 49
▁Il 49
▁Tip 49
que 49
rust 49
rna 49
▁sau 49
▁Wenn 49
pdf 49
לא 49
בה 49
כן 49
imit 49
min_sq 49
▁S_sq 49
an_sq 49
ojë 49
▁baz 49
▁norm 49
▁komis 49
mpo 49
▁stre 49
ije 49
▁det 49
▁Dave 49
▁IM 49
TV 49
mbul 49
▁person 49
▁ngu 49
GR 49
▁Jake 49
lova 49
▁vr 49
rita 49
▁Fol 49
▁dobi 49
Pri 49
▁Nam 49
▁mr 49
fak 49
▁formul 49
▁alle 49
bek 49
▁toe 49
ary 49
▁© 49
▁shortcut 49
▁CA 49
lab 49
▁lys 49
god 49
▁sine 49
▁Br 49
FR 49
▁Tr 49
gus 49
▁Simon 49
ometri 49
▁19. 49
▁Hat 49
UND 49
▁Bull 49
▁Fl 49
▁te_mg 49
▁Ram 49
▁fara 49
noma 49
haka 49
▁roa_mg 49
hany 49
ika_mg 49
▁handi 49
dian 49
rav 49
▁política 49
▁Vá 49
ár 49
logging 49
anto 49
▁Mia 49
▁zom 49
java 49
▁mise 49
zol 49
oga 49
आ 49
रो_hi 49
मी 49
जे 49
बर 49
▁cre 49
prav 49
mo_bs 49
▁U_bs 49
lazi 49
▁Da_bs 49
▁Što 49
čki 49
stavlja 49
▁način 49
rija 49
▁posebno 49
▁pravi 49
ratu 49
▁Ross 49
▁Naj 49
▁nao 49
naam 49
▁Cred 49
Color 49
la_ca 49
ir_ca 49
▁cos 49
▁bai 49
▁lt 49
bé 49
▁aga 49
▁Record 49
想 49
必须 49
建议 49
去 49
立 49
94 49
▁കാണ 49
ിച്ചു 49
ൈ 49
ජ 49
මු 49
▁තමයි 49
සි 49
ሃ 49
ቤ 49
▁እንጂ 49
ጆ 49
▁има_mk 49
▁други 49
ги 49
жен 49
▁кул 49
тим 49
می 49
یہ 49
▁چل 49
▁ت_ur 49
ke_hu 49
kkal 49
▁jen 49
kait 49
▁dá 49
▁Ne_tr 49
ından 49
▁ben_tr 49
tı 49
▁düş 49
▁garanti 49
▁bilir 49
▁olun 49
▁Jimmy 49
rast 49
▁está_gl 49
SON 49
▁asi 49
▁al_nl 49
▁Dat 49
arna 49
▁Scha 49
▁ste_sk 49
iska 49
▁tá 49
နာ 49
တူ 49
▁ale_pl 49
rzy 49
▁ئېيتتى 49
▁د_ug 49
▁نە 49
▁زۆر 49
▁woku 49
bh_xh 49
ela_xh 49
qa_xh 49
misel 49
iĝis 49
▁for_eo 49
lo_eo 49
▁per_eo 49
ton_eo 49
▁gi_vi 49
▁nhưng 49
▁bị 49
ciones 49
ре_tt 49
ырлар 49
лап 49
▁Аның 49
▁чыгар 49
▁эч 49
▁дөньяда 49
▁йо 49
▁сиз 49
▁De_pt 49
ta_pt 49
mã 49
venue 49
ରା 49
▁ଫାଇଲ 49
ତ୍ତ 49
▁ଭ 49
ুন 49
▁ল 49
ম্প 49
ড় 49
▁আপনার 49
▁ek_af 49
sie_af 49
▁teen 49
વી 49
▁แล้ว 49
र्_ne 49
▁यस 49
▁Ku_rw 49
け 49
ата_bg 49
▁Е_bg 49
да_bg 49
ме_bg 49
▁síos 49
▁gC 49
▁coinníollacha 49
▁chuig 49
gh_ga 49
▁níos 49
▁Ní 49
▁rann 49
▁tá_ga 49
даги 49
▁деди 49
ти_uz 49
▁банда 49
no_cs 49
▁vý_cs 49
▁pod_cs 49
▁in_nb 49
ert_nb 49
ler_nb 49
▁Luxembourg 49
্রা 49
রো 49
▁ফ_bn 49
▁sve_sh 49
▁str_sh 49
▁L_sh 49
il_az 49
▁Sən 49
▁dedilər 49
▁bil_az 49
▁s_az 49
able_fr 49
▁bien_fr 49
▁so_fr 49
▁deux 49
takse 49
▁tõ 49
si_et 49
ud_et 49
öö 49
▁kohta 49
▁tule 49
▁ҳеҷ 49
онанд 49
▁ga_lt 49
ką_lt 49
▁me_hr 49
dat_se 49
▁Е_kk 49
▁қа_kk 49
▁sini_ms 49
ױ 49
dan_ku 49
▁بوون 49
▁فه_ku 49
ew_ku 49
de_ku 49
سته 49
▁جوان 49
▁per_fi 49
ön_fi 49
ut_fi 49
nut_fi 49
▁la_fi 49
ellä 49
un_fi 49
▁سر_ps 49
▁anche 49
▁ஒ 49
▁கொண்டு 49
ூ 49
வே 49
▁წ 49
გამ 49
ზ 49
ჱთ 49
▁დ 49
ოთ 49
▁κα 49
γκ 49
ασ 49
tsu_eu 49
▁go_eu 49
▁you_gd 49
рі_uk 49
ом_uk 49
▁dre_br 49
▁er_br 49
▁ఇది 49
వి 49
బ 49
▁తెల 49
▁గ 49
డి 49
лган_ky 49
ма_ky 49
ду_ky 49
▁خوب_fa 49
رتب 49
امي 49
▁jin_ha 49
Yã 49
Ka_ha 49
▁saukar 49
▁Sabõda 49
▁kuke 49
▁Ūetta 49
co_es 49
dos_es 49
▁г_ru 49
ну_ru 49
▁ин_ru 49
▁lwe_zu 49
ny_zu 49
be_zu 49
va_it 49
▁A_it 49
ri_it 49
▁te_it 49
▁fa_it 49
▁B_mt 49
▁għad 49
ċer 49
▁nur_de 49
▁Zu_de 49
al_de 49
ver_de 49
er_wa 49
▁Li_wa 49
li_lv 49
ek_lv 49
šanās 49
▁īpaši 49
▁ga_lv 49
▁b_lv 49
du_lv 49
▁yw 49
▁ਮ 49
▁ਗ 49
ਵੇ 49
दा_mr 49
▁네 49
▁해 49
▁자 49
▁وان_ar 49
قوة 49
▁أب 49
CI_ar 49
RC_ar 49
xa_en 49
quer_en 49
nya_en 49
kan_en 49
ona_en 49
ux_en 49
rab_en 49
▁pis_en 49
▁Ce_en 49
▁Vo_en 49
▁ml_en 49
▁famo_en 49
ош 48
ня_be 48
аваць 48
ана 48
italy 48
ean 48
год 48
вар 48
fix 48
нут 48
роб 48
тро 48
▁AN 48
▁над 48
▁qu 48
▁temps 48
▁qué 48
▁Eric 48
▁Au 48
▁complet 48
▁mei 48
verti 48
▁gradient 48
ומ 48
נות 48
cut 48
שט 48
▁mi_sq 48
▁tij 48
▁janë 48
jeli 48
jen_sq 48
gati 48
Si 48
osi 48
▁Afrika 48
▁iz 48
truk 48
▁tran 48
▁tap 48
▁Mak 48
tini 48
▁doktor 48
radh 48
kem 48
▁aspekt 48
iske 48
▁Ô 48
oke 48
▁fer_fy 48
sorb 48
sins 48
OC 48
owa 48
▁Sei 48
▁kombin 48
▁NCB 48
ter_da 48
delig 48
▁Ron 48
▁29. 48
plasma 48
▁rett 48
▁24. 48
▁ord 48
uche 48
alde 48
200 48
▁Py 48
▁Fer 48
▁Andre 48
▁25. 48
▁milli 48
▁sary 48
zia 48
omba 48
nih 48
▁va_mg 48
ro_mg 48
bola 48
▁O_mg 48
kira 48
isia 48
▁آر 48
gad 48
lant 48
heng 48
oda 48
▁Jak 48
▁Cô 48
▁Uni 48
▁किसी 48
गो 48
▁हमने 48
▁ज_hi 48
करण 48
टो 48
už 48
▁svet 48
icu 48
zko 48
niku 48
▁služb 48
in_li 48
ró 48
▁està 48
em_ca 48
▁Si_ca 48
▁et_ca 48
vé 48
▁s_ca 48
ms 48
▁pai 48
▁poder 48
▁simili 48
unit 48
信 48
认为 48
总 48
家 48
看 48
言 48
道 48
/2000 48
khi 48
▁ഞാന 48
▁വര 48
▁വാ 48
ශ 48
▁ඇයි 48
ධ 48
▁හැම 48
▁ለእነርሱ 48
ሚ 48
га_mk 48
▁уби 48
▁јас 48
▁от_mk 48
▁Д 48
▁Monte 48
▁сто 48
▁сол 48
بالغ 48
▁وقت_ur 48
▁جائیں 48
بو 48
کو 48
▁جاؤ 48
رس 48
▁کم 48
▁برا 48
▁اخت 48
▁s_hu 48
ét_hu 48
pá 48
ára 48
gé 48
▁Mi_hu 48
▁Egy 48
▁csak 48
ne_tr 48
▁e_tr 48
▁Ya_tr 48
▁her_tr 48
:30 48
unda 48
▁musi 48
▁vardır 48
▁ali_sr 48
lož 48
риб 48
▁antes 48
▁É_gl 48
▁outra 48
bido 48
lei 48
▁toda 48
raí 48
Build 48
lín 48
▁mír 48
le_nl 48
▁Maar 48
heid_nl 48
▁stel 48
▁× 48
▁Opp 48
▁(0 48
▁ú_sk 48
▁S_sk 48
▁To_sk 48
le_sk 48
ním 48
ení 48
▁trop 48
úla 48
ဒါ 48
သုံး 48
▁قايت 48
▁كىتاب 48
▁دىن 48
ile_xh 48
ise_xh 48
lwazi 48
lingan 48
▁om_xh 48
/2014 48
▁vin_eo 48
▁cả 48
▁N_vi 48
ên_vi 48
sam_sv 48
re_sv 48
ka_sv 48
▁alla_sv 48
▁tunne 48
▁намаз 48
гыл 48
▁ин_tt 48
▁сүз 48
▁каршы 48
ларның 48
▁са_tt 48
▁йөз 48
ларына 48
▁вакытта 48
▁синең 48
сын_tt 48
▁яман 48
är 48
go_pt 48
ischen 48
▁କରିବା 48
▁ନ 48
କ୍ 48
gaghị 48
▁Gosi 48
▁অনু 48
▁কোনো 48
▁ঘ 48
ৈ 48
ঘ 48
ing_af 48
▁kan_af 48
el_af 48
ઈ 48
▁સાથે 48
લો 48
ไว้ 48
พูด 48
्या_ne 48
wa_rw 48
▁IDOSIYE 48
ア 48
ど 48
ло_bg 48
▁пре_bg 48
▁mBallstát 48
éadfaidh 48
▁tu_ga 48
ma_ga 48
▁ph_ga 48
▁amháin 48
lá_ga 48
▁таоло 48
▁бўлиб 48
▁бўлади 48
▁и_uz 48
▁чиқар 48
▁Агар_uz 48
илган 48
унинг 48
қта 48
▁ÇáÓÇÚÉ 48
▁ÇáÂä 48
do_cs 48
▁Posted 48
▁opplysninger 48
▁E_nb 48
tak_nb 48
▁ved_nb 48
▁e_nb 48
▁সময়_bn 48
▁stavkom 48
▁sustava 48
▁članka 48
Value 48
▁di_az 48
əgər 48
▁sənə 48
▁göstər 48
▁En_fr 48
▁comp_fr 48
ir_fr 48
▁o_fr 48
▁tous 48
au_fr 48
▁jih 48
▁promotion 48
li_et 48
▁Î 48
▁ҳам_tg 48
но_tg 48
за_tg 48
▁reikia 48
stat_lt 48
ργ 48
▁gabe 48
са_kk 48
▁Kau_ms 48
▁lagi_ms 48
▁pe_ms 48
▁men_ms 48
▁menye 48
type_yi 48
▁לײענען 48
yî_ku 48
نده 48
▁su_fi 48
illa_fi 48
▁mu_fi 48
នា 48
៍ 48
។ 48
▁Men_no 48
▁bine 48
▁va_ro 48
ονται 48
μπ 48
ιο 48
arekin 48
▁zure 48
▁guzti 48
xi_eu 48
▁lil 48
▁этого 48
▁будет 48
▁быть 48
ver_br 48
రా 48
лоо 48
▁مى_fa 48
دار_fa 48
▁rahama 48
▁bãyan 48
▁zo_ha 48
an_is 48
▁fue_es 48
rán_es 48
▁ca_es 48
ри_ru 48
ите_ru 48
▁кон_ru 48
ст_ru 48
▁se_zu 48
ke_zu 48
▁loku_zu 48
li_it 48
▁commission 48
menti_mt 48
▁Membru 48
▁durch 48
▁Re_de 48
us_de 48
▁Es_de 48
lī 48
ajiem 48
ies_lv 48
šanai 48
▁gan_lv 48
ais_lv 48
ts_lv 48
▁kurā 48
es_cy 48
▁Methu 48
▁ಮ 48
ಪ 48
ಟ್ 48
▁ਹੋ 48
व्ह 48
के_mr 48
▁त्याला 48
▁प्र_mr 48
▁우리 48
▁할 48
치 48
대 48
▁마 48
하지 48
▁لأن 48
عتقد 48
▁بذلك 48
▁Ini_id 48
▁seperti_id 48
▁Tidak_id 48
ili_en 48
gun_en 48
aith_en 48
ita_en 48
gh_en 48
sz_en 48
▁с_be 47
др 47
піс 47
▁тэ 47
мест 47
хо 47
грам 47
▁Бар 47
▁му 47
▁PDF 47
▁user 47
вай 47
вам 47
tool 47
Ы 47
▁шар 47
▁Diff 47
het 47
ait 47
Bo 47
▁visual 47
▁למ 47
▁אז 47
אר 47
מי 47
בד 47
öm 47
▁ti_sq 47
▁kur_sq 47
ath 47
▁vre 47
▁2004. 47
▁Th 47
▁bara 47
▁nisi 47
▁Ibrahim 47
▁1989 47
▁Tek 47
▁minimal 47
▁mundo 47
spor 47
▁Atlant 47
arja 47
vul 47
nbekend 47
kkel 47
▁Organ 47
ED 47
▁datum 47
bank 47
stop 47
▁comp 47
ddi 47
▁samt 47
ligt_da 47
ført 47
øg 47
▁hvad 47
ere_da 47
▁vide 47
▁Gaza 47
rift 47
ieren 47
jene 47
klar 47
▁2000/ 47
▁statut 47
jeti 47
uko 47
▁Anne 47
trop 47
▁Jordan 47
▁tahaka 47
▁volana 47
dry_mg 47
▁teny 47
laza 47
▁sang 47
rai 47
hamba 47
jena 47
CS 47
▁عند 47
dini 47
▁Olympi 47
▁Bord 47
▁Grace 47
स्_hi 47
र्क 47
को_hi 47
शे 47
▁O_bs 47
▁drugi 47
▁godine 47
čke 47
iter 47
▁oku 47
▁č 47
▁potrebno 47
▁Doug 47
▁razvoj 47
▁že 47
▁posto 47
▁vode 47
▁luk 47
ILI 47
▁član 47
▁Flor 47
▁cilj 47
▁geni 47
▁això 47
er_ca 47
univers 47
▁duen 47
scription 47
▁certifi 47
从 47
核 47
员 47
情况 47
任 47
支持 47
要求 47
使用 47
可以 47
研究 47
学 47
riya 47
▁77 47
ുന്നത് 47
▁ശരി 47
▁മാ 47
ദ 47
▁න 47
▁වගේ 47
හි 47
palette 47
▁ምንም 47
▁ሊ 47
ኾናችሁ 47
▁ዘ 47
ጹ 47
ጠሩ 47
▁Ќе 47
ма_mk 47
зем 47
▁ли_mk 47
▁нешто 47
ик 47
ување 47
▁ком 47
тре 47
▁ок 47
ове 47
▁Ис 47
▁اند 47
▁سلام 47
▁لیا 47
▁حکم 47
▁خوش 47
▁بعد_ur 47
▁لیکن 47
کھ 47
▁مو 47
▁پروردگار_ur 47
وی 47
ابت 47
▁موج 47
▁ھا 47
▁مناسب 47
ed_hu 47
len_hu 47
lás 47
▁Ha_hu 47
▁Azt 47
amino 47
▁bá 47
issa 47
ák 47
hla 47
▁rok 47
▁iş_tr 47
▁edil 47
ünü 47
yim 47
ви 47
▁те 47
▁Де 47
antes 47
▁le_nl 47
▁tot_nl 47
tiek 47
▁contro 47
▁Vis_nn 47
▁POP 47
▁Anim 47
ľa 47
či_sk 47
po_sk 47
▁Nie_sk 47
da_sk 47
enie_sk 47
▁zač 47
▁štát 47
▁Och 47
lý 47
▁acquis 47
လက် 47
▁ဖြစ် 47
ကျ 47
ဝေ 47
သတ်မှတ် 47
▁ဘ 47
▁ko_pl 47
ał 47
wali 47
▁پەيغەمبەر 47
ھى 47
▁پەرۋەردىگارىڭ 47
▁ئۇلاردىن 47
اي_ug 47
جى 47
qhu 47
▁ngokwe 47
cw 47
▁phakathi 47
▁kufuneka 47
khi_xh 47
▁iya 47
▁nepa 47
▁pro_eo 47
▁tiu 47
▁aŭ 47
▁cũng 47
▁việc 47
▁mình 47
lighet 47
▁sam_sv 47
te_sv 47
▁väl 47
ке_tt 47
▁дөрес 47
▁минем 47
▁сынымнар 47
▁дус 47
▁алып 47
▁кылып 47
▁Аңа 47
▁тарт 47
▁күп 47
па 47
ые 47
ini_tk 47
que_pt 47
▁sua_pt 47
ça_pt 47
ଗୁଡ଼ିକୁ 47
Name_or 47
ଦି 47
ବେ 47
ସ୍ତ 47
ପା 47
▁ụ 47
he_ig 47
ত্ৰ 47
্যা_as 47
▁লিখ 47
দা 47
▁হব 47
▁মু 47
▁dit_af 47
le_af 47
ય 47
્ય 47
▁Um_rw 47
ロ 47
です 47
み 47
ля_bg 47
tí_ga 47
isi_ga 47
▁sha_ga 47
▁ҳеч 47
▁před 47
delayed 47
▁Oct 47
sert_nb 47
▁må_nb 47
ste_nb 47
▁blant 47
sjoner 47
▁alle_nb 47
EMAIL_nb 47
▁andre_nb 47
val_nb 47
▁একজন 47
▁আপনি 47
▁নে_bn 47
িয়া_bn 47
red_sh 47
▁zna_sh 47
ək 47
▁Qur_az 47
▁haqq 47
▁etdik 47
şə 47
▁sa_az 47
▁gətirənlər 47
ti_fr 47
▁co_fr 47
▁do_fr 47
▁pää 47
▁Ja_et 47
tatud 47
mine_et 47
▁ne_et 47
www_et 47
▁та_tg 47
ид_tg 47
▁мекунад 47
do_lt 47
▁veikt 47
jo_lt 47
uoto 47
am_lt 47
▁atau 47
▁ja_hr 47
▁paper_se 47
optional_se 47
▁жол 47
▁Dia_ms 47
▁מ_yi 47
که_ku 47
▁ji_ku 47
▁Di_ku 47
▁باشه 47
▁o_fi 47
▁kun_fi 47
isi_fi 47
▁ا_ps 47
▁bare_no 47
▁ar_ro 47
▁Ce_ro 47
▁al_ro 47
▁dar_ro 47
▁நி 47
▁மு 47
▁ஆமாம் 47
ბა 47
λο 47
▁εξ 47
μη 47
ους 47
φορ 47
▁esku 47
▁ze_eu 47
▁sa_gd 47
▁h_gd 47
se_gd 47
ly_gd 47
ді_uk 47
▁только 47
ально 47
▁ఉ 47
తో 47
ష 47
ించు 47
▁менен 47
то_ky 47
ло_ky 47
▁О_ky 47
▁نيست 47
▁خ_fa 47
▁اينجا 47
▁همه 47
▁tã 47
▁karɓ 47
▁að 47
ño_es 47
му_ru 47
су_ru 47
▁ne_it 47
▁gi_it 47
di_sl 47
ih_sl 47
aġġ 47
▁x_mt 47
lo_mt 47
▁pre_mt 47
▁Wir_de 47
▁E_wa 47
di_lv 47
šana 47
ņ 47
▁ce_lv 47
mā 47
de_cy 47
ೇ 47
ಶ 47
▁ਦ 47
ंग_mr 47
▁मेरी_mr 47
ण्या 47
सा_mr 47
ति_mr 47
स्त_mr 47
मा_mr 47
▁거야 47
라고 47
▁الإنسان 47
موظف 47
CR_ar 47
ja_id 47
▁saya_id 47
▁kami_id 47
▁Var_en 47
era_en 47
ado_en 47
ums_en 47
dos_en 47
wy_en 47
ille_en 47
▁gang_en 47
▁NATO_en 47
aire_en 47
ales_en 47
▁à_en 47
скі 46
▁Л 46
ера 46
ент 46
пар 46
▁люб 46
▁Што 46
▁Бу 46
оп 46
▁Ар 46
▁Plus 46
▁два 46
Database 46
ое 46
abel 46
tz 46
▁permet 46
▁160;: 46
▁bl 46
▁barra 46
▁isto 46
slov 46
▁mol 46
▁מי 46
וק 46
▁רוצה 46
עז 46
▁הי 46
▁apo 46
▁mbi 46
▁dua 46
tet_sq 46
▁ale 46
ston 46
IA 46
▁Ik 46
▁ske 46
kret 46
zioni 46
▁Gru 46
▁Politi 46
nova 46
tron 46
Su 46
alle 46
▁lokal 46
liz 46
dni 46
meli 46
terne 46
och 46
▁Kod 46
▁beren 46
▁Ber_fy 46
un_fy 46
arte 46
aste 46
▁Stre 46
▁GroupWise 46
▁massa 46
inta 46
uke 46
▁område 46
▁ville_da 46
▁denne_da 46
▁2002/ 46
▁grund 46
▁enkelt 46
▁aldrig 46
▁svar 46
▁hvor_da 46
▁and_da 46
gende 46
ERI 46
▁Nor 46
▁kort 46
-11 46
øns 46
▁Ø 46
▁Industri 46
▁Tas 46
▁sme 46
▁skall 46
▁No_mg 46
zo_mg 46
▁F_mg 46
▁gazety 46
▁vahoaka 46
▁Ta_mg 46
man_mg 46
▁sain 46
▁Maha 46
▁Vin 46
vana 46
▁novi 46
kod 46
tka 46
▁tapa 46
say 46
tati 46
▁lan 46
dou 46
moya 46
▁बे 46
▁पहले 46
▁कम 46
▁सी 46
दी 46
िंग 46
▁रसूल 46
वे 46
▁खा_hi 46
बो 46
▁हु 46
सार 46
उन 46
▁Ovo 46
▁nije_bs 46
▁joj 46
▁naš 46
▁posla 46
▁će_bs 46
▁toga 46
▁sebe 46
▁ugovor 46
▁Santa 46
▁mut 46
▁Steve 46
Za 46
▁komen 46
rä 46
▁kle 46
óm 46
▁verk 46
language 46
▁Só 46
▁sé 46
▁defens 46
lta 46
ote 46
wie 46
▁dessa 46
▁Eli 46
tés 46
▁implica 46
期 46
达 46
两 46
能 46
之 46
回 46
代 46
安 46
300 46
▁Permanent 46
തു 46
▁දැන් 46
▁දෙ 46
ගෙන 46
ኮ 46
▁ለመ 46
ኙ 46
▁አይደለም 46
ши 46
нат 46
ил 46
Г 46
ќ 46
ин 46
вен 46
▁а_mk 46
▁Г_mk 46
ати 46
▁Ша 46
тон 46
▁ри 46
ис 46
рен 46
хи 46
▁ер 46
▁بی_ur 46
ول_ur 46
ید_ur 46
▁ک_ur 46
▁ناو 46
▁کات 46
▁گرفت 46
▁کل 46
دفع 46
▁سم 46
▁نی 46
زل 46
▁köz 46
vá_hu 46
el_hu 46
ra_hu 46
otta 46
gai 46
nni 46
▁öldür 46
▁edin 46
ikka 46
hung 46
▁To_sr 46
kela 46
▁Sloveni 46
▁subjekt 46
lach 46
зи 46
▁sh 46
vili 46
▁Profil 46
▁súa 46
la_gl 46
idos 46
minen 46
▁Ai 46
in_nl 46
financ 46
▁må_nn 46
▁dei_nn 46
▁<_nn 46
ou_sk 46
ba_sk 46
▁mí 46
လျ 46
ie_pl 46
▁wie_pl 46
▁kuba 46
كەن 46
▁مى_ug 46
▁بىزنىڭ 46
▁كۈنى 46
؟» 46
lelwa 46
ban_xh 46
qam 46
▁kwisi 46
qala 46
▁do_eo 46
▁kiel 46
skap 46
tuko 46
▁Chúng 46
▁Và 46
▁còn 46
▁bà 46
nă 46
sta_sv 46
▁алыр 46
▁аз_tt 46
▁динен 46
▁гамәлләр 46
▁золым 46
AtkHyperlink 46
ръ 46
UTF_tk 46
ada_pt 46
▁per_pt 46
▁nos_pt 46
▁vom 46
ଭ 46
ଭି 46
▁nwere 46
▁ọrụ 46
▁Mepe 46
▁নোৱাৰি 46
ৎ 46
গ্র 46
ভাবে 46
મે 46
▁ભૂલ 46
เอา 46
▁นี่ 46
▁ใช่ 46
วัน 46
กําลัง 46
▁न_ne 46
ाइ_ne 46
▁kugirango 46
お 46
ウ 46
ナ 46
▁като 46
ня_bg 46
▁ни_bg 46
зи_bg 46
ле_bg 46
ление 46
▁G_ga 46
da_ga 46
▁me_ga 46
▁neamh 46
”; 46
қи_uz 46
ингиз 46
▁ўзи 46
je_cs 46
▁€ 46
gi_nb 46
▁etter_nb 46
▁mot_nb 46
le_nb 46
tter_nb 46
▁spr_nb 46
▁skip 46
▁ছবি_bn 46
ro_sh 46
če_sh 46
▁ob_sh 46
əyə 46
▁Cəhənnəm 46
▁əvvəl 46
dı_az 46
mək 46
aient 46
▁cette 46
ten_fr 46
cours 46
na_fr 46
ter_fr 46
▁Me_et 46
▁рӯз 46
▁кардан 46
▁Komisijos 46
ųjų 46
asa_ms 46
▁name_yi 46
tin_ku 46
▁جا_ku 46
▁nû 46
▁بێ 46
▁ترس 46
▁ko_fi 46
▁kuin 46
ma_fi 46
sa_fi 46
لی_ps 46
▁انځور 46
▁Amarok 46
▁គ 46
▁បើ 46
▁men_no 46
▁fa_ro 46
şi_ro 46
ாத 46
▁உள்ள 46
ங்கள் 46
ணி 46
தை 46
பு 46
ჩ 46
ღა 46
▁ოა 46
სგა 46
▁ჟამჲ 46
στε 46
ικά 46
▁ne_eu 46
▁mu_eu 46
▁mai_eu 46
▁lehen 46
est_gd 46
bha_gd 46
▁dhe_gd 46
▁d_gd 46
▁Да_uk 46
ить_uk 46
го_uk 46
ennoù 46
▁మేము 46
▁ఏమి 46
▁براي 46
ار_fa 46
لين 46
ام_fa 46
مان_fa 46
▁mutãnen 46
kin_ha 46
ge_ha 46
kan_ha 46
la_is 46
go_es 46
▁Ты_ru 46
ты_ru 46
ve_it 46
▁°_it 46
ttivi 46
ndo_it 46
▁disturb 46
il_sl 46
da_sl 46
▁To_sl 46
żjoni 46
zz_mt 46
▁k_mt 46
▁wieħed 46
id_mt 46
▁fejn 46
miżuri 46
▁E_mt 46
▁ent_de 46
▁se_de 46
et_de 46
▁para_lv 46
▁punktā 46
▁gadā 46
ģ 46
āju 46
▁Kopienas 46
▁C_lv 46
ly_cy 46
ತ್ತ 46
ೆ 46
ಳ 46
▁kgm_pa 46
ही_mr 46
हा_mr 46
त्र_mr 46
▁या_mr 46
▁घ_mr 46
군 46
رحل 46
▁سر_ar 46
▁أح 46
بيع 46
na_id 46
si_id 46
tag_en 46
Name_en 46
▁zer_en 46
EF_en 46
lla_en 46
bas_en 46
ike_en 46
▁abu_en 46
ean_en 46
ola_en 46
nan_en 46
gli_en 46
III_en 46
ве 45
▁cari 45
▁Ту 45
за 45
Property 45
неш 45
лан 45
гар 45
DB 45
▁наш 45
▁utiliza 45
chi_oc 45
gust 45
ais 45
▁filter 45
ví 45
▁nombre 45
xar 45
▁fos 45
זה 45
▁אנחנו 45
נע 45
יט 45
לו 45
▁s_sq 45
▁këtë 45
▁kry 45
shim 45
dhi 45
uran 45
ones 45
▁Barb 45
▁23. 45
ngu 45
ndar 45
rta 45
CEE 45
▁Partner 45
▁tv 45
▁kali 45
▁popul 45
ington 45
▁akt 45
fo_fy 45
rjocht 45
Û 45
kken 45
fang 45
kko 45
mmen 45
▁Singapore 45
▁eigen 45
komst 45
IF 45
▁ym 45
es_da 45
mål 45
2.2 45
▁nyt 45
▁Ur 45
▁hæ 45
eres 45
▁Rose 45
▁deres 45
kter 45
ün 45
▁død 45
▁Baby 45
ря 45
▁orde 45
▁Rob 45
▁nej 45
dung 45
▁faritra 45
▁nisy 45
izao 45
▁Ban 45
rena_mg 45
simo 45
igi 45
eve 45
MB 45
▁Boston 45
itse 45
▁Bell 45
▁face 45
▁hari 45
erte 45
▁जिन 45
▁नि_hi 45
▁सुन 45
▁यहाँ 45
र्ड 45
▁मह 45
खा 45
▁%( 45
▁सि 45
टी 45
▁मे 45
ेल 45
पण 45
▁ali_bs 45
▁želim 45
▁ovde 45
▁bili 45
ži 45
▁Svi 45
ući 45
ovanje 45
▁103 45
rug 45
▁Bez 45
▁ži 45
▁držav 45
recht 45
rón 45
ge_li 45
en_li 45
wiss 45
ules 45
▁ca_ca 45
ca_ca 45
Control 45
▁cuid 45
▁Però 45
espect 45
▁valor 45
vies 45
▁gani 45
garri 45
▁É 45
tze 45
安全 45
已 45
权利 45
款 45
已经 45
取 45
nus 45
fn 45
Rev 45
▁എന്‍റെ 45
യാണ് 45
වේ 45
ත්ත 45
ස්ස 45
ුව 45
▁මු 45
ගන්න 45
▁ናት 45
ለሁ 45
ኾኑ 45
ገባ 45
ተኛ 45
▁ምን 45
▁አታ 45
▁ред 45
стан_mk 45
▁биде 45
дел 45
ич 45
▁По_mk 45
мин 45
рек 45
▁Мин 45
▁проблем 45
▁При 45
▁к 45
▁же 45
пис 45
▁کرنا 45
▁پیش 45
▁ہوگا 45
سا 45
▁فکر 45
▁اش 45
▁veic 45
ba_hu 45
ot_hu 45
tál 45
él 45
▁Í 45
ót 45
öt 45
ará 45
thwa 45
alu 45
en_tr 45
eği 45
▁daha_tr 45
sa_tr 45
▁oldu 45
▁ini 45
le_sr 45
▁им 45
▁prava 45
Tak 45
▁chu 45
uste 45
ando_gl 45
▁moc 45
▁durante 45
▁cine 45
▁Beau 45
▁lugar 45
es_nl 45
▁ons_nl 45
st_nl 45
▁wel_nl 45
▁pier 45
▁Cuba 45
▁Science 45
ten_nn 45
te_nn 45
▁vo_sk 45
vä 45
▁Vy 45
jú_sk 45
nym 45
▁ဒီ 45
ဖို့ 45
လို့ 45
ဥ 45
▁Z_pl 45
▁je_pl 45
ną_pl 45
▁nic 45
inę 45
mhar 45
ligen 45
▁سال_ug 45
غىن 45
▁قىلىنغان 45
▁دې 45
كىن 45
▁قانداق 45
ۋاتقان 45
بە 45
he_xh 45
▁be_xh 45
tsho 45
oku_xh 45
▁In_xh 45
▁N_xh 45
indi 45
ninzi 45
ge_xh 45
▁loku_xh 45
hulu 45
diyi 45
bha_xh 45
gwe 45
▁anak 45
do_eo 45
ci_eo 45
▁tion 45
▁jar 45
ül 45
▁r_vi 45
▁b_sv 45
▁er_sv 45
▁Stock 45
dä 45
▁җибәр 45
ыйк 45
▁Әлбәттә 45
▁Йусуф 45
▁аны_tt 45
▁гафу 45
мәгән 45
Ба 45
▁кылучы 45
▁итүче 45
▁Ө 45
Ý 45
ir_pt 45
▁ter_pt 45
▁ex_pt 45
dos_pt 45
▁te_pt 45
ând 45
ିଆ 45
ମି 45
নি_as 45
▁সৈতে 45
ছিল 45
▁খা 45
▁দিয়ে 45
▁দেখ 45
เ 45
▁तपाईँ 45
gi_rw 45
タ 45
▁раз_bg 45
aítear 45
lí_ga 45
iteach 45
ibh_ga 45
mheas 45
▁féadfaidh 45
úcháin 45
▁Chomhphobail 45
ғи 45
▁ма_uz 45
▁Z_cs 45
it_cs 45
▁ho_cs 45
▁mer_nb 45
sy_nb 45
si_nb 45
ক্র 45
▁সু_bn 45
▁তোমাদের 45
▁uključujući 45
▁sustav 45
≤ 45
ar_az 45
▁kafirlər 45
▁gəl 45
▁amma 45
maz_az 45
ux_fr 45
ants_fr 45
▁pro_fr 45
▁non_fr 45
affi 45
ki_et 45
▁vi_et 45
ti_et 45
it_et 45
▁кофирон 45
ӯҳ 45
▁но_tg 45
ин_tg 45
ги_tg 45
▁gero 45
▁priemonių 45
ni_lt 45
▁maž 45
io_lt 45
ty_lt 45
▁tiksl 45
▁jaun 45
ет_kk 45
ім_kk 45
лар_kk 45
тер_kk 45
da_ms 45
▁ku_ku 45
▁موو 45
▁بکه 45
▁Jos_fi 45
▁li_fi 45
la_fi 45
jen_fi 45
▁vi_fi 45
▁Ei_fi 45
jo_fi 45
▁joka 45
▁De_no 45
ten_no 45
▁se_no 45
▁eu_ro 45
▁con_ro 45
▁De_ro 45
ni_ro 45
em_ro 45
▁mi_ro 45
▁da_ro 45
ால் 45
▁இன்னும் 45
▁ბ 45
ჟთ 45
▁აკჲ 45
▁ανα 45
υρ 45
▁Έ 45
αί 45
άρ 45
turik 45
er_eu 45
ago_eu 45
▁jauna 45
▁à_gd 45
ий_uk 45
ко_uk 45
▁знаю 45
se_br 45
at_br 45
▁లేదు 45
సి 45
ది 45
тер_ky 45
лу_ky 45
ка_ky 45
▁ده_fa 45
▁یه_fa 45
ال_fa 45
▁مراقب 45
▁sammai 45
▁wasu 45
ɗi 45
▁ūví 45
▁Hvađ 45
ra_is 45
ada_es 45
cio_es 45
▁мне_ru 45
мо_ru 45
enza_it 45
er_it 45
▁tu_it 45
pprova 45
▁S_sl 45
jn_mt 45
ewwel 45
▁jkunu 45
Ħ 45
ija_mt 45
ammont 45
▁bi_mt 45
▁ukoll 45
it_de 45
▁Da_de 45
▁Me_de 45
ste_de 45
blo_wa 45
▁nepie 45
va_lv 45
▁ES_lv 45
iz_lv 45
wedd_cy 45
ਂ 45
▁माझ्या 45
डी_mr 45
نه_ar 45
▁الوطني 45
▁pe_id 45
▁adalah_id 45
ada_en 45
nom_en 45
plan_en 45
rug_en 45
▁Sara_en 45
▁nur_en 45
gas_en 45
▁twee_en 45
ся_be 44
тра 44
дат 44
▁роз 44
▁provinces 44
out 44
лов 44
каз 44
▁бай 44
▁кан 44
CELEX 44
0059: 44
==== 44
== 44
uto 44
зор 44
▁пла 44
▁Lin 44
▁83 44
Password 44
zat 44
config 44
▁ed 44
rena 44
▁Dir 44
aal 44
ssen 44
ופ 44
יש_he 44
▁מו 44
פה 44
▁איז 44
▁kë 44
ty_sq 44
▁I_sq 44
dores 44
nj 44
▁28. 44
esi 44
▁K_sq 44
▁ekonomi 44
▁kara 44
INA 44
▁Radi 44
▁stimul 44
▁meg 44
▁Kre 44
▁fanta 44
hun 44
▁om_fy 44
te_fy 44
end_fy 44
DO 44
mak 44
▁Lisa 44
eau 44
▁Wit 44
ve_da 44
tjeneste 44
ér 44
▁lever 44
skriv 44
▁miljø 44
skab 44
▁fantasti 44
elu 44
bak 44
mad 44
▁ano 44
▁dum 44
klaus 44
▁Ry 44
▁Brown 44
▁Rick 44
ritra 44
▁hetsika 44
neho 44
▁kosa 44
▁lalàna 44
ambo_mg 44
baovao 44
andro 44
itate 44
▁toerana 44
▁araka 44
▁Fit 44
tif 44
er_mg 44
▁IN 44
ovo 44
▁Studi 44
vara 44
taka 44
vao 44
eux 44
▁kad 44
lite 44
dh 44
rifi 44
roa 44
mia 44
Don 44
toria 44
/94 44
uga 44
▁Ou 44
rb 44
▁Cum 44
pí 44
hazi 44
▁habe 44
KR 44
▁Gil 44
▁nova 44
▁Roman 44
▁इ_hi 44
्रे 44
नो 44
▁ह_hi 44
▁ए_hi 44
▁बस 44
क्स 44
▁पो 44
njem 44
▁tamo 44
▁š 44
ška 44
vije 44
▁što_bs 44
rade 44
▁pošt 44
▁primer 44
▁nepo 44
▁rasp 44
▁lik 44
sed 44
MER 44
IST 44
▁op_li 44
zó 44
▁Chris 44
▁seus 44
▁m_ca 44
ho_ca 44
vectors 44
tada 44
▁faci 44
▁Lan 44
lí 44
▁existe 44
error 44
▁McC 44
quel 44
▁94 44
未 44
处 44
少 44
措施 44
三 44
▁120 44
ബ 44
ാല്‍ 44
▁ഉ 44
രാ 44
▁കാ 44
ക്ഷ 44
ු 44
පු 44
▁ඔහු 44
▁එක්ක 44
▁ደ 44
▁ዓ 44
▁ኖሮ 44
▁በኋላ 44
ቱን 44
ሠራ 44
▁живот 44
▁три 44
вра 44
▁година 44
сил 44
аг 44
یوں 44
کا 44
▁ہوا 44
▁شخص_ur 44
اس_ur 44
▁ہاں 44
▁روز 44
جاز 44
▁راه 44
ئو 44
رش 44
صب 44
ha_hu 44
szer 44
yt 44
▁Harry 44
téri 44
Ş 44
dan_tr 44
▁Onların 44
▁Şi 44
▁Öz 44
▁Stro 44
▁Billy 44
▁de_sr 44
▁Ви 44
▁ни 44
▁из 44
▁tanto 44
▁anos 44
en_gl 44
▁nin 44
▁mais 44
▁Vien 44
▁momento 44
ách 44
at_nl 44
▁hand 44
ef_nl 44
zela 44
schen 44
▁skje 44
ve_nn 44
fig 44
▁Inn 44
na_sk 44
nú_sk 44
▁roz_sk 44
▁vyk 44
▁ci_pl 44
wy_pl 44
ego_pl 44
zę 44
ja_pl 44
ۇڭلار 44
دۇق 44
▁بەرگەن 44
▁چىق 44
▁يامان 44
▁ئەلۋەتتە 44
▁ئوقۇ 44
▁دەيدۇ 44
كار 44
▁CPU 44
gangatho 44
▁Ngo 44
me_xh 44
ing_xh 44
iso_xh 44
▁ngay 44
co_eo 44
▁mia_eo 44
di_eo 44
▁da_eo 44
ĝa 44
▁kien 44
▁eventual 44
▁metu 44
̀ 44
▁chuyện 44
▁x_vi 44
▁f_sv 44
den_sv 44
▁finns 44
▁хәбәр 44
ия 44
ләрдән 44
▁мө 44
рә 44
▁җирдә 44
▁к_tt 44
▁вакыт 44
▁аша 44
▁өй 44
▁итагать 44
▁gaý 44
le_tk 44
▁Eu_pt 44
▁ele_pt 44
ou_pt 44
▁pe_pt 44
▁embr 44
sistema 44
▁selv 44
ଷ୍ଟ 44
▁ଜ 44
▁ର 44
Reference 44
zọ 44
▁কো 44
▁দ্বাৰা 44
টে 44
▁গা 44
তো 44
ai_af 44
▁sal_af 44
we_af 44
મા 44
เค 44
ลา 44
ha_rw 44
▁この 44
óir 44
▁hi_ga 44
▁méid 44
▁ta_ga 44
íochta 44
achta 44
▁ghlacadh 44
▁thar 44
ide_ga 44
iúil 44
▁нима 44
▁ўшалар 44
ри_uz 44
▁та_uz 44
▁Ҳар 44
▁назди 44
▁pře 44
▁ðA 44
▁dette_nb 44
▁হতে 44
পি_bn 44
▁মনে 44
▁করেন 44
de_sh 44
▁više_sh 44
stup_sh 44
▁C_sh 44
▁Ako_sh 44
▁qədər 44
▁z_az 44
ün_az 44
▁cas_fr 44
▁entre_fr 44
▁ex_fr 44
ations_fr 44
▁Β 44
▁esi_et 44
tamise 44
mohandes_et 44
▁Он_tg 44
бар_tg 44
то_tg 44
▁aps_lt 44
▁as_lt 44
▁para_lt 44
Ο 44
ją_lt 44
▁Ū 44
Constellation_se 44
ka_ms 44
▁Awak 44
▁ה_yi 44
▁نا_ku 44
▁مبه 44
ye_ku 44
▁بده 44
le_fi 44
▁tai_fi 44
com_ps 44
نګ 44
▁ជ 44
មាន 44
▁ស្ 44
ស់ 44
ត្រ 44
▁បើក 44
ាន 44
▁ត 44
▁din_no 44
ân_ro 44
de_ro 44
▁என்ன 44
னி 44
▁கோப்பு 44
ோம் 44
ბვ 44
ჱა 44
κό 44
▁εδώ 44
ντ 44
ελ 44
ίας 44
έλ 44
▁αλλά 44
tan_eu 44
▁baino 44
▁все_uk 44
та_uk 44
ться_uk 44
▁тебе_uk 44
▁Что 44
▁E_br 44
త్ర 44
యి 44
బా 44
బు 44
▁వ 44
type_ky 44
شت_fa 44
▁r_ha 44
ts_ha 44
▁kanku 44
▁alhẽri 44
yan_ha 44
di_ha 44
▁bara_is 44
▁vil_is 44
ro_es 44
jo_es 44
▁ми_ru 44
▁Не_ru 44
бо_ru 44
ги_ru 44
ди_ru 44
ma_zu 44
▁nga_zu 44
▁chi_it 44
tto_it 44
▁più 44
▁prodotti 44
▁pod_sl 44
▁per_mt 44
enti_mt 44
ter_mt 44
proċess 44
involvi 44
lichen 44
▁La_de 44
▁E_de 44
cht_de 44
▁un_de 44
ische_de 44
▁Auf 44
▁C_wa 44
▁tik_lv 44
līdz 44
ši_lv 44
en_lv 44
▁pret_lv 44
di_cy 44
by_cy 44
lam_pa 44
ਰੇ 44
▁ਪਰ 44
▁ਕਰਨ 44
▁काय 44
▁기 44
주 44
▁알 44
تنسيق 44
يّ 44
▁بات_ar 44
wa_id 44
ka_id 44
▁om_en 44
ket_en 44
▁bare_en 44
▁meta_en 44
▁matching 44
▁maga_en 44
ila_en 44
tera_en 44
ario_en 44
jor_en 44
tos_en 44
oms_en 44
mohandes_en 44
▁translated 43
▁name_be 43
ная_be 43
жа 43
▁Fle 43
ена 43
▁Бе 43
MF 43
▁Indonesia 43
cional 43
guer 43
veg 43
▁button 43
▁Bang 43
▁Bueno 43
▁system 43
▁satur 43
טי_he 43
▁רק 43
▁אי 43
בת 43
נ 43
יל 43
יר_he 43
▁לש 43
▁Gold 43
ju_sq 43
▁por_sq 43
▁Ai_sq 43
ka_sq 43
rës 43
▁pret 43
▁atë 43
shme 43
lep 43
bind 43
fika 43
▁Jackson 43
▁prov 43
LU 43
▁ji 43
▁sper 43
AGE 43
▁Merk 43
▁struktur 43
▁mana 43
▁kapital 43
pte 43
▁Nej 43
riz 43
itar 43
▁O_fy 43
ör 43
kont 43
▁Rub 43
▁Nautilus 43
▁sky 43
▁wê 43
mali 43
▁mikro 43
bot 43
help 43
krit 43
▁min_da 43
▁mit 43
▁mand 43
▁sagt 43
▁nær 43
▁ram 43
vek 43
▁Registr 43
tör 43
▁også_da 43
behandling 43
RING 43
tino 43
fatt 43
▁vind 43
GC 43
etti 43
tol 43
▁Jeff 43
ektor 43
MM 43
▁[5] 43
▁Andy 43
▁Å 43
▁mit_mg 43
pan_mg 43
toerana 43
▁sam_mg 43
▁Facebook_mg 43
▁lehibe 43
aya 43
▁fis_mg 43
zwa 43
ivi 43
▁tiene 43
hou 43
▁andra 43
ture 43
rung 43
▁pé 43
▁140 43
िक_hi 43
हा_hi 43
डे 43
जी 43
▁बन 43
▁बाद 43
▁rekao 43
stavi 43
▁tijekom 43
▁njihov 43
▁proba 43
▁Sve 43
▁kada 43
acija 43
cem 43
ciju 43
▁meni 43
boj 43
▁živ 43
ić 43
▁ist 43
▁moja 43
JO 43
▁Charles 43
dj 43
▁fa_ca 43
▁fins 43
eu_ca 43
▁empresa 43
ació 43
▁Computer 43
ICA 43
▁das 43
西 43
备 43
如 43
海 43
建立 43
决定 43
例 43
业 43
支 43
colo 43
▁സാ 43
ധ 43
▁പാ 43
▁අර 43
▁අපිට 43
ින් 43
▁ඒත් 43
▁ምስ 43
በደ 43
ጌ 43
▁ድረስ 43
▁ብት 43
ይል 43
ህም 43
hre 43
▁Ти_mk 43
▁кој 43
▁само_mk 43
лу_mk 43
▁ос 43
лен 43
▁стран 43
▁Же 43
لی_ur 43
▁راہ 43
ور_ur 43
▁ل_ur 43
چا 43
▁یاد 43
▁دار 43
▁دنیا 43
▁پس_ur 43
▁ضرور_ur 43
▁انجام 43
já 43
▁hag 43
▁úr 43
lv 43
▁Earl 43
▁dara 43
▁an_tr 43
▁ki_tr 43
te_tr 43
mı 43
▁yerin 43
▁numa 43
▁seni 43
▁у 43
▁U_sr 43
▁на 43
те 43
ado_gl 43
▁colon 43
▁denomina 43
▁conserva 43
▁jou_nl 43
ers_nl 43
▁af_nl 43
current 43
▁e_nl 43
▁melding 43
pier 43
je_nn 43
leg_nn 43
lar_nn 43
▁weekday 43
teľ 43
▁chce 43
▁ich_sk 43
▁roku 43
ပြော 43
နေရာ 43
ရင် 43
လိုက် 43
စေ 43
နှစ် 43
no_pl 43
sze_pl 43
▁da_pl 43
▁był 43
po_pl 43
▁I_pl 43
▁gwa 43
ۇنداق 43
يدۇ 43
مەي 43
▁ئازاب 43
ەس 43
غۇچى 43
▁ngaphandle 43
▁an_xh 43
funeka 43
hu_xh 43
fa_xh 43
▁igama 43
ntrepren 43
▁g_vi 43
▁bara_sv 43
stä_sv 43
▁Den_sv 43
▁китер 43
▁иделәр 43
ләп 43
▁миңа 43
ларны 43
▁Әйт 43
сына 43
ыннан 43
▁изге 43
▁тан 43
шуда 43
nan_tk 43
da_tk 43
▁saýla 43
▁faýly 43
▁BE 43
▁muito 43
▁pode_pt 43
ndo_pt 43
▁afin 43
▁Regula 43
ସ୍ଥ 43
ରଣ 43
▁নি_as 43
টা_as 43
▁মান 43
▁পে 43
▁যোগ 43
চিত 43
▁২ 43
বু 43
રે 43
શે 43
્યા 43
ี้ 43
ประ 43
เล 43
ทาง 43
ที่จะ 43
รา 43
ก่อน 43
ช่วย 43
▁size_ne 43
▁Ama_rw 43
▁Ikintu 43
▁gamin 43
▁Ще 43
ми_bg 43
ди_bg 43
▁С_bg 43
▁féidir 43
▁ach_ga 43
óirí 43
rial_ga 43
ala_ga 43
char_ga 43
rish_uz 43
▁ҳидоят_uz 43
ёт 43
▁кўп 43
▁яхши 43
▁Ўзи 43
▁худо 43
▁ale_cs 43
▁jsme 43
▁være_nb 43
▁så_nb 43
▁ট_bn 43
স্থ_bn 43
▁দা 43
্রি 43
nji_sh 43
▁Članak 43
le_sh 43
▁böyük 43
▁Peyğəmbər 43
lərin 43
▁yana 43
əm 43
lərindən 43
▁tu_fr 43
mé_fr 43
▁rapport_fr 43
▁Kui 43
ba_et 43
ile_et 43
▁siin 43
мо_tg 43
ši_lt 43
ama_lt 43
vo_lt 43
▁nustatyta 43
▁Ne_lt 43
▁susi 43
ži_lt 43
ga_lt 43
iausi 43
ng_lt 43
ūk 43
EEB 43
▁di_lt 43
om_lt 43
liau 43
▁Su_lt 43
μο 43
ka_hr 43
▁OF_kk 43
▁TRANSLATORS_kk 43
ның_kk 43
▁tentang 43
▁baik_ms 43
▁telah_ms 43
▁ש_yi 43
ێکی 43
انه_ku 43
▁ya_ku 43
kî 43
▁ye_ku 43
له_ku 43
ارو 43
کړ 43
▁لو_ps 43
ណា 43
▁ថា 43
▁ជម្រើស 43
▁ខាង 43
lig_no 43
re_no 43
▁lui_ro 43
று 43
யில் 43
ოვ 43
▁რა 43
ική 43
▁πά 43
▁έχει 43
iko_eu 43
rantz 43
▁Baina 43
▁zion 43
um_gd 43
▁но_uk 43
▁вы_uk 43
▁зна_uk 43
▁а_uk 43
జు 43
తు 43
లి 43
де_ky 43
ин_ky 43
ын_ky 43
دم_fa 43
▁نا_fa 43
▁شهر 43
kar_ha 43
ƙar 43
▁bi_ha 43
▁pero_es 43
la_es 43
me_es 43
▁он_ru 43
▁Но_ru 43
он_ru 43
ний_ru 43
▁eli_zu 43
khi_zu 43
▁uma_zu 43
▁fatto 43
▁tista 43
▁mi_mt 43
▁ġej 43
▁pazjenti 43
għan 43
▁wurde_de 43
är_de 43
▁alle_de 43
pe_wa 43
▁po_wa 43
▁des_wa 43
▁Pa_lv 43
ētā 43
la_lv 43
ni_lv 43
lo_lv 43
teik_lv 43
▁jau_lv 43
ks_lv 43
no_lv 43
in_lv 43
mas_lv 43
▁re_lv 43
ir_cy 43
in_cy 43
dd_cy 43
le_cy 43
▁ಬ 43
ಧ 43
ಕ್ 43
▁a_pa 43
ਥ 43
▁ਇਹ 43
▁काही 43
साठी 43
लो_mr 43
▁वा_mr 43
다고 43
님 43
له_ar 43
▁ز_ar 43
▁اس_ar 43
ti_id 43
▁a_id 43
ga_id 43
▁Es_en 43
kon_en 43
sie_en 43
▁heroin_en 43
▁vir_en 43
eb_en 43
ano_en 43
▁han_en 43
▁seg_en 43
fund_en 43
шы_be 42
ень 42
▁так 42
▁шу 42
дзе 42
рон 42
уч 42
фі 42
ава 42
▁Kop 42
кай 42
SQL 42
зар 42
Type 42
ose 42
▁Ле 42
іл 42
▁Java 42
рад 42
sert 42
enia 42
▁хабар 42
▁your 42
▁Qt 42
▁id 42
▁Ана 42
▁Eu 42
tle 42
▁una 42
▁dels 42
▁orden 42
dè 42
▁Kelly 42
מד 42
▁מת 42
יים 42
▁זו 42
▁כאן 42
גע_he 42
ichte 42
▁Az 42
▁ve_sq 42
▁BiH 42
▁mar_sq 42
lok 42
qar 42
lind 42
▁she 42
teria 42
▁Rum 42
NN 42
▁norma 42
▁aba 42
Bi 42
▁Ath 42
▁cere 42
▁zon 42
fik 42
lade 42
AU 42
▁pacient 42
buk 42
▁CIA 42
ktiv 42
imme 42
jut 42
▁Jones 42
erien 42
wij 42
kommen 42
ære 42
kend 42
holde 42
ænd 42
▁mind 42
▁han_da 42
▁Cass 42
-1- 42
▁igen 42
▁vært 42
▁komma 42
▁bio 42
▁Gli 42
§ 42
▁klo 42
▁sorte 42
▁kul 42
▁Morgan 42
ala_mg 42
sena 42
▁zareo 42
bahoaka 42
saka 42
ri_mg 42
zaka 42
ti_mg 42
▁nataon 42
onga 42
▁mena 42
ât 42
leh 42
▁cré 42
dda 42
▁Carlos 42
Ni 42
gled 42
▁Kai 42
▁Company 42
cine 42
▁180 42
gam 42
mez 42
क्_hi 42
ये 42
▁फ_hi 42
▁र_hi 42
▁होगा 42
मि 42
▁प्राप्त 42
▁हर 42
▁a_bs 42
▁Reci 42
▁informacija 42
▁članku 42
▁jedna 42
▁proda 42
heim 42
▁nev 42
jati 42
▁neki 42
iranje 42
▁znači 42
ič 42
šte 42
pio 42
▁trgov 42
▁pila 42
▁slučaju 42
▁miks 42
▁koko 42
eerde 42
Feb 42
▁ou 42
▁vere 42
▁né 42
▁enga 42
▁però 42
mata 42
▁entre 42
tes_ca 42
orna 42
▁era 42
ixo 42
tza 42
▁fó 42
▁reproduc 42
服务 42
经 42
加强 42
制 42
至 42
害 42
保 42
无 42
交 42
▁പോ 42
ച 42
▁ഓ 42
ෙක් 42
හු 42
▁එන්න 42
සු 42
▁මා 42
▁በአ 42
▁ፈ 42
ሞች 42
ሎ 42
▁እነዚያን 42
▁му_mk 42
бод 42
мисли 42
▁ако 42
▁но_mk 42
би_mk 42
▁Ако 42
вал 42
▁За_mk 42
воз 42
▁топ 42
▁диск 42
ек 42
ез 42
▁گئے 42
▁مان 42
ہر 42
▁باز 42
▁کش 42
▁ز 42
یر 42
سرا 42
▁نا_ur 42
خان 42
▁وه_ur 42
1⁄2 42
ائب 42
لان 42
فضل 42
▁még 42
ző 42
▁elle 42
▁Ö 42
▁Thomas 42
tatt 42
uile 42
▁DNA 42
dı_tr 42
iş 42
an_tr 42
ının 42
ık 42
şa 42
▁gele 42
izza 42
siz 42
▁Resim 42
ZI 42
▁yalan 42
▁Nee 42
▁Sonra 42
im_sr 42
▁од 42
æi 42
▁a_sr 42
ve_sr 42
ра 42
▁fa_gl 42
▁des_gl 42
▁meu_gl 42
arios 42
▁Está 42
almente 42
arse 42
▁plac 42
ek_nl 42
▁doen 42
▁ale_sk 42
kým 42
de_sk 42
▁mohl 42
dy_sk 42
.4. 42
ပဲ 42
ရေးယူ 42
မည် 42
▁by_pl 42
ze_pl 42
szy 42
▁Tak_pl 42
▁praw 42
łu 42
łem 42
يا_ug 42
منى 42
▁ئەڭ 42
ار_ug 42
ەڭ 42
ىمەن 42
لىقى 42
▁قىز 42
▁سا_ug 42
مايدۇ 42
▁شۇ 42
▁سېنىڭ 42
ماي_ug 42
ۇر 42
را_ug 42
[...]
