. 100
▁ 100
, 100
s 100
- 100
? 100
a 100
▁( 100
▁- 100
) 100
i 100
' 100
e 100
▁a 100
: 100
▁de 100
t 100
! 100
o 100
n 100
u 100
▁i 100
... 100
، 100
m 100
d 100
▁da 100
r 100
▁na 100
en 100
▁in 100
▁و 100
▁la 100
▁u 100
▁se 100
y 100
▁" 100
▁to 100
er 100
ه 100
/ 100
▁e 100
ny 100
▁en 100
▁je 100
▁፡ 100
▁l 100
▁o 100
; 100
▁ne 100
te 100
▁I 100
▁A 100
k 100
▁ta 100
an 100
na 100
▁اور 100
▁% 100
▁an 100
▁the 100
l 100
in 100
▁ny 100
la 100
h 100
▁que 100
ta 100
▁un 100
▁do 100
" 100
ar 100
▁s 100
z 100
es 100
ne 100
ti 100
g 100
▁به 100
c 100
▁di 100
и 100
▁d 100
de 100
j 100
▁er 100
ni 100
ma 100
▁za 100
b 100
▁_ 100
’ 100
da 100
re 100
le 100
as 100
▁1 100
▁le 100
▁্ 100
▁li 100
_ 100
▁du 100
▁sa 100
▁for 100
ی 100
▁no 100
▁su 100
▁& 100
p 100
▁S 100
▁is 100
▁) 100
et 100
ja 100
▁of 100
▁te 100
▁на 100
to 100
▁ar 100
li 100
▁کے 100
▁me 100
а 100
▁si 100
▁po 100
的 100
▁ہے 100
▁که 100
ka 100
▁on 100
م 100
▁be 100
▁et 100
е 100
no 100
▁mi 100
se 100
ko 100
me 100
▁O 100
▁E 100
je 100
▁ir 100
al 100
। 100
▁ده 100
▁ئه 100
ም 100
lo 100
f 100
▁tal 100
▁v 100
is 100
v 100
▁کی 100
ra 100
st 100
▁سے 100
▁له 100
▁ku 100
os 100
▁وه 100
si 100
▁ka 100
ku 100
▁не 100
▁да 100
ve 100
▁ma 100
% 100
mi 100
м 100
▁میں 100
▁« 100
▁в 100
。 100
▁L 100
▁C 100
▁el 100
▁и 100
ed 100
ba 100
us 100
▁ja 100
▁تو 100
▁and 100
у 100
▁کو 100
A 100
( 100
▁z 100
▁des 100
▁të 100
▁Ne 100
▁m 100
ga 100
S 100
on 100
ن 100
▁at 100
ke 100
va 100
di 100
▁die 100
▁al 100
▁il 100
▁y 100
ing 100
▁per 100
ci 100
ge 100
▁det 100
x 100
do 100
it 100
▁2 100
▁ga 100
га 100
▁amin 100
▁van 100
▁og 100
ي 100
▁ان 100
▁за 100
▁ва 100
▁K 100
▁# 100
ch 100
w 100
▁! 100
▁ی 100
▁n 100
ce 100
▁اس 100
at 100
sa 100
▁ho 100
ri 100
▁De 100
▁od 100
il 100
▁t 100
Name 100
و 100
▁vi 100
tu 100
▁som 100
ни 100
ت 100
▁U 100
om 100
н 100
š 100
▁с 100
▁til 100
▁' 100
ki 100
▁b 100
be 100
й 100
ha 100
▁ni 100
ju 100
▁هه 100
ca 100
▁по 100
▁है 100
▁ba 100
▁re 100
▁نے 100
▁you 100
ten 100
▁so 100
▁M 100
▁ر 100
ን 100
؟ 100
▁B 100
▁کہ 100
mo 100
em 100
▁ha 100
▁les 100
▁der 100
▁con 100
▁den 100
▁ن 100
т 100
é 100
im 100
ر 100
▁fa 100
▁f 100
▁om 100
▁på 100
▁av 100
wa 100
▁bir 100
ak 100
▁To 100
am 100
▁م 100
▁और 100
ir 100
▁No 100
л 100
▁ti 100
▁االله 100
▁D 100
í 100
ho 100
▁Allah 100
▁La 100
▁N 100
▁med 100
▁ki 100
я 100
▁ya 100
▁c 100
▁ہیں 100
ur 100
да 100
▁k 100
▁har 100
▁। 100
mu 100
نى 100
▁à 100
▁Na 100
▁par 100
▁من 100
▁bi 100
▁es 100
zi 100
▁tu 100
C 100
▁pa 100
▁T 100
za 100
ng 100
▁iz 100
ш 100
▁ver 100
ro 100
▁G 100
ly 100
id 100
▁P 100
▁var 100
▁– 100
▁kgm 100
▁kan 100
▁تم 100
▁3 100
р 100
go 100
▁جو 100
ة 100
den 100
с 100
▁F 100
▁ke 100
▁V 100
▁وہ 100
I 100
▁it 100
▁ce 100
▁е 100
ش 100
▁del 100
▁پر 100
▁се 100
du 100
▁ko 100
к 100
ə 100
▁op 100
▁کا 100
▁h 100
на 100
▁ال 100
kan 100
▁af 100
▁ки 100
та 100
▁p 100
▁name 100
▁... 100
vi 100
ا 100
▁para 100
el 100
▁ت 100
un 100
ter 100
ка 100
не 100
▁ба 100
▁Se 100
▁sam 100
和 100
▁as 100
ل 100
▁Ma 100
の 100
B 100
▁dia 100
、 100
▁not 100
po 100
র 100
▁g 100
▁ge 100
ai 100
▁nie 100
ā 100
ment 100
▁(_ 100
á 100
▁En 100
▁pre 100
bo 100
ek 100
▁yang 100
▁kuma 100
▁у 100
lu 100
▁lo 100
nu 100
ą 100
▁Mi 100
▁ikke 100
▁pri 100
nya 100
▁“ 100
bi 100
▁por 100
▁’ 100
der 100
▁Da 100
х 100
▁və 100
dan 100
ে 100
▁@ 100
ul 100
▁w 100
M 100
▁Ja 100
▁के 100
▁نه 100
▁160; 100
▁pe 100
q 100
2 100
ы 100
or 100
лар 100
▁dan 100
ৰ 100
T 100
gi 100
pa 100
▁Le 100
ty 100
we 100
▁um 100
ли 100
▁é 100
▁jo 100
но 100
▁pro 100
▁het 100
د 100
um 100
ان 100
lar 100
دا 100
▁Po 100
E 100
▁mu 100
ya 100
▁سه 100
о 100
▁вә 100
H 100
▁Vi 100
▁und 100
ver 100
▁we 100
▁ہم 100
▁sy 100
ų 100
▁R 100
▁co 100
vo 100
ad 100
▁Det 100
] 100
▁In 100
يەنى 100
▁H 100
▁کر 100
ste 100
▁Si 100
sta 100
▁Je 100
ের 100
▁ب 100
▁[ 100
▁go 100
ро 100
дан 100
ন 100
ll 100
." 100
▁: 100
tra 100
▁Sa 100
man 100
▁Du 100
▁» 100
N 100
ik 100
ji 100
▁ra 100
jo 100
D 100
he 100
City 100
» 100
▁att 100
ം 100
▁5 100
fa 100
▁ve 100
▁اللہ 100
ina 100
P 100
ã 100
▁Do 100
▁Ya 100
ك 100
を 100
▁by 100
ب 100
に 100
ات 100
▁? 100
▁bo 100
в 100
O 100
ie 100
▁che 100
▁نہیں 100
nt 100
وں 100
3 100
न 100
pe 100
dir 100
▁una 100
▁ei 100
▁that 100
1 100
▁аз 100
▁pas 100
▁4 100
▁tak 100
▁"% 100
F 100
ى 100
▁بۆ 100
▁Jeg 100
те 100
ú 100
▁va 100
▁في 100
▁nu 100
▁کیا 100
▁fi 100
ž 100
ut 100
▁bu 100
▁یہ 100
@ 100
▁یه 100
▁να 100
ла 100
▁نہ 100
ны 100
▁uz 100
▁agus 100
▁em 100
▁he 100
▁Pa 100
▁ہو 100
▁से 100
▁Ta 100
ze 100
ক 100
▁በ 100
▁10 100
zo 100
tar 100
est 100
▁خوا 100
sh 100
co 100
G 100
نىڭ 100
п 100
त 100
pi 100
▁ao 100
то 100
▁com 100
▁1. 100
▁Be 100
▁ca 100
fi 100
▁ez 100
▁، 100
so 100
ia 100
ю 100
▁Re 100
à 100
ren 100
▁Аллаһ 100
▁Li 100
▁å 100
ত 100
は 100
▁ۋە 100
▁о 100
з 100
ди 100
▁Не 100
▁में 100
д 100
▁non 100
▁ireo 100
▁eta 100
▁mai 100
th 100
▁daga 100
▁Kuma 100
ز 100
ana 100
bu 100
پ 100
б 100
▁r 100
gen 100
ler 100
在 100
ہ 100
ми 100
▁от 100
▁för 100
▁የ 100
▁Te 100
ा 100
ва 100
क 100
ן 100
ine 100
▁तो 100
ти 100
▁я 100
▁د 100
ä 100
▁och 100
▁An 100
▁am 100
▁man 100
▁že 100
▁А 100
▁Bu 100
ς 100
io 100
▁ađ 100
▁her 100
” 100
▁को 100
دىن 100
▁fil 100
▁në 100
نا 100
▁की 100
▁Me 100
ት 100
▁һәм 100
▁was 100
ck 100
V 100
ки 100
K 100
ş 100
▁ئۇلار 100
ق 100
hi 100
▁men 100
men 100
▁ri 100
▁ме 100
이 100
L 100
ts 100
". 100
ме 100
su 100
▁W 100
▁до 100
▁белән 100
ी 100
ë 100
▁С 100
▁är 100
▁Z 100
ot 100
nie 100
▁Ka 100
▁tsy 100
▁У 100
г 100
ih 100
▁په 100
U 100
▁jeg 100
▁mar 100
▁os 100
ल 100
zu 100
▁'% 100
が 100
▁The 100
▁vai 100
▁។ 100
▁yi 100
sti 100
▁los 100
▁á 100
ê 100
ol 100
▁az 100
▁X 100
▁kas 100
▁ber 100
▁Ва 100
▁label 100
▁گه 100
Comment 100
▁ეა 100
ru 100
▁We 100
▁een 100
ant 100
을 100
▁ser 100
4 100
▁ju 100
▁го 100
ation 100
了 100
gu 100
▁për 100
og 100
ле 100
े 100
ем 100
▁Tu 100
▁الم 100
▁hi 100
▁بىلەن 100
ට 100
▁گے 100
▁во 100
:% 100
ger 100
ব 100
▁он 100
▁dat 100
▁Il 100
▁Al 100
▁Co 100
ita 100
ма 100
iz 100
▁з 100
غا 100
ima 100
▁or 100
▁ze 100
▁sin 100
▁לא 100
र 100
ے 100
▁kon 100
▁/ 100
R 100
▁আর 100
ven 100
ok 100
س 100
▁از 100
▁না 100
യ 100
от 100
▁Ha 100
▁pod 100
▁со 100
▁Za 100
ই 100
▁Nu 100
▁ili 100
مان 100
ky 100
ම 100
▁Я 100
ና 100
ч 100
▁си 100
▁رو 100
▁Kuri 100
dy 100
▁im 100
ம் 100
▁6 100
ov 100
▁कि 100
▁Ho 100
▁Ni 100
▁He 100
è 100
▁بھی 100
ية 100
", 100
▁का 100
▁Ti 100
▁ה 100
ку 100
▁sem 100
▁το 100
تا 100
▁при 100
▁cu 100
▁خدا 100
▁أ 100
स 100
sz 100
tur 100
▁din 100
hu 100
▁zu 100
▁את 100
де 100
▁12 100
ach 100
▁Y 100
né 100
▁ти 100
▁sur 100
ە 100
▁ye 100
ud 100
au 100
han 100
ent 100
▁all 100
ó 100
▁meg 100
5 100
▁min 100
vu 100
ă 100
ite 100
ها 100
▁ما 100
ен 100
▁han 100
▁бар 100
▁19 100
ry 100
▁là 100
cu 100
▁vil 100
ده 100
▁dhe 100
▁Ar 100
ു 100
ig 100
W 100
▁что 100
Y 100
▁mal 100
ye 100
▁ein 100
് 100
lah 100
▁jew 100
by 100
▁să 100
▁Oh 100
یان 100
▁fl 100
▁au 100
▁El 100
tion 100
ken 100
▁¿ 100
▁ob 100
▁Ge 100
kin 100
▁qui 100
▁kau 100
ej 100
ere 100
▁kad 100
▁és 100
▁wa 100
▁7 100
▁So 100
▁20 100
▁מ 100
मा 100
▁shi 100
▁aku 100
▁fan 100
▁در 100
▁est 100
ה 100
ks 100
▁न 100
▁mit 100
ح 100
▁over 100
▁Di 100
▁yn 100
▁дар 100
▁ci 100
▁а 100
▁ми 100
▁with 100
ske 100
▁không 100
▁اپنے 100
iti 100
▁Ku 100
sk 100
▁Er 100
▁pour 100
স 100
▁ist 100
ો 100
▁” 100
ę 100
▁ter 100
ais 100
▁Aku 100
▁met 100
ben 100
ker 100
▁info 100
▁are 100
▁have 100
▁پھر 100
▁ከ 100
che 100
▁ته 100
per 100
tan 100
▁8 100
▁ap 100
▁وانه 100
▁ch 100
ning 100
는 100
iem 100
▁ش 100
▁Lo 100
▁И 100
ý 100
কে 100
▁this 100
▁প 100
▁də 100
▁inte 100
年 100
oj 100
sin 100
ada 100
ল 100
ද 100
▁can 100
▁لا 100
▁যে 100
▁Ver 100
▁из 100
▁Ik 100
ska 100
kar 100
lik 100
і 100
▁von 100
▁tamin 100
▁Es 100
ber 100
ӣ 100
optional 100
lan 100
ി 100
को 100
▁О 100
▁br 100
ama 100
▁ut 100
que 100
▁گا 100
▁akan 100
▁नहीं 100
▁ل 100
mos 100
▁אני 100
▁ik 100
▁suka 100
ند 100
aj 100
са 100
▁în 100
▁Ra 100
▁You 100
น 100
ez 100
ል 100
▁mo 100
ton 100
▁need 100
▁tra 100
tas 100
▁tidak 100
▁ነው 100
▁ნვ 100
▁så 100
tt 100
▁Ko 100
ire 100
ат 100
▁ہی 100
ini 100
▁ou 100
ż 100
▁2. 100
▁į 100
ç 100
▁Jo 100
▁għall 100
ов 100
ول 100
ِ 100
人 100
ने 100
▁бер 100
▁про 100
是 100
▁J 100
म 100
▁tre 100
വ 100
ව 100
▁را 100
ang 100
дер 100
č 100
tro 100
fe 100
æ 100
▁تا 100
▁ي 100
min 100
▁می 100
че 100
▁uku 100
ou 100
gar 100
ria 100
bar 100
▁nem 100
era 100
य 100
▁có 100
0 100
▁Non 100
▁к 100
▁las 100
▁izay 100
ati 100
▁вы 100
▁bat 100
به 100
▁dans 100
ী 100
дир 100
▁tar 100
▁أن 100
▁В 100
▁مي 100
tes 100
ran 100
î 100
خ 100
▁15 100
ло 100
▁x 100
ь 100
▁— 100
ो 100
nde 100
α 100
▁itu 100
▁my 100
▁করে 100
ner 100
ile 100
ं 100
▁זה 100
▁ви 100
ist 100
▁lu 100
▁και 100
mas 100
či 100
анд 100
нинг 100
▁जो 100
لا 100
▁نىڭ 100
sen 100
он 100
tta 100
▁Mo 100
ې 100
െ 100
▁voor 100
ть 100
▁हो 100
▁Ég 100
ത 100
▁ste 100
▁It 100
▁abin 100
▁që 100
ри 100
ic 100
▁এই 100
isi 100
▁eller 100
▁од 100
▁tôi 100
▁Su 100
▁அ 100
▁এবং 100
ü 100
son 100
▁9 100
▁0 100
ali 100
dən 100
ين 100
kon 100
에 100
lle 100
க் 100
ster 100
▁با 100
Z 100
가 100
▁iš 100
ган 100
का 100
land 100
▁Per 100
▁ji 100
ung 100
▁ב 100
▁í 100
▁මම 100
ң 100
نے 100
nd 100
ari 100
ча 100
۔ 100
▁bil 100
▁ary 100
▁جس 100
wi 100
ው 100
▁ҳам 100
len 100
▁ایک 100
▁zo 100
প 100
▁तुम 100
my 100
ко 100
ә 100
ра 100
▁አ 100
ом 100
aren 100
ய 100
op 100
▁11 100
▁fra 100
▁جب 100
ப் 100
▁ვ 100
ban 100
ion 100
đ 100
▁ל 100
േ 100
10 100
▁На 100
ા 100
ون 100
▁Bo 100
▁Да 100
= 100
▁niet 100
か 100
▁бир 100
ireo 100
▁पर 100
vis 100
▁Con 100
යි 100
ും 100
▁والا 100
ω 100
▁skal 100
் 100
지 100
): 100
eg 100
nje 100
ম 100
▁minn 100
▁any 100
▁ini 100
BAR 100
tal 100
tor 100
ж 100
▁ნა 100
▁një 100
प 100
▁mig 100
க்க 100
მ 100
▁don 100
ser 100
▁өчен 100
▁Nie 100
▁Pro 100
മ 100
fo 100
во 100
ene 100
▁Die 100
ski 100
து 100
ers 100
▁کرتے 100
▁mill 100
ст 100
▁Dan 100
不 100
ado 100
▁اگر 100
▁się 100
fer 100
ع 100
ი 100
▁ڕاستی 100
ò 100
tre 100
6 100
▁کوئی 100
od 100
lig 100
yo 100
ब 100
ҳ 100
▁gi 100
nih 100
▁তাদের 100
▁30 100
қ 100
ست 100
rik 100
▁ا 100
▁zi 100
▁une 100
▁لوگ 100
▁ли 100
▁ላይ 100
▁translation 100
▁आ 100
▁kun 100
▁हैं 100
ที่ 100
▁pi 100
▁कर 100
مۇ 100
ní 100
▁bã 100
nda 100
ር 100
▁sta 100
▁бу 100
ara 100
▁س 100
▁Jag 100
▁गर्नुहोस् 100
▁For 100
▁saya 100
▁till 100
ите 100
▁Ba 100
ise 100
van 100
▁što 100
▁kwi 100
ο 100
ata 100
)، 100
▁روه 100
õ 100
ед 100
▁мо 100
gan 100
▁għal 100
ды 100
си 100
▁Un 100
▁ali 100
▁Fa 100
nja 100
▁അ 100
ال 100
jen 100
vel 100
▁does 100
ele 100
▁அவர்கள் 100
▁جا 100
wo 100
▁По 100
dar 100
▁एक 100
▁vo 100
ോ 100
las 100
ला 100
ვ 100
val 100
▁ჟვ 100
▁das 100
න් 100
lla 100
com 100
▁dit 100
ு 100
yi 100
ပါ 100
sto 100
ج 100
ndo 100
তে 100
gy 100
ам 100
nim 100
▁خ 100
ও 100
ა 100
▁„ 100
és 100
▁your 100
ת 100
ili 100
だ 100
▁On 100
گە 100
ก 100
▁koji 100
▁على 100
▁nan 100
▁لئے 100
des 100
ट 100
▁nga 100
ስ 100
les 100
▁ул 100
ک 100
▁qu 100
ย 100
ले 100
▁dem 100
ንም 100
▁আমি 100
▁آپ 100
чи 100
▁ekki 100
دۇر 100
と 100
▁አላህ 100
▁ag 100
ъ 100
▁Худо 100
▁ও 100
qu 100
mer 100
ह 100
▁Mu 100
▁will 100
چ 100
有 100
ү 100
rá 100
гә 100
ता 100
য় 100
ین 100
ක් 100
▁បាន 100
▁tas 100
▁مه 100
pu 100
cha 100
ila 100
are 100
ил 100
▁gare 100
▁За 100
▁نا 100
res 100
▁son 100
ción 100
tzen 100
▁estas 100
ό 100
▁طرف 100
வ 100
action 100
kom 100
ft 100
ف 100
ide 100
▁KDE 100
▁nó 100
▁vy 100
ré 100
▁អ្នក 100
ista 100
▁alle 100
če 100
▁ئۇلارنىڭ 100
ı 100
var 100
▁è 100
い 100
▁pu 100
اً 100
▁ይ 100
▁http 100
▁ការ 100
▁ru 100
▁j 100
▁Han 100
nom 100
rin 100
▁Men 100
ি 100
int 100
▁би 100
lin 100
tha 100
ль 100
ή 100
▁دو 100
ў 100
▁untuk 100
ကို 100
del 100
▁14 100
ē 100
▁18 100
▁အ 100
▁تمہارے 100
▁4. 100
ô 100
ika 100
ো 100
ет 100
ส 100
ਰ 100
▁دا 100
▁Ke 100
▁நீங்கள் 100
▁uma 100
▁Sie 100
ні 100
ना 100
▁ئۇ 100
▁não 100
ام 100
▁është 100
▁hogy 100
▁probably 100
تان 100
▁ad 100
го 100
▁sal 100
ap 100
व 100
▁Ve 100
▁mis 100
▁Nr 100
ac 100
▁mereka 100
ص 100
▁بر 100
▁cho 100
▁است 100
ure 100
▁Ri 100
ી 100
ों 100
ţi 100
ба 100
ئ 100
å 100
▁Bya 100
요 100
რ 100
▁то 100
ala 100
▁Ny 100
▁fer 100
ים 100
dır 100
를 100
▁cikin 100
یه 100
за 100
ah 100
▁তারা 100
▁ჱა 100
▁And 100
ල 100
▁ដែល 100
▁ያ 100
ć 100
▁< 100
ும் 100
ದ 100
ര 100
که 100
▁City 100
な 100
ј 100
▁Gu 100
▁με 100
pp 100
00 100
▁ako 100
ේ 100
нең 100
ин 100
த 100
▁(% 100
▁بىر 100
“ 100
▁είναι 100
ži 100
ం 100
▁છે 100
▁ин 100
تے 100
ň 100
tos 100
▁ved 100
ක 100
▁رب 100
은 100
▁ben 100
▁aan 100
иш 100
▁те 100
ви 100
ля 100
▁ඔයා 100
▁tao 100
▁Pre 100
▁ex 100
▁য 100
▁ئۈچۈن 100
ා 100
▁کچھ 100
▁ها 100
inn 100
ela 100
▁ai 100
▁Mar 100
▁для 100
▁वह 100
ī 100
imo 100
▁3. 100
ु 100
▁tr 100
도 100
ല 100
▁ama 100
▁ro 100
▁अ 100
고 100
▁hu 100
▁Ez 100
ҳо 100
ئى 100
▁16 100
ķ 100
cie 100
▁este 100
ты 100
▁dig 100
▁from 100
the 100
▁бо 100
▁لوگوں 100
ida 100
で 100
ይ 100
ν 100
نه 100
ما 100
▁ایمان 100
X 100
án 100
▁че 100
sel 100
ron 100
nia 100
lə 100
9 100
▁την 100
▁جن 100
▁ک 100
▁mãsu 100
▁Ga 100
ona 100
▁об 100
▁Um 100
8 100
▁మీరు 100
▁Lu 100
7 100
ше 100
의 100
▁13 100
ά 100
▁como 100
sten 100
ura 100
▁Is 100
▁USA 100
pen 100
غ 100
ās 100
ด 100
tin 100
иб 100
ร 100
▁سب 100
ity 100
▁Ro 100
ે 100
▁25 100
ná 100
12 100
uk 100
ને 100
▁th 100
▁jag 100
ι 100
ec 100
▁انہیں 100
им 100
▁но 100
hy 100
ქ 100
▁kom 100
▁Pri 100
▁♪ 100
uz 100
▁dengan 100
hen 100
▁ма 100
tte 100
зи 100
▁nuk 100
▁কৰক 100
▁लिए 100
▁თ 100
▁ব 100
let 100
▁г 100
ล 100
▁Bi 100
▁Ca 100
ən 100
▁më 100
▁izany 100
িত 100
mar 100
▁الله 100
ì 100
ál 100
对 100
tet 100
ff 100
ლ 100
▁Biz 100
قا 100
▁under 100
▁К 100
ර 100
▁sen 100
ය 100
mat 100
▁pot 100
▁Fi 100
pro 100
دى 100
ை 100
▁ڵ 100
▁sai 100
▁ك 100
že 100
ып 100
▁anh 100
ار 100
ು 100
▁dos 100
▁see 100
▁Ki 100
ale 100
▁egy 100
ר 100
▁că 100
xa 100
ť 100
red 100
▁ही 100
▁بێت 100
وا 100
san 100
▁για 100
▁ten 100
ф 100
nan 100
▁па 100
▁Airteagal 100
▁Mai 100
мен 100
دە 100
یں 100
▁må 100
▁17 100
ė 100
▁kasance 100
▁> 100
▁action 100
ги 100
يا 100
▁pos 100
▁اين 100
ру 100
ʻ 100
lt 100
ami 100
nik 100
ů 100
一 100
▁kita 100
▁koje 100
ре 100
ção 100
න 100
▁nicht 100
ൂ 100
▁ہوں 100
▁fe 100
tik 100
ει 100
az 100
ได้ 100
▁bar 100
த்த 100
▁mas 100
▁ich 100
net 100
ši 100
▁تھے 100
ಯ 100
我 100
vin 100
gt 100
▁up 100
ся 100
▁auf 100
י 100
▁অ 100
nak 100
▁Man 100
nos 100
টি 100
▁ئا 100
না 100
▁ég 100
▁நிச்சயமாக 100
▁tri 100
▁ჟ 100
له 100
uje 100
ын 100
▁Tak 100
▁raz 100
▁دیا 100
ef 100
ม 100
▁یا 100
ರ 100
ാ 100
ني 100
ّ 100
▁kā 100
▁του 100
▁Аллоҳ 100
for 100
▁му 100
บ 100
ไป 100
mp 100
ว่า 100
ே 100
▁আল 100
ira 100
▁কৰা 100
اس 100
▁স 100
nar 100
▁یان 100
ның 100
ל 100
das 100
ገ 100
ей 100
▁Va 100
ES 100
ер 100
par 100
▁Am 100
▁سو 100
▁Pe 100
ну 100
▁যা 100
ക 100
▁come 100
▁ഒരു 100
bil 100
▁под 100
ın 100
▁كه 100
up 100
мо 100
▁भी 100
nes 100
▁dé 100
▁gu 100
ex 100
▁plan 100
▁કરો 100
▁সে 100
ib 100
ksi 100
ते 100
ende 100
▁قا 100
дыр 100
ām 100
▁ოჲ 100
▁kor 100
▁дип 100
ige 100
tel 100
ens 100
thi 100
▁für 100
?" 100
ova 100
▁আ 100
▁Et 100
ğ 100
сы 100
nye 100
▁apa 100
itu 100
▁title 100
▁nije 100
▁Har 100
ica 100
ich 100
▁amb 100
ర్ 100
▁but 100
ਨ 100
中 100
▁са 100
▁sh 100
ත් 100
ድ 100
▁θα 100
▁Ju 100
сти 100
▁vir 100
▁waɗanda 100
ate 100
▁kamu 100
▁Em 100
isa 100
ல 100
▁ty 100
▁پ 100
▁ق 100
▁ره 100
të 100
▁Ce 100
▁Ch 100
রা 100
▁کرنے 100
әр 100
▁get 100
▁tam 100
nga 100
▁করা 100
▁تمہیں 100
kho 100
20 100
▁Que 100
ling 100
▁ты 100
া 100
uri 100
▁pra 100
ि 100
▁بىز 100
▁Kon 100
J 100
ว 100
ക്ക 100
▁так 100
어 100
لى 100
▁eo 100
▁اون 100
▁இ 100
azzjoni 100
▁لیے 100
тер 100
ħ 100
ለ 100
▁Ei 100
თ 100
lər 100
té 100
▁üçün 100
ப்ப 100
het 100
ෙ 100
dos 100
xi 100
▁far 100
▁sve 100
▁program 100
▁está 100
▁As 100
▁അവര്‍ 100
▁ska 100
▁kar 100
▁item 100
▁خه 100
▁دن 100
ത് 100
▁کرو 100
ия 100
▁us 100
pan 100
리 100
▁এটা 100
▁avy 100
▁аст 100
din 100
mente 100
▁থেকে 100
上 100
ته 100
▁wy 100
▁מה 100
▁lalle 100
ip 100
▁out 100
▁我 100
▁ആ 100
▁Tôi 100
ag 100
▁কি 100
iv 100
ld 100
لىرى 100
ně 100
▁Е 100
▁Q 100
▁samo 100
▁just 100
▁ئێمه 100
▁کان 100
▁ur 100
▁ھەقىقەتەن 100
▁፤ 100
ande 100
▁tat 100
се 100
انه 100
▁ezi 100
▁era 100
▁res 100
ע 100
Stock 100
▁has 100
▁ré 100
▁kao 100
zen 100
▁මට 100
:// 100
▁بار 100
mme 100
nog 100
▁раз 100
kt 100
con 100
▁που 100
ab 100
elle 100
ләр 100
cio 100
▁دی 100
▁už 100
க 100
ito 100
лари 100
▁seo 100
▁-- 100
će 100
▁als 100
▁باو 100
iste 100
▁24 100
ର 100
tri 100
ס 100
გ 100
▁قىلغان 100
ί 100
ċi 100
▁ست 100
▁know 100
μ 100
▁Dia 100
ھ 100
▁they 100
▁ahụ 100
▁നിങ്ങള്‍ 100
▁என்று 100
▁100 100
dat 100
▁của 100
ம 100
▁esi 100
▁opp 100
ата 100
▁tan 100
▁يا 100
η 100
তা 100
द 100
▁comp 100
nis 100
▁دے 100
pri 100
เป็น 100
▁Go 100
▁fel 100
च 100
▁vor 100
kel 100
▁ada 100
रा 100
▁መ 100
iko 100
▁της 100
গ 100
bra 100
лу 100
▁ฉัน 100
ту 100
лик 100
vé 100
ọ 100
mes 100
କୁ 100
nin 100
▁నేను 100
▁та 100
ர் 100
ര്‍ 100
हरू 100
ની 100
qui 100
ой 100
▁nə 100
ו 100
▁kako 100
▁fuq 100
har 100
af 100
▁Den 100
▁ש 100
▁Мо 100
▁ने 100
▁የሚ 100
มา 100
ке 100
ნა 100
▁eu 100
▁کہا 100
ર 100
▁تی 100
▁алар 100
ड 100
ۆ 100
għ 100
ା 100
ज 100
يد 100
▁hoe 100
ación 100
gin 100
ola 100
▁이 100
▁માટે 100
▁iray 100
▁এ 100
ै 100
▁że 100
nta 100
▁प 100
rar 100
▁বা 100
▁Kau 100
met 100
▁स 100
uma 100
▁ara 100
ሉ 100
த் 100
ovi 100
▁র 100
▁Nem 100
اد 100
ring 100
jar 100
▁നീ 100
▁؟ 100
▁ত 100
▁EU 100
تى 100
ო 100
EK 100
▁Ben 100
▁zijn 100
▁+ 100
▁dar 100
ور 100
ー 100
라 100
▁dis 100
▁سر 100
tam 100
ша 100
ice 100
ሳ 100
до 100
ici 100
ance 100
▁mg 100
▁ikkje 100
able 100
mon 100
দের 100
▁تۆ 100
দ 100
▁tro 100
ላ 100
▁pen 100
av 100
▁بۇ 100
ard 100
▁* 100
yan 100
▁пре 100
▁اسے 100
لىق 100
▁kwe 100
▁بێ 100
▁پس 100
▁ќе 100
▁Kan 100
tter 100
▁pat 100
añ 100
▁gada 100
11 100
로 100
ras 100
▁them 100
▁তার 100
port 100
▁kur 100
▁like 100
ต 100
▁ת 100
ł 100
▁đã 100
▁і 100
bh 100
ാണ് 100
ค 100
תי 100
ਲ 100
▁بے 100
▁как 100
▁وال 100
▁smo 100
pre 100
ረ 100
zione 100
্ 100
▁это 100
▁дека 100
nek 100
រ 100
▁بن 100
una 100
▁Г 100
▁پێ 100
▁ūađ 100
adh 100
ط 100
ato 100
▁dari 100
ू 100
▁ale 100
bri 100
第 100
ị 100
ന 100
▁lai 100
ũ 100
ġ 100
▁wani 100
nte 100
▁آ 100
вер 100
▁str 100
▁Ber 100
্য 100
use 100
▁tai 100
▁π 100
კა 100
▁ئۇلارغا 100
ava 100
▁Saya 100
ง 100
rt 100
kor 100
▁ඒක 100
▁आहे 100
far 100
会 100
ម 100
ُ 100
წ 100
▁sobre 100
cia 100
▁vol 100
ell 100
你 100
ர 100
ime 100
лык 100
▁wanda 100
▁bet 100
▁سىلەر 100
▁زمین 100
fu 100
大 100
ନ 100
▁Por 100
vat 100
ão 100
19 100
▁deg 100
كى 100
▁Но 100
▁μου 100
ий 100
▁Ali 100
jer 100
ting 100
も 100
▁Canada 100
ਾ 100
log 100
▁அல்லாஹ் 100
▁22 100
ille 100
lja 100
ур 100
ස් 100
▁אתה 100
为 100
يم 100
▁والے 100
▁ud 100
▁dwar 100
ram 100
ns 100
▁Ул 100
▁فه 100
▁21 100
▁што 100
▁All 100
▁kaj 100
শ 100
▁air 100
َ 100
▁چ 100
นะ 100
▁پاس 100
ύ 100
dig 100
▁inter 100
จะ 100
▁Д 100
lé 100
lá 100
▁vel 100
▁ጊዜ 100
▁هذا 100
▁time 100
▁اپنی 100
▁بکه 100
▁É 100
Q 100
▁his 100
▁Б 100
ини 100
dik 100
ies 100
▁kai 100
▁Kom 100
▁ক 100
ჳ 100
cy 100
▁Ab 100
ub 100
▁sunã 100
वा 100
▁த 100
ט 100
▁će 100
▁لێ 100
ei 100
дә 100
bre 100
▁II 100
▁50 100
át 100
▁dá 100
▁vas 100
კ 100
▁şi 100
ete 100
ב 100
ить 100
よ 100
vad 100
▁leis 100
ris 100
ብ 100
▁дә 100
▁Allahın 100
▁izy 100
▁val 100
set 100
www 100
», 100
ित 100
▁ту 100
▁sie 100
ില്‍ 100
ци 100
▁đi 100
gel 100
mis 100
▁sẽ 100
▁voi 100
of 100
▁ئێوه 100
ወ 100
ssa 100
▁إلى 100
▁san 100
50 100
ിയ 100
ಿ 100
▁jest 100
uar 100
ix 100
月 100
▁biti 100
များ 100
▁عذاب 100
സ 100
£ 100
▁لل 100
▁nke 100
uta 100
nder 100
ρ 100
▁Der 100
▁موو 100
Regolament 100
▁kal 100
ian 100
– 100
▁what 100
▁ക 100
15 100
რვ 100
asa 100
ම් 100
▁pie 100
အ 100
ад 100
▁ná 100
ları 100
লে 100
▁ни 100
▁ham 100
▁tot 100
▁tik 100
sse 100
rit 100
ble 100
ве 100
▁આ 100
end 100
лы 100
sam 100
▁Ба 100
来 100
▁Od 100
▁nav 100
▁Lalle 100
▁៖ 100
▁ለ 100
▁გ 100
▁yra 100
С 100
▁ჟთ 100
▁Ama 100
▁लोग 100
ታ 100
kk 100
ça 100
ნთ 100
еп 100
ën 100
▁ஒரு 100
▁oli 100
+ 100
đi 100
▁gra 100
って 100
▁orang 100
▁one 100
iden 100
sp 100
му 100
▁مع 100
ret 100
▁এক 100
ન 100
▁bez 100
▁¡ 100
▁ਹੈ 100
اء 100
leg 100
▁δεν 100
же 100
▁τα 100
▁булган 100
▁Коръән 100
▁bere 100
က 100
▁Аллаһуга 100
ி 100
▁হ 100
▁א 100
▁वे 100
▁wat 100
▁war 100
ел 100
nen 100
رى 100
ных 100
نی 100
one 100
gre 100
lat 100
ino 100
ər 100
dia 100
한 100
▁sp 100
dd 100
▁chun 100
ប 100
nosti 100
▁الت 100
▁sub 100
ū 100
ली 100
▁ще 100
▁Ze 100
▁تھا 100
tr 100
ani 100
▁chi 100
ket 100
би 100
nh 100
ሰ 100
▁một 100
▁mais 100
▁Vis 100
▁ity 100
ରେ 100
▁đó 100
ді 100
แล้ว 100
▁Tra 100
ಕ 100
▁zen 100
wy 100
▁vet 100
▁sk 100
▁sé 100
▁او 100
ነ 100
ണ 100
地 100
्या 100
▁tad 100
▁gì 100
\ 100
▁net 100
گ 100
▁č 100
ன 100
sy 100
▁ہے۔ 100
▁আমার 100
▁23 100
▁Onlar 100
سى 100
ando 100
ες 100
ду 100
▁그 100
ö 100
▁Her 100
▁З 100
ฉัน 100
▁বি 100
mb 100
ლთ 100
ụ 100
日 100
▁بعد 100
▁हम 100
▁pla 100
▁inn 100
▁Ə 100
▁Les 100
une 100
υ 100
type 100
લ 100
30 100
▁5. 100
tak 100
chi 100
▁Ale 100
▁hat 100
get 100
▁پروردگار 100
▁তা 100
vol 100
nn 100
nk 100
▁onlar 100
лі 100
ید 100
mit 100
▁ҳар 100
jn 100
▁Apa 100
സ് 100
▁Gi 100
▁plus 100
る 100
▁تر 100
▁ilay 100
▁ئى 100
▁Hu 100
▁mana 100
ого 100
rat 100
▁Ка 100
▁کرد 100
لار 100
▁Og 100
ק 100
ée 100
tem 100
ുക 100
gra 100
▁ol 100
ல் 100
▁Ai 100
▁اے 100
lje 100
ட 100
dra 100
ស 100
vet 100
▁جائے 100
▁Sta 100
را 100
тар 100
▁ተ 100
سا 100
ley 100
ori 100
بر 100
art 100
റ 100
▁if 100
ท 100
▁របស់ 100
atu 100
▁bai 100
▁الأ 100
ora 100
▁who 100
▁him 100
stu 100
ให้ 100
መ 100
คุณ 100
sch 100
dor 100
▁Ich 100
кі 100
▁अल्लाह 100
▁nos 100
sie 100
nut 100
ug 100
▁Š 100
▁ساتھ 100
وه 100
▁there 100
ert 100
▁Pi 100
ষ 100
دار 100
▁إ 100
û 100
தி 100
ڭ 100
▁су 100
▁sun 100
А 100
ija 100
ს 100
માં 100
▁η 100
ச் 100
▁לה 100
▁CD 100
▁wie 100
▁अपने 100
र् 100
ىدۇ 100
▁pred 100
▁σε 100
ிய 100
▁από 100
▁هم 100
▁azy 100
▁month 100
all 100
hat 100
টা 100
ნ 100
ら 100
ந்த 100
нг 100
▁Não 100
ys 100
▁aux 100
ps 100
▁má 100
▁New 100
▁della 100
tud 100
τα 100
ге 100
ù 100
อ 100
dur 100
är 100
స్ 100
сь 100
▁হবে 100
KE 100
▁Bir 100
ث 100
▁Hi 100
▁mba 100
ნჲ 100
▁raha 100
▁iyi 100
tek 100
▁بال 100
nika 100
し 100
жа 100
મ 100
ট 100
ša 100
▁учун 100
э 100
sia 100
▁idan 100
▁പ 100
ర 100
▁Name 100
xe 100
▁entre 100
出 100
▁redu 100
cho 100
ไม่ 100
▁zna 100
▁ona 100
▁לי 100
رو 100
▁නෑ 100
▁عن 100
* 100
서 100
হ 100
jan 100
bat 100
sko 100
ties 100
jem 100
▁sind 100
▁நாம் 100
▁سىلەرگە 100
▁mod 100
▁fis 100
▁ख़ुदा 100
▁egin 100
所 100
ሩ 100
idh 100
EZ 100
▁tako 100
▁ج 100
rà 100
ത്ത 100
по 100
▁Pu 100
▁ph 100
her 100
ör 100
▁Op 100
ów 100
并 100
▁St 100
▁ο 100
ula 100
vá 100
ean 100
▁että 100
▁ole 100
▁ў 100
mm 100
org 100
▁nä 100
ള 100
تی 100
ם 100
ട 100
▁cap 100
ces 100
χ 100
أ 100
▁ជា 100
ப 100
ጥ 100
ær 100
ndi 100
▁জন্য 100
რჲ 100
ega 100
्य 100
▁رہے 100
ér 100
fin 100
▁क्या 100
kur 100
־ 100
▁tahu 100
16 100
▁jsem 100
▁kde 100
▁Ти 100
ിക്ക 100
ער 100
cz 100
▁eine 100
▁کسی 100
ного 100
▁about 100
ቀ 100
▁шумо 100
ča 100
▁alt 100
▁Па 100
者 100
▁nas 100
ா 100
wer 100
ـ 100
ך 100
ane 100
▁किया 100
ე 100
igi 100
▁ح 100
ord 100
ido 100
与 100
▁Bar 100
事 100
ement 100
▁upp 100
▁6. 100
zin 100
▁ڕه 100
ない 100
lie 100
if 100
ோ 100
Artikolu 100
▁අ 100
ჟ 100
pat 100
iđ 100
ül 100
▁क 100
▁بیشک 100
cer 100
委员会 100
▁يه 100
ё 100
▁Komisija 100
▁şey 100
ар 100
▁bra 100
iana 100
ering 100
▁कुछ 100
▁ف 100
การ 100
مه 100
eb 100
CE 100
ន 100
ン 100
ീ 100
▁Val 100
▁denne 100
▁zuen 100
▁status 100
try 100
▁زۆر 100
ха 100
▁mor 100
tus 100
▁Par 100
▁What 100
ደ 100
▁star 100
‍ 100
জ 100
▁menu 100
ges 100
تۇر 100
▁آن 100
nto 100
ของ 100
oc 100
▁bes 100
அ 100
▁bio 100
▁olan 100
▁хак 100
ង 100
ছে 100
▁נ 100
▁ری 100
▁ወደ 100
มัน 100
ల 100
▁nam 100
rea 100
▁без 100
nge 100
line 100
▁meu 100
री 100
▁شک 100
О 100
以 100
via 100
pas 100
▁dra 100
《 100
▁ги 100
ذ 100
》 100
▁ع 100
▁بات 100
国 100
▁ये 100
▁ја 100
اق 100
ś 100
▁জন 100
də 100
ਟ 100
▁حق 100
dom 100
▁же 100
ĩ 100
ۈ 100
将 100
έ 100
fen 100
ግ 100
▁«% 100
zy 100
▁আমরা 100
gli 100
form 100
ći 100
▁uit 100
▁dėl 100
stra 100
다 100
mba 100
▁ப 100
μα 100
▁τον 100
til 100
వ 100
യും 100
ves 100
hla 100
▁طرح 100
▁had 100
▁here 100
mak 100
▁mot 100
». 100
▁dette 100
▁40 100
▁નથી 100
▁vin 100
bb 100
đa 100
kat 100
▁id 100
▁በእርግጥ 100
▁arba 100
tä 100
ан 100
く 100
নি 100
▁করতে 100
ыр 100
qa 100
ות 100
▁esta 100
kla 100
▁type 100
▁על 100
ുകയും 100
ят 100
car 100
▁Sam 100
▁คุณ 100
inen 100
▁До 100
por 100
▁should 100
13 100
▁zaman 100
ува 100
rom 100
চ 100
▁ഇ 100
▁viđ 100
▁হয় 100
▁URL 100
ding 100
ła 100
ێ 100
ҳои 100
▁zuwa 100
ør 100
▁mogu 100
ám 100
ก็ 100
▁tur 100
prav 100
▁দ 100
▁جان 100
▁аларга 100
▁data 100
тан 100
პ 100
▁nach 100
ლა 100
り 100
▁ek 100
ス 100
ጋ 100
▁تک 100
ob 100
გა 100
პა 100
▁Без 100
تىن 100
zh 100
▁ئۇنىڭ 100
▁Hej 100
hana 100
▁fin 100
မ 100
わ 100
Ne 100
▁شما 100
् 100
▁මේ 100
> 100
pt 100
た 100
▁எ 100
še 100
▁کانی 100
гі 100
ក 100
▁Π 100
kas 100
▁sol 100
▁els 100
▁għandu 100
ente 100
ഭ 100
ए 100
▁Dr 100
ón 100
االله 100
▁ம 100
▁spo 100
▁pār 100
yn 100
mor 100
▁và 100
π 100
ස 100
下 100
ня 100
ante 100
▁gan 100
▁wo 100
▁бе 100
▁dokument 100
கள் 100
ች 100
lon 100
▁ត្រូវ 100
stat 100
दा 100
ło 100
េ 100
▁ন 100
▁ven 100
มี 100
▁hier 100
▁naj 100
ੋ 100
▁කරන්න 100
acht 100
▁ότι 100
mal 100
▁jak 100
ەت 100
▁panta 100
▁你 100
▁کار 100
▁nr 100
jiet 100
▁ئەگە 100
▁Zo 100
▁alla 100
17 100
aedje 100
یا 100
ната 100
▁چه 100
Ã 100
ু 100
▁għandhom 100
▁28 100
ില്ല 100
▁io 100
це 100
מ 100
▁hal 100
▁ket 100
▁Car 100
▁Eiropas 100
ву 100
▁ett 100
į 100
▁ئۇلارنى 100
ڭلار 100
▁Cha 100
pon 100
▁และ 100
ary 100
რა 100
▁ont 100
▁फिर 100
▁დჲ 100
ಾ 100
▁ውስጥ 100
tis 100
▁või 100
ike 100
▁Бу 100
▁Tom 100
ға 100
▁والوں 100
ný 100
ии 100
▁right 100
▁GNOME 100
▁लोगों 100
▁Shi 100
▁אין 100
tura 100
▁Het 100
ría 100
▁مبه 100
zzjoni 100
▁இன்னும் 100
rí 100
ár 100
▁làm 100
ጠ 100
▁tā 100
▁Ci 100
ive 100
▁yo 100
▁zã 100
cs 100
vez 100
▁được 100
▁все 100
▁onların 100
یش 100
cion 100
▁sonra 100
▁skladu 100
▁وقت 100
▁ز 100
ώ 100
apa 100
tă 100
▁של 100
stru 100
ג 100
Sa 100
ێکی 100
EB 100
gal 100
can 100
nost 100
▁ind 100
▁Ма 100
সমূহ 100
▁vid 100
ራ 100
▁más 100
cal 100
▁అ 100
où 100
ő 100
▁ng 100
ன் 100
dis 100
hin 100
los 100
▁problem 100
nju 100
lam 100
▁ഞാന്‍ 100
ჲ 100
ман 100
▁phải 100
ß 100
از 100
▁27 100
র্ 100
hr 100
كە 100
▁pak 100
▁бор 100
18 100
▁San 100
ры 100
ير 100
▁زه 100
mpa 100
iga 100
ග 100
color 100
ena 100
▁তোমাদের 100
▁मैं 100
▁що 100
▁Om 100
ാന്‍ 100
▁sto 100
▁بوو 100
су 100
▁xa 100
ىنى 100
▁maka 100
行 100
sion 100
ses 100
▁লাহ 100
▁ac 100
ود 100
kra 100
▁sont 100
▁ґәзаб 100
▁người 100
IN 100
▁ผม 100
ø 100
ux 100
▁Os 100
▁Ein 100
▁لم 100
ος 100
▁Az 100
▁state 100
กับ 100
ත 100
دو 100
▁ہر 100
▁پێغ 100
лан 100
କ 100
▁Im 100
ал 100
▁خۆی 100
વા 100
▁ak 100
ví 100
ণ 100
nji 100
国家 100
▁নি 100
▁Tsy 100
▁മ 100
▁jin 100
▁lwe 100
▁як 100
ân 100
14 100
▁At 100
ੀ 100
లు 100
ின் 100
σ 100
या 100
▁kada 100
itra 100
؛ 100
në 100
▁እነዚያ 100
nud 100
oli 100
▁әлбәттә 100
áil 100
انی 100
ត 100
ep 100
aire 100
ያ 100
▁අපි 100
▁එක 100
▁31 100
▁Ru 100
த்து 100
▁onlara 100
▁ሁሉ 100
▁organiz 100
oz 100
▁Ok 100
▁ჲრ 100
▁هیچ 100
▁ئىش 100
▁кешеләр 100
▁मा 100
▁க 100
tat 100
▁آسمان 100
▁गर्न 100
ש 100
usta 100
ной 100
▁này 100
ד 100
else 100
па 100
▁Δεν 100
▁treba 100
▁være 100
ટ 100
▁// 100
্যা 100
▁test 100
▁நான் 100
EU 100
▁öz 100
▁kõ 100
સ 100
ક 100
ста 100
ados 100
ċ 100
ូ 100
▁তুমি 100
▁Eu 100
Ma 100
▁کام 100
▁سته 100
▁awak 100
▁അല്ലാഹു 100
zer 100
tsa 100
▁š 100
▁• 100
▁bila 100
aka 100
tų 100
bit 100
▁ukuba 100
▁Wa 100
!) 100
▁उनके 100
мас 100
war 100
â 100
жи 100
▁2000 100
κ 100
▁dalam 100
▁gör 100
▁នៅ 100
เธอ 100
▁иде 100
ast 100
▁তিনি 100
К 100
▁यह 100
▁στο 100
ния 100
ന്‍ 100
▁Anh 100
▁mer 100
লি 100
▁или 100
▁д 100
▁My 100
mmer 100
▁شه 100
▁tä 100
▁pada 100
▁това 100
▁0, 100
▁olona 100
pha 100
sku 100
นี้ 100
бо 100
stro 100
є 100
ુ 100
tom 100
▁این 100
lí 100
▁seg 100
nger 100
ego 100
▁rồi 100
▁aka 100
ض 100
▁ok 100
▁misy 100
аш 100
▁See 100
▁ihany 100
▁sig 100
▁tek 100
▁មិន 100
▁قىلىپ 100
▁mpi 100
25 100
▁tha 100
▁ndị 100
క 100
▁сезгә 100
▁Anda 100
şi 100
τε 100
ор 100
umu 100
யை 100
gər 100
ज़ 100
ره 100
▁bilo 100
ць 100
nce 100
▁sono 100
▁व 100
tie 100
▁הוא 100
ц 100
▁اسی 100
nti 100
ті 100
▁vous 100
▁nge 100
പ്പ 100
تر 100
▁tie 100
nem 100
imi 100
кан 100
▁फाइल 100
▁بوون 100
▁মা 100
▁nuo 100
▁لے 100
ル 100
vy 100
▁بہت 100
▁bij 100
ció 100
mana 100
▁де 100
▁Uku 100
24 100
្ 100
ved 100
▁Ir 100
ká 100
▁dre 100
▁Hei 100
ുന്ന 100
ted 100
ua 100
eren 100
ில் 100
▁isə 100
야 100
▁kommer 100
▁ere 100
cht 100
bel 100
dal 100
ें 100
▁സ 100
▁2004 100
rk 100
kwa 100
▁тоа 100
ቅ 100
▁pis 100
▁= 100
yl 100
bon 100
hal 100
ғ 100
▁hai 100
▁OYA 100
jet 100
▁būti 100
▁билан 100
rei 100
▁thu 100
▁ry 100
େ 100
با 100
لو 100
кә 100
▁нас 100
▁कोई 100
shi 100
ID 100
} 100
ని 100
▁cô 100
▁П 100
した 100
GenericName 100
▁ក្នុង 100
vit 100
ạ 100
▁Des 100
▁kri 100
▁maha 100
jon 100
star 100
▁რთ 100
ونه 100
फ 100
ngen 100
▁لو 100
▁This 100
amente 100
llo 100
gon 100
ग 100
▁Ко 100
ایه 100
▁kwa 100
ئه 100
▁bl 100
ол 100
stan 100
▁sz 100
▁aquí 100
ши 100
anta 100
▁کریں 100
nej 100
gas 100
▁Vol 100
И 100
AS 100
▁nei 100
یم 100
▁daha 100
▁ima 100
▁пере 100
qi 100
ቃ 100
▁đ 100
اب 100
ře 100
ල් 100
ዎች 100
AR 100
iku 100
ano 100
▁bei 100
ения 100
▁pres 100
▁፣ 100
▁Iz 100
aw 100
ros 100
▁pr 100
lak 100
ህ 100
▁2005 100
ća 100
▁Com 100
▁care 100
▁avec 100
▁ovo 100
ín 100
▁hann 100
▁म 100
▁2003 100
vir 100
하 100
ида 100
ფ 100
่ 100
ја 100
ham 100
ई 100
க்கு 100
ás 100
iso 100
ход 100
기 100
▁ක 100
يل 100
▁wir 100
▁kuri 100
▁roz 100
Kummissjoni 100
▁she 100
rë 100
▁mene 100
dim 100
▁heç 100
dre 100
মা 100
▁Албатта 100
▁bisa 100
▁parte 100
iad 100
raz 100
▁Ako 100
▁st 100
▁একটি 100
就 100
ību 100
λ 100
▁bien 100
nsu 100
▁ឯកសារ 100
ün 100
θ 100
40 100
ී 100
▁1, 100
เขา 100
▁olu 100
▁Mr 100
▁Chi 100
▁ūú 100
נו 100
▁için 100
▁ლთ 100
ét 100
▁26 100
▁ata 100
▁بی 100
tul 100
시 100
▁gr 100
▁کتاب 100
▁adalah 100
อยู่ 100
ุ 100
ыгыз 100
żi 100
▁word 100
هم 100
▁അത് 100
▁ሰው 100
પ 100
న్ 100
ရ 100
فر 100
ých 100
ct 100
teri 100
して 100
▁mir 100
▁Бас 100
rd 100
▁Th 100
▁بێگومان 100
▁ඒ 100
ε 100
▁2006 100
eni 100
ön 100
▁És 100
aigh 100
്‍ 100
ባ 100
▁σου 100
▁کرے 100
联合国 100
usi 100
kä 100
lor 100
ый 100
EG 100
▁Wat 100
қа 100
!" 100
ją 100
tz 100
▁their 100
▁چی 100
yar 100
▁የተ 100
▁cre 100
ෝ 100
ము 100
تو 100
해 100
分 100
ligt 100
ๆ 100
rre 100
▁koa 100
ป 100
▁Ad 100
قان 100
ër 100
ण 100
▁ab 100
dh 100
ക്ക് 100
mod 100
▁onu 100
▁আমাদের 100
▁element 100
ên 100
غان 100
ларга 100
டி 100
sem 100
ห 100
kal 100
▁vie 100
▁Kas 100
ние 100
tina 100
Ka 100
▁आप 100
▁Č 100
qo 100
▁Вы 100
ವ 100
▁Don 100
▁2007 100
▁פֿו 100
▁Nru 100
သည် 100
dem 100
న 100
dien 100
▁Sen 100
ít 100
▁जब 100
▁მთ 100
ទ 100
ୁ 100
én 100
ተ 100
ρα 100
▁Ek 100
ht 100
း 100
▁ეჲ 100
▁Х 100
ð 100
▁hau 100
▁ئۇنى 100
▁här 100
త 100
žu 100
lis 100
tti 100
▁yer 100
hl 100
▁እ 100
zel 100
▁Та 100
ev 100
▁М 100
ит 100
ני 100
▁pentru 100
▁Hey 100
▁Fe 100
▁وت 100
▁онҳо 100
▁momba 100
β 100
▁Κ 100
▁छ 100
▁це 100
ട്ട 100
ún 100
▁ann 100
егез 100
বে 100
▁fu 100
lı 100
▁2002 100
eva 100
▁তোমরা 100
ία 100
▁아 100
ża 100
ગ 100
ਣ 100
▁trans 100
bor 100
▁29 100
det 100
eu 100
No 100
▁আছে 100
lich 100
▁mö 100
イ 100
ttu 100
▁या 100
ז 100
aba 100
▁parti 100
▁Ты 100
ник 100
encia 100
▁cosa 100
▁when 100
ish 100
ие 100
▁car 100
▁God 100
▁Vo 100
▁arī 100
ێک 100
▁کات 100
▁ब 100
▁vez 100
inga 100
▁fo 100
data 100
É 100
ləri 100
▁அவன் 100
▁kell 100
ري 100
▁dõmin 100
isti 100
▁قوم 100
▁Σ 100
bin 100
ማ 100
elo 100
▁সা 100
má 100
uh 100
▁beste 100
▁2009 100
olo 100
▁which 100
ther 100
▁kaip 100
▁sama 100
дән 100
▁ئۆز 100
▁بنا 100
lit 100
erne 100
▁mund 100
ence 100
گه 100
களை 100
html 100
▁កម្មវិធី 100
ทํา 100
-1 100
ىمىز 100
▁casa 100
pla 100
▁файл 100
▁ניט 100
▁Europos 100
mus 100
▁kui 100
▁musu 100
kun 100
γ 100
▁bli 100
ٹ 100
▁say 100
▁put 100
▁spe 100
श 100
▁Fo 100
ore 100
ใน 100
uka 100
tí 100
▁been 100
ін 100
ете 100
▁diri 100
▁ಅ 100
лен 100
21 100
के 100
▁stra 100
▁mil 100
▁بود 100
iva 100
▁Dar 100
▁EUR 100
▁Ε 100
کی 100
▁izan 100
ئی 100
sim 100
don 100
▁ça 100
vor 100
▁ඔයාට 100
ക് 100
kke 100
த்தை 100
▁Ty 100
א 100
یت 100
▁خوب 100
mise 100
▁انہوں 100
▁faha 100
อะไร 100
▁sich 100
▁bara 100
bha 100
▁Tre 100
▁Ten 100
▁2001 100
tá 100
った 100
כ 100
▁পর 100
▁നാം 100
ే 100
ības 100
▁জ 100
▁വ 100
ный 100
▁kif 100
ité 100
vil 100
ede 100
lay 100
▁ප 100
▁ਸ 100
01 100
▁କରନ୍ତୁ 100
cul 100
▁نی 100
ત 100
ах 100
னை 100
isk 100
게 100
性 100
න්න 100
▁Ji 100
▁maar 100
▁werden 100
▁Af 100
▁tekst 100
▁kre 100
mbe 100
于 100
▁koja 100
ವನ್ನು 100
king 100
▁τη 100
ction 100
ಗಳು 100
bie 100
đu 100
ੇ 100
▁হয়েছে 100
▁ذلك 100
▁Се 100
▁जा 100
到 100
RA 100
▁इस 100
ҷ 100
ിച്ച 100
gle 100
ලා 100
▁gali 100
▁דער 100
شت 100
issa 100
мон 100
▁meta 100
በ 100
ख 100
бар 100
jal 100
تي 100
гу 100
ഴ 100
دی 100
เลย 100
▁aus 100
▁ہوئے 100
phi 100
▁dy 100
▁biz 100
лек 100
国际 100
ě 100
▁lagi 100
jas 100
する 100
iš 100
య 100
▁pol 100
EN 100
ான் 100
▁Sch 100
сыз 100
▁প্র 100
ame 100
sä 100
bal 100
▁بول 100
ità 100
პთ 100
▁پەقەت 100
▁turi 100
kli 100
▁rad 100
პვ 100
ਪ 100
▁III 100
▁kepada 100
ئے 100
▁може 100
▁Europa 100
스 100
▁اُن 100
▁hand 100
▁مگر 100
illa 100
▁قىلىدۇ 100
دي 100
▁pare 100
▁ре 100
▁Che 100
لەر 100
ées 100
ጣ 100
pis 100
▁chúng 100
▁خود 100
▁oku 100
▁Pen 100
dro 100
要 100
▁aby 100
▁tip 100
▁hafa 100
▁Аллаһудан 100
ข 100
▁ज 100
ట్ 100
▁vis 100
▁euro 100
▁bare 100
ኛ 100
ator 100
ช 100
▁កំណត់ 100
▁המ 100
▁나 100
mek 100
ۇ 100
ные 100
tir 100
ador 100
▁behar 100
▁بولغان 100
сто 100
▁more 100
▁seu 100
▁2008 100
▁bol 100
▁got 100
▁want 100
ല്‍ 100
▁gün 100
▁kap 100
▁kol 100
▁čo 100
▁vad 100
ilay 100
yin 100
usa 100
ím 100
ප 100
pr 100
本 100
▁सा 100
时 100
လ 100
ets 100
miş 100
▁پا 100
其 100
gun 100
ons 100
▁گ 100
▁пред 100
▁ប្រើ 100
ларни 100
▁okanye 100
자 100
ዋ 100
▁худ 100
23 100
ැ 100
▁thể 100
จ 100
▁قىلدى 100
ோம் 100
▁moj 100
cin 100
▁eli 100
▁aho 100
法 100
▁итеп 100
▁poz 100
▁prze 100
▁Min 100
ď 100
▁import 100
сын 100
▁چیز 100
应 100
▁ম 100
ክ 100
▁Mon 100
▁Allaha 100
рт 100
ier 100
வை 100
▁ó 100
▁тебе 100
▁পা 100
ँ 100
▁ჲ 100
▁sizə 100
siz 100
▁ڕ 100
ೋ 100
▁ღვ 100
▁ק 100
▁די 100
▁iki 100
зо 100
° 100
ės 100
инг 100
ፈ 100
sid 100
▁neu 100
▁Ak 100
und 100
ന്ന 100
lä 100
▁få 100
හ 100
gg 100
ette 100
uti 100
▁post 100
lek 100
nka 100
ашон 100
▁jou 100
▁sou 100
IT 100
▁bor 100
▁ml 100
▁Gra 100
▁करें 100
gang 100
ரி 100
▁Это 100
enza 100
▁دوست 100
▁කියලා 100
▁ਲਈ 100
ću 100
▁ത 100
▁رسول 100
క్ 100
ዳ 100
▁شخص 100
กัน 100
ច 100
▁ie 100
▁hem 100
kov 100
ilo 100
▁zá 100
റ്റ 100
▁cor 100
sed 100
ген 100
ться 100
▁fit 100
jam 100
чы 100
ero 100
لىرىنى 100
▁ఆ 100
▁പ്ര 100
▁سا 100
▁ide 100
▁ngoku 100
▁αυτό 100
thu 100
▁atá 100
iza 100
kus 100
▁গ 100
ните 100
چى 100
ර් 100
▁មាន 100
▁radi 100
▁kam 100
▁sú 100
或 100
nad 100
ving 100
▁អាច 100
▁let 100
▁ú 100
▁នេះ 100
ijiet 100
бра 100
▁đây 100
▁hun 100
ща 100
ॉ 100
▁anti 100
▁were 100
▁ہمارے 100
ژ 100
wie 100
udi 100
வும் 100
▁पा 100
zan 100
▁unha 100
ivo 100
▁über 100
▁kami 100
▁teo 100
جا 100
ቁ 100
bas 100
ament 100
▁उ 100
რთ 100
umi 100
tera 100
ায় 100
问题 100
▁گیا 100
ок 100
▁Улар 100
osti 100
▁Ш 100
▁करते 100
▁پہلے 100
ల్ 100
str 100
ኑ 100
); 100
ិ 100
бу 100
ಲ 100
▁Muka 100
ดี 100
ול 100
▁ih 100
гы 100
▁fana 100
ಯನ್ನು 100
kah 100
wr 100
ư 100
▁ди 100
āk 100
oi 100
कर 100
air 100
pra 100
แ 100
▁шу 100
tho 100
▁isi 100
▁ياخشى 100
anna 100
ще 100
▁waar 100
▁Can 100
▁heb 100
eli 100
▁nói 100
ls 100
ojn 100
▁Tidak 100
vid 100
▁लागि 100
ів 100
▁mon 100
▁auto 100
ச 100
▁set 100
▁σ 100
lli 100
▁Para 100
nas 100
ઓ 100
▁god 100
inių 100
ভ 100
ො 100
▁biex 100
tim 100
تون 100
들 100
▁.. 100
▁قىل 100
▁जिस 100
rio 100
ings 100
mbi 100
ിച്ചു 100
나 100
▁حه 100
▁तुम्हारे 100
▁ہوا 100
▁foi 100
▁کرتا 100
tic 100
▁base 100
▁tin 100
▁end 100
ыл 100
เธ 100
▁និង 100
▁nur 100
▁če 100
amo 100
▁wata 100
ற 100
から 100
spe 100
tele 100
ithe 100
क् 100
ение 100
εις 100
▁مەن 100
പ 100
▁2011 100
▁қилиб 100
▁Әг 100
▁pode 100
eur 100
▁għandha 100
vas 100
▁DVD 100
▁Ob 100
אַ 100
fel 100
▁tempo 100
heid 100
ாக 100
て 100
П 100
tzeko 100
ação 100
▁وره 100
ule 100
их 100
▁كان 100
▁مال 100
· 100
nne 100
▁huma 100
▁sau 100
ល 100
ann 100
dı 100
lem 100
ía 100
▁$ 100
ade 100
бер 100
ፍ 100
▁biết 100
# 100
▁Ey 100
▁ই 100
zon 100
▁komp 100
δ 100
▁ფვ 100
คน 100
स् 100
▁ఒక 100
კჲ 100
▁dei 100
▁پیدا 100
▁60 100
گر 100
för 100
▁има 100
ako 100
▁ස 100
­ 100
šanas 100
▁aba 100
▁қилган 100
▁ở 100
zio 100
▁cha 100
ড 100
än 100
লা 100
rú 100
▁ис 100
▁있 100
▁mes 100
мә 100
нда 100
сі 100
▁ஆ 100
gh 100
AL 100
zar 100
▁Ий 100
▁hər 100
▁কোন 100
▁र 100
▁col 100
▁game 100
▁Mas 100
cher 100
▁צו 100
ਕ 100
ui 100
šu 100
2009 100
من 100
▁anda 100
▁lill 100
med 100
▁pan 100
▁tom 100
br 100
енә 100
▁Α 100
▁чӣ 100
▁хо 100
▁Kako 100
ών 100
▁Ūú 100
▁bit 100
ngo 100
▁әйтте 100
мы 100
قى 100
put 100
▁প্ৰ 100
igh 100
▁button 100
▁جائیں 100
▁Э 100
مت 100
mä 100
▁उन 100
stre 100
lum 100
▁সাথে 100
▁Das 100
▁ئاسمان 100
き 100
ски 100
▁ले 100
ற்ற 100
▁수 100
▁Ви 100
▁hor 100
rri 100
mbu 100
vre 100
▁барои 100
▁ку 100
▁वि 100
▁dobro 100
dio 100
ێن 100
ח 100
▁ris 100
▁She 100
out 100
из 100
ations 100
▁रहे 100
ध 100
ost 100
mma 100
▁بو 100
▁শ 100
▁gy 100
лары 100
▁fal 100
์ 100
rah 100
▁vers 100
ഹ 100
▁Sp 100
ىدىغان 100
and 100
▁000 100
▁கொண்ட 100
ರ್ 100
uda 100
ਸ 100
▁suke 100
ным 100
ری 100
▁ს 100
ି 100
etan 100
▁mat 100
▁সম 100
bes 100
▁ж 100
▁Ur 100
ига 100
ਿ 100
▁ដោយ 100
ute 100
▁lui 100
mé 100
▁ned 100
▁sme 100
прав 100
▁Ūađ 100
In 100
ந்து 100
▁था 100
▁dag 100
▁ĩmãni 100
ଲ 100
rez 100
▁само 100
▁Zi 100
▁α 100
ien 100
▁им 100
रे 100
▁United 100
▁Mor 100
▁ئە 100
ৰ্ 100
▁bre 100
▁fãce 100
▁میرے 100
vant 100
ER 100
ങ്ങള്‍ 100
▁fost 100
▁То 100
ση 100
▁sch 100
▁với 100
OR 100
oje 100
▁izao 100
nica 100
▁text 100
wu 100
▁மு 100
พ 100
ија 100
ella 100
გთ 100
लाई 100
▁iman 100
▁back 100
▁Dat 100
▁dass 100
▁ман 100
خت 100
yə 100
▁کن 100
定 100
ür 100
▁эш 100
ার 100
ico 100
▁States 100
ती 100
▁hän 100
▁بده 100
▁seda 100
ትን 100
▁Kar 100
oro 100
asta 100
▁mem 100
▁contra 100
বা 100
▁That 100
▁7. 100
้า 100
phe 100
යක් 100
tru 100
mə 100
უ 100
khe 100
нар 100
لی 100
▁fre 100
name 100
▁sor 100
voj 100
ுக்கு 100
▁dr 100
ప 100
oni 100
▁nor 100
▁Он 100
Re 100
▁take 100
▁taona 100
enti 100
▁Ми 100
▁artikel 100
▁ئىمان 100
Б 100
mbo 100
▁mei 100
atra 100
dri 100
▁אַ 100
yr 100
তি 100
▁vý 100
ño 100
acha 100
kö 100
▁chur 100
▁أو 100
φ 100
▁nahi 100
ะ 100
రి 100
छ 100
▁நீர் 100
tten 100
ου 100
की 100
▁jos 100
like 100
rem 100
▁år 100
▁כל 100
▁ناو 100
ಗ 100
▁وہی 100
anje 100
rie 100
▁رده 100
▁கொண்டு 100
▁деб 100
▁Á 100
ବ 100
ral 100
că 100
fre 100
▁sus 100
ču 100
▁மேலும் 100
גע 100
ள 100
aina 100
▁međ 100
ө 100
▁ES 100
▁pal 100
ێت 100
▁وسلم 100
اوه 100
đur 100
▁Pas 100
oka 100
hom 100
iť 100
▁δ 100
▁moet 100
▁onları 100
ね 100
فت 100
িক 100
▁But 100
nc 100
▁sti 100
▁mun 100
iri 100
UE 100
니 100
▁pel 100
▁его 100
▁imp 100
▁mhux 100
▁അവന്‍ 100
▁now 100
2/ 100
ска 100
bla 100
som 100
▁skr 100
šanu 100
▁Sin 100
▁Ona 100
▁بد 100
▁produ 100
▁vam 100
▁tena 100
▁Mun 100
▁એ 100
ple 100
▁Av 100
▁hij 100
ран 100
▁நீ 100
мі 100
▁kuwa 100
▁حکم 100
▁volt 100
▁više 100
tika 100
nke 100
▁ç 100
▁башка 100
Ba 100
▁যদি 100
ум 100
တ 100
▁mora 100
▁Де 100
▁haƙĩƙa 100
ရန် 100
02 100
▁бы 100
დ 100
▁može 100
▁دنیا 100
vanje 100
2008 100
▁ଅ 100
▁šo 100
▁п 100
pun 100
မှု 100
▁person 100
▁Mit 100
▁рас 100
他 100
▁sũ 100
nych 100
τ 100
▁кеше 100
учы 100
eme 100
▁μ 100
lim 100
lang 100
▁Samo 100
▁land 100
ં 100
▁haka 100
ੁ 100
▁ג 100
့ 100
ид 100
vers 100
iny 100
▁vien 100
▁가 100
▁Агар 100
▁grup 100
mel 100
न् 100
EC 100
ệ 100
ዘ 100
▁حال 100
och 100
ান 100
ult 100
사 100
lega 100
ných 100
dzi 100
▁دېدى 100
▁اب 100
会议 100
▁some 100
ssi 100
tok 100
ай 100
▁Sai 100
▁सं 100
▁वा 100
ையும் 100
àna 100
stri 100
uj 100
▁ot 100
▁anatin 100
▁Så 100
▁Ex 100
▁булыр 100
▁улар 100
▁iş 100
▁sini 100
ความ 100
▁ё 100
▁mér 100
▁hon 100
▁how 100
▁bə 100
ਮ 100
ുന്നു 100
▁Fin 100
xo 100
▁м 100
To 100
▁shall 100
ці 100
дар 100
ദ 100
ា 100
▁التي 100
9/ 100
▁org 100
说 100
▁telefon 100
يت 100
▁ed 100
▁ग 100
▁Cu 100
Mo 100
ill 100
아 100
ผม 100
phu 100
ларини 100
gri 100
▁வி 100
мер 100
▁Ah 100
کر 100
eko 100
hlu 100
ূ 100
▁kr 100
ർ 100
▁б 100
tions 100
▁sizin 100
▁قىلىش 100
▁Во 100
▁яки 100
ario 100
יר 100
Se 100
ių 100
ök 100
▁gli 100
▁내 100
▁ھېچ 100
▁Članak 100
▁duzu 100
▁কিছু 100
үче 100
zia 100
pos 100
pur 100
ath 100
▁wurde 100
ун 100
ના 100
ight 100
ese 100
▁उसके 100
▁Ini 100
▁cur 100
▁Var 100
TA 100
▁would 100
ña 100
llen 100
ams 100
▁Mal 100
也 100
مى 100
▁pré 100
可 100
ır 100
▁sao 100
▁2010 100
uch 100
enie 100
ả 100
kka 100
▁bro 100
▁හරි 100
▁چاک 100
turi 100
she 100
▁भ 100
▁file 100
▁été 100
വും 100
ство 100
▁yoku 100
rif 100
▁যারা 100
▁pun 100
▁иман 100
sha 100
▁q 100
▁Са 100
வே 100
ού 100
sar 100
сез 100
ক্ষ 100
лардан 100
pad 100
sty 100
नी 100
好 100
اي 100
▁sil 100
▁dir 100
ith 100
hle 100
▁안 100
▁Биз 100
▁pagal 100
▁ናቸው 100
▁दे 100
▁কর 100
▁ilə 100
▁کرده 100
fil 100
▁خوای 100
▁sistema 100
▁lại 100
щ 100
▁এর 100
esta 100
▁кылган 100
▁asta 100
▁हमने 100
▁כ 100
▁မ 100
TI 100
saskaņā 100
▁هر 100
一个 100
odi 100
esti 100
צ 100
▁selle 100
▁stor 100
Stencils 100
▁kod 100
lwa 100
▁km 100
bir 100
ungen 100
tó 100
tą 100
면 100
▁telah 100
ای 100
rak 100
nsa 100
য়ে 100
▁gen 100
ま 100
آ 100
ார் 100
سەن 100
▁into 100
▁lá 100
▁কাছে 100
▁görə 100
tto 100
ୋ 100
ফ 100
▁แต่ 100
maq 100
▁مت 100
ется 100
▁aza 100
▁nog 100
组织 100
▁ר 100
বি 100
▁ა 100
ார்கள் 100
▁Те 100
提供 100
使 100
▁ସ 100
▁ந 100
ms 100
år 100
22 100
外 100
▁ка 100
▁wil 100
▁दो 100
kha 100
▁ö 100
▁jā 100
ър 100
▁gre 100
该 100
▁меня 100
▁alebo 100
او 100
सा 100
▁jam 100
رت 100
▁minut 100
多 100
ët 100
eri 100
hte 100
▁kugirango 100
ั 100
ουν 100
வன் 100
osta 100
▁አይ 100
▁گی 100
amos 100
▁ទៅ 100
fra 100
iki 100
mpi 100
OS 100
ដ 100
enia 100
▁לך 100
быз 100
▁dell 100
▁90 100
▁John 100
▁سەن 100
ىڭلار 100
ət 100
ნვ 100
သော 100
ბ 100
Р 100
▁tid 100
rap 100
ove 100
▁مان 100
iñ 100
ydd 100
▁út 100
▁skulle 100
▁nad 100
▁other 100
öl 100
▁ह 100
▁ו 100
еш 100
▁Pra 100
ევ 100
vr 100
sit 100
▁Kur 100
ను 100
SI 100
ከ 100
ġi 100
rä 100
▁Tro 100
▁Nei 100
gue 100
hir 100
nana 100
& 100
kaz 100
шы 100
નો 100
▁får 100
2013 100
со 100
▁Siz 100
▁তোমার 100
von 100
ир 100
kri 100
▁straipsnio 100
தை 100
▁ئىنكا 100
mento 100
▁İ 100
2006 100
▁ഈ 100
વ 100
က် 100
▁Ser 100
ต้อง 100
De 100
dla 100
▁Аллаһуның 100
▁maidir 100
jų 100
▁प्र 100
▁programa 100
dz 100
stä 100
▁Kami 100
num 100
▁faịlụ 100
zem 100
▁līdz 100
dit 100
▁ባ 100
う 100
ካ 100
▁دل 100
▁door 100
▁ville 100
شان 100
▁maro 100
در 100
▁жа 100
▁វា 100
▁× 100
age 100
▁think 100
▁Həqiqət 100
▁mà 100
nden 100
▁ئۇنىڭغا 100
Ja 100
sor 100
බ 100
▁ко 100
▁zer 100
▁അവ 100
ണം 100
▁Kita 100
▁торган 100
yk 100
მვ 100
ым 100
▁말 100
▁Ο 100
[ 100
rum 100
▁ал 100
ლჲ 100
▁உ 100
▁ਜਾ 100
▁help 100
▁bude 100
▁mia 100
▁ሆ 100
άν 100
ეთ 100
çi 100
▁Or 100
toj 100
வு 100
▁Sí 100
اور 100
个 100
▁bé 100
ლვ 100
▁თჱ 100
maz 100
▁Ter 100
kul 100
ная 100
jes 100
▁دەپ 100
නේ 100
▁ele 100
▁मी 100
▁Аллоҳнинг 100
ул 100
Д 100
▁وا 100
کا 100
과 100
▁home 100
2004 100
DE 100
dina 100
▁finans 100
amh 100
▁وێت 100
▁Sh 100
ён 100
Po 100
щи 100
tais 100
erna 100
▁gir 100
向 100
▁tab 100
Ç 100
▁osta 100
ਡ 100
私 100
▁red 100
▁мы 100
bbli 100
ří 100
වා 100
▁گر 100
▁ĉi 100
tà 100
ാം 100
▁пра 100
iú 100
我们 100
leri 100
▁system 100
მა 100
tori 100
▁мне 100
rod 100
▁dal 100
▁بڑا 100
ong 100
▁sva 100
ая 100
▁skont 100
cur 100
కు 100
Š 100
▁នឹង 100
2005 100
죠 100
▁By 100
kut 100
▁masa 100
stup 100
શ 100
▁иймон 100
fici 100
क्ष 100
gro 100
▁değil 100
itä 100
klu 100
▁isto 100
▁onun 100
▁še 100
sje 100
ole 100
hod 100
OL 100
▁face 100
▁bh 100
▁oder 100
▁long 100
60 100
▁new 100
▁ūetta 100
ants 100
▁part 100
wn 100
SA 100
▁булды 100
ான 100
ssen 100
eš 100
ত্র 100
ସ 100
▁vend 100
▁Met 100
▁Wie 100
▁съм 100
▁تاکہ 100
ins 100
sent 100
уд 100
sc 100
ikan 100
ჱ 100
80 100
▁make 100
关于 100
▁নে 100
▁Of 100
ıb 100
cent 100
▁kimi 100
而 100
还 100
Pa 100
▁ග 100
itet 100
eve 100
▁tem 100
Unjoni 100
▁čas 100
യാ 100
า 100
31 100
миз 100
dam 100
لىك 100
▁هو 100
وت 100
▁قه 100
▁أنا 100
τι 100
▁هل 100
▁OF 100
тыр 100
▁Hän 100
נה 100
nel 100
ний 100
rra 100
ific 100
▁noho 100
רי 100
lom 100
▁doğru 100
sek 100
nice 100
nä 100
തി 100
ture 100
jat 100
лер 100
മായ 100
لارنى 100
▁voa 100
ୀ 100
▁Alle 100
▁вас 100
▁svi 100
cat 100
▁करो 100
inu 100
рі 100
مەن 100
▁ε 100
▁bis 100
▁nama 100
ගේ 100
▁لای 100
▁خۆ 100
ਾਂ 100
▁tany 100
▁kontrol 100
▁зна 100
▁dro 100
▁hen 100
ësh 100
ajn 100
▁forma 100
▁гамәл 100
ous 100
▁gran 100
▁fait 100
▁Gre 100
∙ 100
29 100
bli 100
子 100
▁ነገር 100
▁سي 100
5/ 100
eta 100
▁dut 100
▁lle 100
▁boleh 100
▁nous 100
ред 100
কা 100
▁কা 100
inne 100
26 100
▁Nor 100
▁των 100
▁real 100
ют 100
ust 100
▁wird 100
alt 100
▁እን 100
orang 100
▁Já 100
nov 100
▁gc 100
గ 100
▁zama 100
▁nel 100
ume 100
gur 100
27 100
▁پێش 100
▁Mer 100
▁dedi 100
▁द 100
wan 100
▁יש 100
▁hanya 100
▁Cyangwa 100
nio 100
▁pov 100
▁başqa 100
▁аларны 100
سىلەر 100
▁kop 100
▁oss 100
▁comme 100
mine 100
3/ 100
▁80 100
ço 100
▁ezin 100
▁Ol 100
▁buvo 100
▁ඇ 100
▁সময় 100
▁len 100
ї 100
িয়ে 100
nə 100
▁ফ 100
▁እርሱ 100
▁इ 100
▁Unije 100
ност 100
ră 100
1/ 100
▁Far 100
▁reg 100
yd 100
nú 100
Е 100
6/ 100
ити 100
بي 100
▁Zu 100
ാന 100
វ 100
인 100
▁via 100
dá 100
tana 100
▁فقط 100
گەن 100
fan 100
rə 100
Т 100
▁windo 100
್ 100
▁vuo 100
▁bak 100
ами 100
▁standard 100
▁दिया 100
lige 100
ади 100
jali 100
ppe 100
▁efa 100
AT 100
▁Euro 100
▁kli 100
யாக 100
▁Dis 100
▁faoi 100
▁Tar 100
▁اُس 100
▁ū 100
دىكى 100
▁ને 100
▁Vel 100
idad 100
▁මගේ 100
rim 100
▁باش 100
دم 100
▁Isi 100
以及 100
▁yin 100
▁نده 100
ës 100
▁э 100
▁እነርሱ 100
ஸ் 100
▁may 100
▁mind 100
▁ቀን 100
әгәр 100
tko 100
▁ਨਹੀਂ 100
▁Вә 100
gua 100
▁mine 100
▁نمي 100
▁ស 100
pie 100
▁pret 100
▁Kaj 100
▁prie 100
sə 100
▁Šta 100
کار 100
▁ياكى 100
ኝ 100
▁Cor 100
▁بولىدۇ 100
▁សម្រាប់ 100
stand 100
▁PM 100
45 100
▁mutãne 100
▁Au 100
▁efter 100
▁ע 100
mark 100
rg 100
लि 100
asi 100
hor 100
▁ভ 100
М 100
ତ 100
▁Dit 100
▁Color 100
▁تمہاری 100
יק 100
akan 100
খ 100
azione 100
▁බ 100
ク 100
▁Uredbe 100
▁الن 100
▁Yo 100
oma 100
นั้น 100
▁беше 100
▁syn 100
ీ 100
िक 100
koa 100
inės 100
রে 100
▁Ĉu 100
▁كېيىن 100
ró 100
ès 100
▁തന്നെ 100
знач 100
▁како 100
ति 100
▁তো 100
ല്ല 100
chen 100
бор 100
▁دروست 100
ং 100
ಗಳನ್ನು 100
ää 100
tua 100
▁bom 100
డ 100
ቱ 100
▁også 100
▁айт 100
▁32 100
ခြင်း 100
ló 100
▁വി 100
ғы 100
▁کردووه 100
만 100
မှ 100
ි 100
adi 100
ால் 100
aux 100
larını 100
▁did 100
зу 100
bili 100
kwe 100
ู 100
zana 100
▁سن 100
ظ 100
kit 100
▁Bre 100
れ 100
▁film 100
体 100
▁Van 100
▁vagy 100
ujem 100
▁šta 100
stvo 100
▁vill 100
▁Про 100
ጅ 100
▁bin 100
▁baik 100
ffer 100
▁дин 100
anda 100
▁fyrir 100
တွင် 100
mand 100
▁nén 100
▁inmenu 100
으로 100
▁ئەمەس 100
▁مۇھەممەد 100
에서 100
دۇق 100
方 100
বার 100
▁دیں 100
ْ 100
tica 100
sche 100
रो 100
cí 100
▁වි 100
▁غ 100
▁todo 100
ű 100
teko 100
▁Hva 100
▁sí 100
▁toe 100
Na 100
mış 100
▁control 100
▁tema 100
ನ 100
без 100
ēt 100
iet 100
▁Som 100
mir 100
▁jekk 100
inə 100
gr 100
omis 100
▁fri 100
▁келтир 100
இ 100
▁bank 100
ρι 100
ļu 100
pend 100
▁option 100
▁rapport 100
▁ប 100
زى 100
ουμε 100
▁list 100
▁foar 100
сә 100
▁gel 100
tum 100
▁2012 100
rij 100
سی 100
▁malo 100
▁Θα 100
▁নাম 100
يز 100
▁қа 100
▁Hun 100
▁உங்களுக்கு 100
▁خۆیان 100
ર્ 100
ൊ 100
aithe 100
主 100
え 100
▁मु 100
ερ 100
কার 100
▁নিয়ে 100
▁todos 100
▁sunt 100
▁down 100
ପ 100
ές 100
нд 100
▁قىلدۇق 100
这些 100
▁Inter 100
ച്ച 100
ключ 100
โ 100
▁8. 100
▁ම 100
▁full 100
pho 100
▁~ 100
发展 100
ose 100
▁ئایا 100
ļ 100
EL 100
▁projekt 100
iu 100
стан 100
ਸ਼ 100
▁سوا 100
▁ව 100
▁Gar 100
▁έ 100
▁35 100
ți 100
▁mafi 100
▁transport 100
▁cri 100
▁сум 100
▁ūér 100
▁Okay 100
sing 100
meni 100
▁мен 100
ły 100
▁ന 100
▁Europe 100
▁бил 100
вы 100
imin 100
▁Jack 100
aŭ 100
ība 100
▁тор 100
oh 100
ono 100
ndawo 100
▁Europsk 100
tag 100
test 100
2007 100
ET 100
ശ 100
нә 100
elt 100
▁എന്ന 100
▁tá 100
αν 100
▁Commission 100
ota 100
▁عمل 100
▁ker 100
▁وی 100
28 100
ларын 100
drž 100
8/ 100
tje 100
ntar 100
మ 100
ჟრ 100
hol 100
▁auch 100
▁कहा 100
▁उसे 100
but 100
▁Ü 100
▁(1) 100
▁албатта 100
▁lõkacin 100
▁üz 100
vos 100
ını 100
eks 100
▁نام 100
anga 100
んだ 100
▁blir 100
ળ 100
▁être 100
Me 100
▁Fu 100
nku 100
سي 100
▁مجھے 100
uan 100
▁т 100
ľ 100
▁tuo 100
▁bal 100
வி 100
▁бўлган 100
alo 100
ую 100
▁Što 100
05 100
୍ 100
rad 100
lijk 100
▁bur 100
▁რჲგა 100
اح 100
nnen 100
RO 100
ڕ 100
▁Ме 100
▁00 100
ి 100
▁0. 100
▁opera 100
▁پی 100
ଣ 100
λε 100
▁worden 100
ാവ 100
ี 100
מה 100
▁उस 100
யா 100
▁mm 100
报告 100
مىز 100
ായി 100
▁እንደ 100
pä 100
site 100
▁നിങ്ങളുടെ 100
▁அவர்களுக்கு 100
▁Sal 100
▁produkt 100
▁pants 100
▁മു 100
▁window 100
▁når 100
▁pli 100
▁Itu 100
тел 100
▁veur 100
ଳ 100
сан 100
tsi 100
პჲ 100
cə 100
သ 100
▁1999 100
Da 100
▁Ste 100
lun 100
▁If 100
▁هذه 100
▁vert 100
bet 100
ind 100
any 100
ด้วย 100
▁kot 100
▁ent 100
▁2013 100
mai 100
pl 100
ټ 100
மை 100
▁الإ 100
▁ID 100
ുള്ള 100
▁агар 100
▁Аз 100
▁थे 100
▁ඉ 100
▁உங்கள் 100
este 100
▁ট 100
▁их 100
▁ទ 100
اج 100
▁Không 100
▁mü 100
▁кел 100
▁ආ 100
ков 100
▁דעם 100
tle 100
▁ڵێن 100
▁ấy 100
Ā 100
list 100
!» 100
sun 100
▁nacional 100
▁Aus 100
fr 100
▁nào 100
▁мене 100
င် 100
▁tkun 100
led 100
ката 100
▁보 100
cé 100
ξ 100
ων 100
؟! 100
لي 100
▁аларның 100
से 100
چە 100
▁नाम 100
rek 100
dus 100
▁fir 100
▁gå 100
▁informa 100
egi 100
irt 100
مي 100
▁হয়ে 100
▁mı 100
▁ពី 100
স্ট 100
ப்பட 100
ства 100
后 100
▁pēc 100
▁thế 100
▁кон 100
မှာ 100
ิ 100
▁qa 100
lag 100
Ä 100
▁off 100
▁mini 100
▁αν 100
ey 100
す 100
▁place 100
▁andre 100
▁pergi 100
▁سىلەرنىڭ 100
"? 100
pper 100
дор 100
▁κ 100
day 100
ним 100
▁OK 100
▁vz 100
▁එ 100
யும் 100
▁दिन 100
▁punkt 100
ια 100
▁Cre 100
ไม่ได้ 100
ñ 100
▁jy 100
amento 100
ont 100
▁ii 100
▁public 100
▁τους 100
bru 100
▁روز 100
▁تە 100
▁করেছে 100
dí 100
▁qual 100
▁उन्हें 100
▁fram 100
idade 100
ായ 100
ಮ 100
▁bih 100
▁ông 100
▁firenena 100
iji 100
▁ച 100
SE 100
▁inform 100
▁кор 100
ىل 100
plat 100
▁От 100
▁ہیں۔ 100
У 100
各 100
gat 100
ус 100
они 100
wch 100
▁Hann 100
ħa 100
▁kura 100
மாக 100
▁Well 100
জন 100
▁करा 100
▁ச 100
ভাবে 100
بار 100
bro 100
▁edo 100
▁અ 100
▁sha 100
select 100
▁svoj 100
▁שלי 100
▁наме 100
▁1" 100
▁نیه 100
▁good 100
▁prí 100
jú 100
ches 100
lika 100
स्त 100
cima 100
▁‘ 100
igen 100
▁vida 100
▁taip 100
32 100
▁მა 100
▁vra 100
▁mp 100
ही 100
ania 100
وب 100
▁साथ 100
▁сме 100
្រ 100
yê 100
La 100
ца 100
ட்ட 100
رد 100
▁vaovao 100
▁যখন 100
በት 100
▁poli 100
▁sna 100
ums 100
▁semua 100
▁saa 100
tse 100
▁zem 100
▁کہہ 100
avimo 100
uru 100
▁سىلەرنى 100
▁ра 100
▁mě 100
▁തീര്‍ച്ചയായും 100
▁jako 100
▁ছবি 100
▁иш 100
▁ח 100
49 100
▁Nuk 100
▁च 100
λα 100
ळ 100
▁nešto 100
taj 100
▁osob 100
▁tebe 100
▁বলে 100
▁tə 100
▁Mus 100
▁HTML 100
▁gro 100
MS 100
▁Ф 100
▁Т 100
об 100
▁Как 100
kle 100
▁super 100
রি 100
▁மீது 100
ችሁ 100
▁син 100
▁Ч 100
गे 100
▁tvoj 100
▁сезнең 100
▁ягъни 100
ೆ 100
ük 100
力 100
▁مر 100
stav 100
ләре 100
▁Pr 100
▁sul 100
▁وان 100
政府 100
▁אבל 100
rti 100
гыз 100
гән 100
▁znam 100
▁එයා 100
Al 100
▁saja 100
ful 100
▁بولۇپ 100
▁എ 100
fri 100
ningen 100
▁әйт 100
ద 100
ె 100
rán 100
▁period 100
وار 100
unk 100
▁буд 100
▁नाही 100
В 100
LA 100
▁Sy 100
ത്തില്‍ 100
ছি 100
iau 100
▁ئىدى 100
නි 100
▁já 100
▁đang 100
زی 100
zik 100
نت 100
▁pus 100
生 100
▁الس 100
pin 100
gne 100
په 100
▁Так 100
▁foto 100
70 100
каза 100
▁тут 100
ണ്ട 100
▁ngo 100
▁Spe 100
▁går 100
04 100
▁ឬ 100
anti 100
дик 100
▁oma 100
▁those 100
duk 100
▁Tan 100
uku 100
eld 100
▁gener 100
ეა 100
▁loku 100
ازىل 100
вр 100
▁2016 100
▁selv 100
▁הא 100
▁ве 100
tive 100
▁Onun 100
íš 100
▁ሌላ 100
▁ដើម្បី 100
ଦ 100
▁moje 100
▁seperti 100
▁politika 100
▁Đ 100
ijos 100
▁information 100
ješ 100
▁hori 100
ப்பட்ட 100
▁hel 100
adas 100
▁Tel 100
▁belə 100
物 100
장 100
用 100
يات 100
2003 100
ád 100
шу 100
த்தில் 100
▁əzab 100
ىپ 100
▁atë 100
යා 100
നി 100
اف 100
kata 100
▁comh 100
▁ይህ 100
cr 100
ddi 100
ซ 100
▁aktiv 100
▁Yã 100
вар 100
সা 100
νο 100
reg 100
▁አል 100
▁ት 100
zie 100
ĉ 100
▁2, 100
正 100
▁Tr 100
לי 100
क़ 100
itt 100
▁use 100
лә 100
run 100
▁เธอ 100
ඩ 100
▁مو 100
ort 100
ମ 100
03 100
▁mie 100
▁há 100
llis 100
ãwa 100
06 100
▁мал 100
פֿ 100
யில் 100
αρ 100
uto 100
▁அவர் 100
નું 100
▁ند 100
▁Fer 100
وم 100
▁jiġu 100
جو 100
cre 100
▁block 100
▁Nej 100
ï 100
ische 100
▁delle 100
▁heeft 100
▁β 100
mie 100
TO 100
去 100
▁200 100
LE 100
kti 100
ав 100
ுடைய 100
ؤ 100
يه 100
▁ए 100
▁ख 100
ேன் 100
pal 100
ON 100
最 100
能 100
▁ол 100
▁ón 100
زا 100
▁muốn 100
மான 100
▁Come 100
▁Ж 100
▁자 100
دان 100
▁Din 100
▁រ 100
про 100
ža 100
▁group 100
ист 100
hed 100
▁στην 100
лаш 100
▁hit 100
vien 100
▁cas 100
wal 100
pres 100
▁ईमान 100
▁යන්න 100
▁ọ 100
ned 100
▁ไม่ 100
▁저 100
და 100
▁media 100
ങ്ങ 100
گى 100
zz 100
ging 100
▁ces 100
▁الج 100
▁trong 100
lå 100
ची 100
▁format 100
пер 100
▁لیا 100
▁ću 100
▁сез 100
lərini 100
sal 100
▁kum 100
▁bon 100
ೀ 100
থ 100
mission 100
▁سی 100
lana 100
▁jkun 100
stel 100
です 100
kro 100
할 100
ئا 100
▁Mes 100
ndu 100
бе 100
เรา 100
▁तुम्हें 100
▁kann 100
▁maj 100
το 100
▁দি 100
▁'' 100
75 100
▁Ger 100
اع 100
▁мин 100
jos 100
rus 100
വര്‍ 100
ndra 100
▁prote 100
шта 100
▁cái 100
와 100
通过 100
得 100
lf 100
▁than 100
▁ዘንድ 100
▁чтобы 100
ෙන් 100
09 100
ೇ 100
ister 100
ழு 100
▁indrindra 100
sın 100
ffe 100
নে 100
tab 100
▁ook 100
чу 100
▁przy 100
▁mirë 100
▁ማ 100
▁yaxşı 100
مون 100
▁Artikel 100
▁sua 100
Country 100
has 100
▁Ac 100
ীয় 100
ੈ 100
டு 100
▁ឲ្យ 100
ಪ 100
▁pasi 100
ẽ 100
▁sudah 100
vent 100
▁كل 100
▁ဖိုင် 100
ഷ 100
工作 100
ۇش 100
ধ 100
skap 100
િ 100
ំ 100
चा 100
lk 100
▁Evolution 100
▁یاد 100
▁DE 100
▁Ap 100
öv 100
menti 100
▁Mis 100
bur 100
▁Ин 100
▁Vijeća 100
Kunsill 100
▁tim 100
وز 100
дам 100
▁tipo 100
▁Esta 100
sis 100
▁wel 100
▁ہوگا 100
▁only 100
▁Ӯ 100
▁ingen 100
▁അവരുടെ 100
▁tun 100
▁most 100
sini 100
ൊരു 100
▁Res 100
кор 100
нән 100
▁pří 100
▁gal 100
ینه 100
hele 100
حق 100
ىش 100
ঁ 100
▁huwa 100
▁hvor 100
▁exp 100
ွ 100
non 100
яр 100
isen 100
▁بخش 100
▁रसूल 100
▁start 100
▁Ele 100
▁siz 100
▁ත 100
lus 100
sjon 100
▁شۈبھىسىزكى 100
или 100
▁ნჲ 100
jä 100
▁sir 100
▁sabõda 100
▁radio 100
▁така 100
▁Bur 100
▁ime 100
▁bhfuil 100
▁имон 100
gum 100
▁त 100
▁επι 100
jak 100
ዝ 100
33 100
rika 100
▁check 100
றி 100
▁Η 100
пу 100
过 100
▁dur 100
▁நி 100
▁ס 100
fana 100
▁ئادەم 100
▁пәйгамбәр 100
▁45 100
इ 100
▁съ 100
▁ជ្រើស 100
▁solo 100
gir 100
▁još 100
фа 100
▁rehetra 100
这 100
gos 100
07 100
▁아니 100
inio 100
идан 100
ans 100
▁hebben 100
ného 100
▁naar 100
▁Qu 100
vě 100
▁кол 100
▁Со 100
▁Dette 100
rer 100
▁etter 100
essa 100
都 100
▁তাঁর 100
▁نها 100
ār 100
τά 100
▁vērā 100
uni 100
被 100
भ 100
▁pazjenti 100
ោ 100
▁સ 100
over 100
ologi 100
ова 100
py 100
jte 100
дон 100
▁εν 100
▁ڕا 100
ף 100
gor 100
เน 100
前 100
▁sent 100
名 100
የ 100
▁eks 100
් 100
4/ 100
▁Το 100
▁kull 100
ācijas 100
kker 100
包括 100
▁ہدایت 100
▁нарса 100
▁کې 100
rett 100
ēm 100
kia 100
lju 100
iya 100
▁như 100
kir 100
▁ышан 100
سم 100
▁translate 100
کھ 100
▁fun 100
ור 100
വര 100
▁الح 100
明 100
ві 100
利 100
▁الع 100
▁way 100
sik 100
▁hy 100
▁haben 100
部 100
pak 100
ден 100
▁yake 100
▁уларга 100
▁Alt 100
▁harus 100
شه 100
▁φ 100
tch 100
่า 100
35 100
▁Có 100
▁edən 100
▁pil 100
▁zur 100
ɗa 100
▁При 100
▁Cho 100
atzen 100
▁qal 100
▁tir 100
hara 100
ņem 100
мат 100
ښ 100
eno 100
▁gera 100
▁mus 100
เรื่อง 100
ూ 100
erte 100
মান 100
▁TRANSLATORS 100
▁Tal 100
Anness 100
▁Бо 100
ውን 100
▁fond 100
▁mnie 100
드 100
بۇ 100
▁አት 100
▁dira 100
▁tut 100
صل 100
ുന്നത് 100
▁برا 100
▁deve 100
ISO 100
▁svar 100
ingen 100
nal 100
▁เขา 100
▁favor 100
▁They 100
eka 100
kre 100
▁لقد 100
▁सब 100
uwa 100
特 100
▁bem 100
▁spre 100
▁més 100
▁ወይ 100
▁Bra 100
.” 100
së 100
▁соң 100
cep 100
ió 100
ír 100
ką 100
▁રહ્ય 100
7/ 100
ест 100
リ 100
اک 100
ään 100
daj 100
ון 100
оз 100
die 100
方案 100
▁moi 100
θε 100
لارغا 100
▁cal 100
▁mə 100
▁რვ 100
▁prop 100
▁পরি 100
arra 100
▁бел 100
จาก 100
▁الق 100
▁fol 100
اری 100
▁ধ 100
மே 100
▁Artikolu 100
▁ила 100
ફ 100
▁1' 100
▁түгел 100
ೂ 100
inti 100
ünk 100
dzie 100
rta 100
▁συν 100
▁để 100
▁азоб 100
▁करने 100
rata 100
▁sani 100
▁ple 100
(1) 100
数 100
ங்க 100
hem 100
▁princip 100
▁said 100
▁شي 100
ključ 100
නා 100
▁sada 100
▁มัน 100
▁ئاندىن 100
▁ਕਰੋ 100
▁° 100
ší 100
bia 100
ائی 100
jom 100
ు 100
▁Yeah 100
▁our 100
つ 100
▁ද 100
▁jiġi 100
▁wara 100
லை 100
dr 100
tiv 100
ុ 100
进行 100
બ 100
рат 100
ӯ 100
ပြီး 100
дилар 100
▁кер 100
hon 100
ా 100
čí 100
▁пар 100
moni 100
▁këtë 100
isten 100
part 100
斯 100
zor 100
▁straipsnis 100
▁social 100
key 100
mail 100
▁просто 100
പ്പെട്ട 100
▁people 100
nici 100
ێك 100
▁user 100
сен 100
▁dire 100
▁indi 100
▁dã 100
ať 100
jā 100
دون 100
入 100
rena 100
dilər 100
dje 100
▁Wo 100
手 100
▁नि 100
") 100
▁క 100
▁प्रयोग 100
▁علم 100
▁mpanao 100
▁disse 100
prim 100
გვ 100
σε 100
▁кунед 100
khu 100
ына 100
▁Vor 100
फ़ 100
▁{ 100
Л 100
▁lang 100
noj 100
▁كۆر 100
▁condition 100
aidh 100
کو 100
ไ 100
imas 100
rob 100
σα 100
రు 100
▁stan 100
ကြ 100
ady 100
дек 100
ላችሁ 100
رم 100
хо 100
para 100
▁ගැන 100
▁aktar 100
▁bul 100
vie 100
ቆ 100
▁General 100
▁الب 100
می 100
▁اي 100
▁Wi 100
▁lä 100
TE 100
hair 100
▁bel 100
▁160;: 100
▁eksport 100
▁ପାଇଁ 100
।" 100
▁አለ 100
лю 100
・ 100
вед 100
▁טוב 100
දි 100
尔 100
▁pasa 100
▁эди 100
ಡ 100
ère 100
▁TA 100
dé 100
▁sana 100
▁მვ 100
▁ingin 100
text 100
نو 100
▁ūig 100
▁باشه 100
▁ар 100
izi 100
azzjonijiet 100
გჲ 100
chu 100
▁在 100
вод 100
kaj 100
ண 100
心 100
▁पास 100
ului 100
▁ପ 100
ಲು 100
ym 100
▁two 100
▁тот 100
▁video 100
நபியே 100
▁its 100
▁sanya 100
▁deze 100
里 100
shin 100
وی 100
▁kla 100
ሻ 100
▁यदि 100
ρε 100
▁י 100
inter 100
▁noteikt 100
▁سال 100
▁liv 100
▁কোনো 100
ზ 100
▁integr 100
iamo 100
ев 100
▁হচ্ছে 100
รู้ 100
▁point 100
eti 100
еннән 100
pli 100
▁боз 100
▁attiecībā 100
ак 100
бы 100
rov 100
øy 100
▁36 100
▁pero 100
dil 100
▁té 100
▁ger 100
▁gar 100
▁1/ 100
▁plat 100
43 100
ijas 100
▁전 100
▁ছিল 100
▁ш 100
mul 100
▁കാണ 100
sky 100
yer 100
ешь 100
加 100
▁över 100
рд 100
ções 100
AN 100
▁even 100
ế 100
▁نازل 100
▁кўр 100
▁μια 100
▁പറഞ്ഞു 100
aci 100
▁تمہارا 100
▁మరియు 100
teik 100
▁генә 100
▁noe 100
lement 100
ڵ 100
や 100
time 100
▁һәр 100
જ 100
89 100
▁Tai 100
ņēm 100
▁aç 100
dere 100
ible 100
ahana 100
▁Ç 100
▁spa 100
▁lí 100
cija 100
▁mag 100
▁ئېيتتى 100
ං 100
sən 100
▁ਨੂੰ 100
▁تعالیٰ 100
▁راست 100
▁70 100
▁עם 100
▁së 100
hel 100
imą 100
▁svoje 100
ρο 100
लो 100
ив 100
ګ 100
▁hana 100
▁jau 100
table 100
36 100
▁muku 100
▁അത 100
ത്തെ 100
aus 100
▁ሰዎች 100
▁normal 100
▁teh 100
uze 100
▁செய்து 100
ρά 100
▁ਪ 100
CC 100
▁گئے 100
कार 100
ларнинг 100
ych 100
▁shumë 100
יי 100
mint 100
▁Ú 100
post 100
▁Viđ 100
▁Tur 100
하고 100
▁2013. 100
▁Мы 100
▁total 100
▁Ken 100
▁tror 100
hai 100
▁Tha 100
IS 100
▁បង្ហាញ 100
当 100
▁নতুন 100
▁33 100
▁hay 100
▁kəs 100
▁nada 100
▁fid 100
تم 100
ଟ 100
权 100
ller 100
▁қол 100
▁बना 100
ambi 100
▁esan 100
kevitra 100
▁មួយ 100
enda 100
иши 100
▁lena 100
dag 100
ית 100
▁خبر 100
▁ένα 100
▁они 100
cker 100
ړ 100
ques 100
(_ 100
ตัว 100
oko 100
▁baş 100
▁tiek 100
▁moment 100
▁τις 100
▁қил 100
مر 100
▁jista 100
ഗ 100
tso 100
▁चयन 100
レ 100
MA 100
තු 100
ός 100
DI 100
48 100
▁კჲ 100
יה 100
▁کہتے 100
▁어 100
มาก 100
bah 100
90 100
tany 100
▁سخت 100
ሸ 100
▁거 100
eer 100
llu 100
▁Τ 100
▁প্রতি 100
tia 100
win 100
▁apie 100
คือ 100
rab 100
▁class 100
pel 100
cción 100
lung 100
λι 100
RE 100
▁һәлак 100
zni 100
kes 100
▁ә 100
لة 100
שי 100
سر 100
▁cậu 100
tsu 100
buru 100
▁sei 100
▁bħala 100
▁бол 100
miento 100
hala 100
stal 100
▁geen 100
▁gla 100
▁satu 100
тир 100
િત 100
▁আপনি 100
▁Pod 100
▁nå 100
▁שלך 100
▁metod 100
ති 100
▁faire 100
ดู 100
არ 100
רו 100
فا 100
ላቸው 100
机构 100
پا 100
ளி 100
▁sein 100
▁வழி 100
▁én 100
нь 100
εί 100
▁loc 100
LO 100
▁European 100
▁하 100
Ku 100
nci 100
fika 100
▁mark 100
▁message 100
▁Pol 100
аў 100
▁vara 100
ван 100
мак 100
iche 100
▁ط 100
▁iza 100
The 100
▁ചെയ്ത 100
▁esti 100
არა 100
ім 100
▁Муса 100
▁булса 100
tī 100
স্ 100
▁dom 100
▁could 100
▁kg 100
kele 100
rana 100
ude 100
้ 100
ké 100
kil 100
җ 100
▁fomba 100
▁උ 100
▁работа 100
ull 100
▁minu 100
▁خوایه 100
▁করেছেন 100
▁Ut 100
▁dapat 100
▁Jak 100
所有 100
ણ 100
izany 100
ہماری 100
▁situa 100
▁Sr 100
▁tele 100
▁Ну 100
▁sup 100
▁شد 100
nzi 100
ચ 100
liga 100
νε 100
▁แล้ว 100
сно 100
ED 100
▁Mil 100
inte 100
īt 100
▁yr 100
▁njegov 100
ето 100
yen 100
▁pensa 100
iň 100
Н 100
katu 100
▁dio 100
ீ 100
▁hil 100
▁ч 100
জা 100
▁амал 100
▁Bel 100
▁ساڭا 100
55 100
▁300 100
▁są 100
け 100
▁sel 100
ん 100
นาย 100
▁fotoana 100
39 100
▁ž 100
ாத 100
esi 100
ာ 100
▁بعض 100
Di 100
ात 100
▁Fil 100
hit 100
34 100
ында 100
ಟ್ 100
ौ 100
να 100
▁गया 100
ира 100
▁nom 100
▁Frank 100
▁ду 100
way 100
▁ला 100
angan 100
ated 100
▁થયેલ 100
ome 100
ጡ 100
▁เรา 100
▁Това 100
▁kes 100
▁Bro 100
▁х 100
▁නි 100
ું 100
▁چونکه 100
▁செய்ய 100
rac 100
vesti 100
▁dana 100
▁від 100
rsa 100
dry 100
اه 100
دەك 100
vä 100
pol 100
自 100
oti 100
ije 100
ual 100
һ 100
лай 100
▁ئازاب 100
▁Sha 100
▁него 100
▁2) 100
▁Ни 100
ಲ್ 100
nna 100
its 100
tif 100
次 100
गा 100
وان 100
вид 100
▁گو 100
ney 100
▁ص 100
jek 100
หา 100
▁Kun 100
пи 100
▁Sk 100
ۈپ 100
▁cette 100
pita 100
▁cel 100
▁kunne 100
▁ਫਾਇਲ 100
▁Μ 100
▁bụ 100
▁Cal 100
▁கூற 100
▁года 100
Ñ 100
▁hvis 100
▁mano 100
हा 100
वर 100
▁මේක 100
▁Sun 100
▁IDOSIYE 100
想 100
uf 100
▁goed 100
▁vä 100
لەرنى 100
ments 100
▁Hai 100
▁give 100
▁svo 100
▁일 100
IC 100
sso 100
▁І 100
▁করো 100
▁Article 100
ph 100
ખ 100
मान 100
▁جاؤ 100
▁نجام 100
पा 100
mode 100
ព 100
▁کنم 100
▁там 100
▁adres 100
▁سۆز 100
▁number 100
ago 100
▁তথ্য 100
▁prema 100
▁] 100
▁היא 100
بہ 100
▁прав 100
37 100
▁уни 100
▁form 100
tung 100
▁آئے 100
န် 100
▁fh 100
▁prima 100
▁partner 100
ට් 100
▁från 100
nings 100
τη 100
ൈ 100
▁ө 100
ном 100
bl 100
▁vei 100
▁ڵام 100
ങ്ക 100
さ 100
▁çox 100
▁einen 100
▁بس 100
▁ef 100
▁یہی 100
dika 100
کے 100
ىدىن 100
یہ 100
ፋ 100
▁پەيغەمبەر 100
▁Este 100
▁বাবে 100
▁qua 100
▁War 100
rne 100
▁eit 100
\\ 100
▁eile 100
▁9. 100
ūr 100
▁taj 100
cel 100
▁ফাইল 100
▁Reg 100
▁lahko 100
▁Mən 100
sze 100
85 100
▁गरिएको 100
하는 100
▁тә 100
▁قىلىنغان 100
▁sektor 100
tit 100
alla 100
ுடன் 100
88 100
qe 100
၏ 100
alta 100
▁Што 100
▁Idosiye 100
▁haar 100
▁কথা 100
ቸው 100
lıq 100
▁liber 100
▁main 100
▁akwai 100
ίν 100
▁bie 100
▁كىتاب 100
anja 100
▁tās 100
ዛ 100
▁dago 100
没有 100
▁Allahdan 100
▁លើ 100
▁Tam 100
pia 100
ġġ 100
kej 100
czy 100
ყ 100
ยัง 100
जा 100
маган 100
cije 100
▁بولسا 100
ř 100
▁Ye 100
band 100
شر 100
ną 100
▁eku 100
▁map 100
kum 100
▁size 100
▁यो 100
ford 100
ορ 100
▁fort 100
▁før 100
▁Wir 100
flu 100
mañ 100
▁مى 100
▁Tri 100
RI 100
kol 100
▁život 100
▁ora 100
▁איז 100
view 100
bul 100
▁Hal 100
ලි 100
▁01 100
▁କ 100
এ 100
▁тебя 100
▁10. 100
ého 100
▁(1 100
▁Kap 100
dala 100
▁δια 100
▁треба 100
sil 100
▁olma 100
▁ھەق 100
▁pole 100
श् 100
سه 100
▁York 100
려 100
ছ 100
▁henne 100
こと 100
着 100
▁চা 100
▁юк 100
ayo 100
mh 100
ως 100
ချက် 100
▁በተ 100
mena 100
▁best 100
▁إن 100
əm 100
κα 100
▁gətir 100
▁我们 100
rc 100
റിയ 100
lut 100
▁Membri 100
▁баш 100
▁hija 100
▁sm 100
▁دیتا 100
ನ್ 100
kop 100
▁Sən 100
▁मान 100
▁रहा 100
bud 100
kki 100
üm 100
Эй 100
ሙ 100
▁second 100
▁12. 100
سل 100
▁Kol 100
▁last 100
▁ون 100
▁ƙasa 100
drag 100
ić 100
吗 100
에게 100
ios 100
mien 100
▁чи 100
নের 100
▁Če 100
일 100
▁ass 100
last 100
▁oħra 100
▁អ 100
مل 100
KChar 100
għa 100
weather 100
▁වෙන්න 100
ีย 100
mist 100
▁күр 100
▁علیه 100
lys 100
▁bas 100
▁hemm 100
ncaq 100
ૂ 100
Í 100
▁செய்த 100
തു 100
42 100
▁راہ 100
ዱ 100
▁Vil 100
ใจ 100
раз 100
▁કરી 100
▁\ 100
▁gri 100
▁Tapi 100
ever 100
▁Just 100
▁내가 100
▁قیام 100
▁stop 100
Mi 100
▁ଆ 100
▁अपनी 100
อร์ 100
▁بڵێ 100
في 100
▁Ewropea 100
▁নয় 100
amp 100
▁ble 100
▁사 100
▁হৈছে 100
▁جسے 100
▁nghĩ 100
aid 100
vanja 100
фи 100
мәс 100
װ 100
ខ 100
内 100
▁interes 100
▁بکات 100
तो 100
▁ҳа 100
▁برای 100
▁لائے 100
▁kim 100
▁questo 100
▁אם 100
aria 100
▁günah 100
uju 100
май 100
્ 100
▁നിന്ന് 100
▁exist 100
▁Hij 100
▁Ūetta 100
▁Из 100
idi 100
▁何 100
אָ 100
▁saat 100
▁ҳақ 100
▁tap 100
发 100
dad 100
ismo 100
▁nok 100
enn 100
▁فرما 100
47 100
ום 100
▁aici 100
信 100
els 100
▁forecast 100
िया 100
fon 100
aires 100
ओ 100
▁kontra 100
▁ਬ 100
▁ren 100
klad 100
සු 100
tā 100
▁đâu 100
နေ 100
▁bukan 100
trag 100
čne 100
rati 100
▁Meg 100
ப்பு 100
▁пеш 100
▁34 100
ασ 100
ران 100
▁Ovo 100
▁́ 100
▁Bal 100
цы 100
jt 100
お 100
Istati 100
وس 100
▁term 100
aí 100
plo 100
▁Ре 100
Á 100
▁जिन 100
▁Tä 100
rai 100
▁फ 100
▁هێناوه 100
gl 100
▁kra 100
თრვ 100
▁Mari 100
ppa 100
▁гыйбадәт 100
▁cy 100
ڑ 100
▁دان 100
▁motor 100
▁olen 100
SL 100
בי 100
▁dh 100
こ 100
▁nes 100
्र 100
▁कार्य 100
ാല്‍ 100
hé 100
▁Má 100
▁lebih 100
cas 100
▁خوش 100
pul 100
ray 100
▁بت 100
▁sko 100
рам 100
« 100
ış 100
었 100
eke 100
▁kontakt 100
▁site 100
ƙa 100
IM 100
izy 100
▁Jos 100
zza 100
hlo 100
▁članka 100
▁Что 100
▁সং 100
▁juga 100
▁gonna 100
थ 100
거 100
ности 100
ję 100
▁instrument 100
AM 100
▁Ще 100
lari 100
▁എനിക്ക് 100
ért 100
ಂ 100
jin 100
▁Gal 100
ില 100
▁ஆனால் 100
ሪ 100
ढ 100
▁Vad 100
▁hari 100
▁الذي 100
▁ធ្វើ 100
执行 100
më 100
ail 100
▁ktoré 100
▁Web 100
mini 100
bere 100
ധ 100
ರಿ 100
▁frem 100
нес 100
▁einer 100
▁تمام 100
▁것 100
▁داد 100
ቶች 100
▁yok 100
▁unicode 100
▁ӯ 100
טי 100
وع 100
▁75 100
▁rep 100
▁কাজ 100
zul 100
▁work 100
жда 100
▁Hvis 100
▁سوێند 100
SS 100
had 100
สิ 100
tari 100
▁vậy 100
dě 100
▁προ 100
▁ബ 100
»: 100
▁או 100
▁sar 100
▁log 100
eza 100
▁oc 100
▁απο 100
▁барча 100
ase 100
▁Ū 100
▁করার 100
▁11. 100
▁alhãli 100
▁problema 100
ভা 100
请 100
ঃ 100
▁plu 100
ência 100
anza 100
ჲრ 100
59 100
dė 100
99 100
▁Son 100
▁oh 100
сиз 100
kı 100
prop 100
▁Fir 100
▁đến 100
合 100
وق 100
▁May 100
▁Parlament 100
▁അറിയ 100
นี่ 100
▁daar 100
▁prije 100
ച 100
stva 100
entes 100
rais 100
▁היה 100
UN 100
▁இல்லை 100
데 100
▁ಕ 100
条 100
נ 100
siniz 100
ಣ 100
Ий 100
▁кеби 100
▁போ 100
стра 100
▁cả 100
ట 100
iş 100
点 100
ον 100
ому 100
ium 100
▁она 100
▁olduğunu 100
(2) 100
isto 100
▁ঘ 100
▁rá 100
вър 100
cor 100
aasje 100
▁ಸ 100
ুন 100
▁تھی 100
ெ 100
িয়া 100
ுள்ள 100
شى 100
▁ä 100
TS 100
▁estar 100
ንና 100
▁mijn 100
world 100
▁сезне 100
▁algo 100
▁Sc 100
ۋا 100
▁sizi 100
学 100
▁lei 100
كا 100
ാത്ത 100
▁сора 100
▁বে 100
▁ក 100
▁hva 100
▁pic 100
ivi 100
ាយ 100
家 100
▁Жа 100
col 100
ಗೆ 100
CI 100
▁Hvađ 100
▁දැන් 100
لم 100
▁घ 100
▁500 100
AP 100
रि 100
று 100
став 100
▁يوق 100
러 100
▁acc 100
pirenena 100
▁ھەر 100
▁উপ 100
▁kh 100
▁உள்ள 100
▁Είναι 100
eye 100
iske 100
වි 100
いた 100
xx 100
од 100
ଶ 100
unit 100
▁cara 100
▁frå 100
▁final 100
▁бошқа 100
lai 100
ரு 100
ém 100
ιν 100
▁kind 100
▁స 100
لارنىڭ 100
ries 100
▁бик 100
▁તે 100
▁bla 100
аль 100
87 100
ડ 100
▁ning 100
ેલ 100
▁going 100
ਬ 100
▁neet 100
▁ovdje 100
▁ڈال 100
Ta 100
化 100
▁দিয়ে 100
▁vos 100
▁also 100
▁대 100
áš 100
1, 100
▁Ubutumwa 100
▁પર 100
II 100
rid 100
▁кылды 100
ισ 100
▁fara 100
▁gebruik 100
▁میری 100
言 100
▁җир 100
кс 100
▁فکر 100
▁ор 100
▁ඉන්න 100
▁registr 100
DA 100
PA 100
berg 100
1⁄4 100
uv 100
ಸ್ 100
▁Vy 100
▁description 100
iert 100
▁pela 100
pé 100
εται 100
▁Bil 100
▁tiegħu 100
▁ਦੀ 100
91 100
פּ 100
▁ئەلۋەتتە 100
▁Not 100
▁tú 100
ság 100
ζ 100
vno 100
▁ако 100
期 100
cis 100
08 100
▁servi 100
šti 100
ிட 100
▁شده 100
▁obzir 100
ფა 100
laş 100
▁Dobro 100
tvor 100
ക്ഷ 100
▁Let 100
▁mala 100
כו 100
及 100
slag 100
डी 100
▁ebe 100
▁before 100
▁ჟა 100
เหรอ 100
▁किसी 100
зна 100
▁page 100
nou 100
یانه 100
uoti 100
▁мәгәр 100
কি 100
ım 100
▁về 100
iro 100
nit 100
▁કે 100
heit 100
ட் 100
▁çok 100
▁Dhe 100
▁китоб 100
▁અને 100
ao 100
▁пу 100
▁kuka 100
▁ნთ 100
▁ఈ 100
tant 100
▁Amerika 100
על 100
ndre 100
▁lea 100
▁በአላህ 100
യില്‍ 100
很 100
tsha 100
▁zai 100
▁Chúng 100
anlar 100
▁ялган 100
jë 100
/2 100
▁مرد 100
▁Kor 100
원 100
inde 100
lama 100
公约 100
Pro 100
起 100
ହ 100
ء 100
ამ 100
inin 100
ု 100
ाइ 100
ろ 100
他们 100
▁allt 100
▁яхшы 100
gama 100
▁በእርሱ 100
તા 100
tı 100
▁klar 100
vati 100
▁dalies 100
▁ከዚያ 100
▁כן 100
从 100
▁නැහැ 100
大会 100
▁Vai 100
行动 100
▁बात 100
2, 100
▁Эй 100
▁دور 100
▁Мухәммәд 100
▁molt 100
▁بايد 100
उ 100
alan 100
▁बा 100
idu 100
dde 100
▁Post 100
▁send 100
lip 100
Be 100
▁caso 100
▁ପ୍ର 100
▁אל 100
치 100
▁નહિં 100
▁sj 100
fund 100
▁wannan 100
新 100
kta 100
ऐ 100
▁ڵگ 100
▁1) 100
há 100
▁Bru 100
▁ро 100
理 100
பு 100
ラ 100
kup 100
▁gh 100
ሱ 100
PI 100
ထ 100
▁باز 100
گی 100
சு 100
▁сте 100
ség 100
▁Las 100
▁Ed 100
kam 100
▁prav 100
▁Bas 100
tali 100
▁мөэминнәр 100
ో 100
▁janë 100
ির 100
ıyor 100
aq 100
ила 100
▁ons 100
tain 100
yt 100
▁ਵਿੱਚ 100
▁að 100
▁tit 100
سە 100
▁پاک 100
▁asi 100
▁Це 100
▁المتحدة 100
وو 100
ங்கள் 100
ләрен 100
▁Eta 100
ಸ 100
lic 100
▁gang 100
row 100
73 100
▁Bay 100
▁azo 100
▁Ку 100
cc 100
вам 100
ड़ 100
▁sky 100
ქვ 100
fir 100
পি 100
adur 100
▁Ха 100
rze 100
салар 100
▁ڵکی 100
▁ча 100
▁রতি 100
takse 100
▁Тәхкыйк 100
▁sign 100
اڵ 100
▁dere 100
ect 100
▁هي 100
▁måste 100
▁ای 100
ొ 100
rp 100
اں 100
oms 100
▁mă 100
▁அல்லது 100
IE 100
▁Hel 100
ခ 100
▁mama 100
▁ret 100
▁지 100
dni 100
▁හ 100
rī 100
▁જ 100
▁هنا 100
aga 100
开 100
lyg 100
▁وتی 100
▁gaan 100
▁রয়েছে 100
▁നിങ്ങള 100
▁করেন 100
бі 100
edi 100
uw 100
iel 100
▁السلام 100
cam 100
gé 100
▁Mark 100
കള 100
onder 100
خر 100
ಿಸು 100
▁ოპთ 100
▁mak 100
دن 100
▁sigur 100
ís 100
ять 100
èi 100
fun 100
▁کہیں 100
кән 100
▁aon 100
ileyo 100
ное 100
▁һич 100
ew 100
พวก 100
▁ҳидоят 100
imh 100
imp 100
झ 100
fs 100
ала 100
▁ప 100
वि 100
人权 100
জে 100
▁tout 100
کن 100
amba 100
ór 100
ওয়া 100
46 100
▁Kal 100
sco 100
▁tsa 100
▁document 100
▁قىيامەت 100
ступ 100
KO 100
44 100
▁Mont 100
▁Uh 100
ville 100
▁ច 100
▁Mislim 100
▁مۇسا 100
axud 100
/1 100
▁없 100
itte 100
▁rod 100
▁Аллоҳга 100
▁jis 100
ዕ 100
ア 100
ോട് 100
▁risk 100
▁خۆش 100
රි 100
itat 100
Te 100
aat 100
уз 100
▁bera 100
ፊ 100
έρ 100
▁khi 100
▁Ә 100
čio 100
plan 100
uli 100
▁오 100
54 100
නවා 100
▁where 100
رة 100
▁সু 100
лаб 100
achadh 100
▁2014 100
side 100
▁نيست 100
▁काम 100
ۋ 100
▁cost 100
▁yã 100
ிக் 100
▁nema 100
▁ўз 100
ပ 100
වත් 100
▁چل 100
ယ် 100
ہوں 100
▁gəl 100
แค่ 100
▁hin 100
▁Και 100
▁pris 100
lý 100
▁Cap 100
rina 100
▁నా 100
ifi 100
▁ചെയ്യ 100
ෑ 100
▁something 100
▁Ag 100
ơ 100
▁Ќе 100
▁Ра 100
Le 100
ībā 100
▁ഇത് 100
nam 100
▁زاته 100
▁Τι 100
ско 100
ಟ 100
ojnë 100
▁Bet 100
▁esco 100
লো 100
డ్ 100
▁È 100
▁απ 100
▁Lord 100
อีก 100
▁weather 100
bio 100
文 100
▁ут 100
ど 100
▁কে 100
▁jistgħu 100
activ 100
▁URI 100
▁dawn 100
▁Dé 100
nat 100
យ 100
வில்லை 100
kara 100
▁मला 100
מו 100
žo 100
ace 100
ът 100
マ 100
یوں 100
▁मुझे 100
нов 100
▁Está 100
یر 100
vod 100
▁cum 100
вай 100
▁zal 100
burg 100
▁کس 100
ಕ್ 100
▁doża 100
▁наш 100
亚 100
▁جۆر 100
డు 100
▁regul 100
▁چې 100
în 100
dob 100
पर 100
ბჲ 100
ுவ 100
lio 100
▁48 100
ង់ 100
▁jedno 100
zes 100
ਤ 100
bụrụ 100
▁Го 100
▁Mini 100
▁کم 100
▁wedi 100
عا 100
tiva 100
അ 100
▁Raha 100
▁teu 100
▁There 100
zna 100
▁politik 100
jde 100
جر 100
▁isso 100
▁тук 100
ness 100
▁hans 100
拉 100
ရှိ 100
▁cẽwa 100
▁Ph 100
ис 100
▁ल 100
▁sak 100
ର୍ 100
long 100
יו 100
spec 100
लं 100
েৰ 100
▁zar 100
▁একটা 100
▁זיך 100
rije 100
▁ким 100
▁پشت 100
▁οι 100
▁дода 100
▁كۈنى 100
rè 100
▁ते 100
KA 100
▁Sim 100
வர் 100
▁પસંદ 100
▁National 100
عت 100
▁pl 100
με 100
▁Čo 100
▁Mae 100
하지 100
وي 100
EM 100
▁onder 100
lec 100
▁விட 100
istä 100
▁kollha 100
▁agent 100
▁mili 100
▁чун 100
ଖ 100
▁leur 100
▁Pla 100
▁werk 100
▁ఉంది 100
зе 100
ats 100
▁কিন্তু 100
cle 100
جه 100
▁Kim 100
▁più 100
▁què 100
gram 100
▁Komisijas 100
▁find 100
ös 100
ghe 100
AD 100
▁baina 100
يك 100
нәр 100
▁بي 100
▁Ро 100
بن 100
já 100
itza 100
្យ 100
بی 100
▁Pero 100
▁zou 100
▁በመ 100
เ 100
▁mbola 100
▁ბთ 100
▁dva 100
ına 100
▁při 100
▁meny 100
otta 100
▁sá 100
▁kã 100
ვნ 100
کت 100
▁кыл 100
▁direct 100
▁ہمیں 100
▁IN 100
osi 100
sat 100
osa 100
什么 100
ında 100
ciones 100
ać 100
▁ഓ 100
කි 100
▁دست 100
pit 100
▁nou 100
▁Nije 100
चे 100
▁Zer 100
kie 100
▁zum 100
lia 100
▁grande 100
回 100
ους 100
41 100
▁много 100
En 100
▁ഉ 100
)... 100
▁ብቻ 100
▁chuyện 100
сть 100
ழ 100
▁бўлса 100
▁بچ 100
▁fog 100
ij 100
▁mety 100
tern 100
▁ад 100
യെ 100
▁مخ 100
▁must 100
▁ফোল্ডাৰ 100
dt 100
▁ses 100
▁نیک 100
ළ 100
NA 100
▁những 100
gere 100
▁UN 100
lisa 100
同 100
▁cer 100
▁фа 100
quot 100
▁jä 100
▁kunye 100
▁قو 100
ique 100
▁kuru 100
рак 100
දු 100
▁کافر 100
▁För 100
▁ħ 100
▁مل 100
▁кас 100
▁toho 100
வன 100
▁வர 100
vere 100
رب 100
▁న 100
51 100
▁nisam 100
تە 100
▁sho 100
▁hur 100
cina 100
▁അവര 100
▁sistem 100
ထား 100
یعنی 100
▁Fan 100
tun 100
▁অথবা 100
บอก 100
▁importa 100
▁fac 100
کرد 100
▁Mag 100
▁أنت 100
മ്പ 100
▁eso 100
ान 100
Qué 100
lərə 100
▁каты 100
esc 100
vali 100
▁Era 100
बर 100
zim 100
lg 100
▁teny 100
lú 100
രി 100
▁جانتا 100
leni 100
合作 100
וב 100
▁tym 100
στε 100
▁قىلغۇچىدۇر 100
ұ 100
้น 100
ulu 100
▁product 100
čen 100
▁só 100
▁ಈ 100
▁string 100
▁چوقۇم 100
نده 100
യാണ് 100
▁siis 100
▁kä 100
kala 100
▁gant 100
▁kö 100
غىن 100
press 100
lta 100
活动 100
68 100
▁hr 100
▁Union 100
▁قسم 100
ovať 100
vina 100
▁39 100
▁بىزنىڭ 100
▁қилиш 100
▁gor 100
gara 100
▁한 100
▁তবে 100
▁lát 100
▁2015 100
38 100
▁हूँ 100
పు 100
妇女 100
▁دونوں 100
▁aber 100
ых 100
bus 100
દ 100
▁μας 100
▁কৰিব 100
▁அவர்களை 100
ions 100
▁politi 100
şı 100
▁ඔහු 100
▁civil 100
▁error 100
▁چاہتا 100
▁میشه 100
▁ቅጣት 100
каз 100
rup 100
▁Facebook 100
▁چھوڑ 100
▁време 100
tza 100
લા 100
ży 100
▁David 100
SC 100
ott 100
ial 100
שט 100
خوا 100
▁vari 100
skih 100
▁باشقا 100
▁Му 100
ിക 100
djel 100
▁йўқ 100
▁кыямәт 100
▁კა 100
शी 100
▁Chan 100
▁proces 100
▁dla 100
▁Fre 100
ನೆ 100
▁نگ 100
ech 100
▁(2) 100
ေ 100
▁əl 100
ਾਈ 100
нан 100
▁кал 100
lap 100
lev 100
στ 100
等 100
▁www 100
gia 100
▁ક 100
▁geri 100
ċe 100
chy 100
▁אי 100
▁רוצה 100
▁چاغدا 100
▁Mereka 100
දා 100
عة 100
US 100
▁хөкем 100
വരെ 100
▁მჲ 100
▁MB 100
при 100
▁אז 100
▁menjadi 100
lad 100
▁nak 100
▁olun 100
ĝo 100
ര്‍ത്ത 100
eh 100
▁аның 100
看 100
▁کاتێک 100
▁همه 100
▁egiten 100
▁অনু 100
ነበ 100
▁mari 100
gil 100
▁first 100
Query 100
àn 100
сп 100
ларига 100
▁እኛ 100
▁Program 100
▁നിങ്ങള്‍ക്ക് 100
▁אנחנו 100
مة 100
▁naš 100
کہ 100
ரிய 100
▁Jen 100
▁ова 100
mēr 100
▁noch 100
lash 100
▁چي 100
ذا 100
ils 100
▁нест 100
พูด 100
▁Und 100
▁нема 100
وف 100
kārt 100
ଜ 100
▁essere 100
punkt 100
ibh 100
rđu 100
▁يول 100
pil 100
▁Komisije 100
▁governemanta 100
▁color 100
radi 100
ής 100
▁कह 100
cra 100
▁مثل 100
▁تان 100
▁зот 100
ጎ 100
▁주 100
▁onda 100
▁Pan 100
čka 100
▁num 100
可能 100
▁ord 100
ern 100
▁tiġi 100
▁छवि 100
▁tõ 100
üü 100
ණ 100
ulo 100
hta 100
zko 100
tava 100
▁cui 100
▁kamar 100
хи 100
▁sempre 100
গুলো 100
▁detta 100
கி 100
▁open 100
নো 100
ksa 100
ড় 100
anana 100
▁Anna 100
šli 100
▁Mac 100
▁γ 100
qin 100
app 100
oč 100
▁Los 100
▁VI 100
▁Mos 100
rian 100
▁اعمال 100
▁করবে 100
▁Aontais 100
▁doen 100
گار 100
адиган 100
▁How 100
ifik 100
▁mort 100
▁Mary 100
клад 100
▁Komisijos 100
▁ljudi 100
▁mata 100
▁මං 100
▁уби 100
cen 100
▁durch 100
rzy 100
▁दी 100
高 100
▁klas 100
▁Als 100
▁رمان 100
▁Сен 100
▁মে 100
dol 100
▁કરવા 100
▁nós 100
▁итүче 100
▁அது 100
▁duke 100
▁quando 100
十 100
là 100
zwe 100
▁Kui 100
oto 100
▁Michael 100
▁či 100
▁таб 100
شک 100
▁3, 100
▁گفت 100
有关 100
laš 100
khi 100
لەرگە 100
▁Konqueror 100
স্থ 100
▁olla 100
▁fall 100
▁general 100
▁£ 100
മായി 100
▁دڵ 100
▁أي 100
lü 100
gad 100
▁туры 100
▁În 100
menu 100
சி 100
ち 100
▁رہا 100
▁करता 100
▁tagħhom 100
sebenzi 100
▁vera 100
▁يې 100
xu 100
▁خيلي 100
vert 100
▁Cy 100
▁misli 100
▁Us 100
▁Ven 100
▁해 100
ถึง 100
▁Id 100
अ 100
▁تۇت 100
েই 100
它 100
▁jsi 100
raj 100
▁Hvad 100
CH 100
▁duhet 100
▁akar 100
ೊ 100
▁шул 100
其他 100
▁när 100
▁Mel 100
ధ 100
▁तक 100
nega 100
زو 100
mı 100
▁ব্যৰ্থ 100
▁نى 100
kte 100
ец 100
لك 100
ತ 100
сон 100
лат 100
šla 100
▁ਹੋ 100
hti 100
ек 100
▁andere 100
▁Пас 100
igt 100
ัน 100
ថ 100
SP 100
▁això 100
tsy 100
▁നി 100
ศ 100
lise 100
esse 100
čių 100
qə 100
세 100
▁Free 100
死 100
▁bine 100
mbre 100
▁Open 100
▁Klarte 100
▁তাকে 100
▁күп 100
民 100
▁σας 100
▁সব 100
▁està 100
经济 100
lles 100
ቡ 100
تك 100
▁قرار 100
▁будет 100
▁bed 100
▁parlament 100
▁Pot 100
чка 100
▁راه 100
▁кун 100
▁থ 100
▁გჲ 100
әт 100
▁Uz 100
▁zbog 100
あ 100
oku 100
ffi 100
▁ф 100
▁bene 100
-8 100
mā 100
▁الش 100
kali 100
კს 100
▁rece 100
رات 100
▁মধ্যে 100
▁نمی 100
▁yap 100
▁яхши 100
▁रब 100
▁cada 100
”. 100
▁thì 100
ign 100
inė 100
▁članice 100
▁юл 100
stoj 100
▁ضرور 100
▁muito 100
▁हर 100
▁ایسے 100
ēja 100
▁ර 100
▁অনেক 100
▁tsara 100
மா 100
▁করুন 100
▁punt 100
▁دیکھ 100
jel 100
Ha 100
liku 100
වේ 100
▁sli 100
▁pamat 100
▁37 100
▁fund 100
▁ҷо 100
ಚ 100
面 100
▁oldu 100
▁paneelụ 100
▁කර 100
▁کردن 100
▁మీ 100
▁তি 100
isin 100
▁etdik 100
▁Pie 100
▁сиңа 100
IR 100
▁میرا 100
▁ខាង 100
▁local 100
ƙ 100
▁ਅ 100
▁Uma 100
▁име 100
▁замин 100
▁Port 100
она 100
െന്ന് 100
▁இந்த 100
度 100
нат 100
eix 100
kë 100
▁postup 100
社会 100
▁thấy 100
ാകുന്നു 100
ై 100
▁zavatra 100
PE 100
▁Қа 100
ely 100
▁zava 100
▁oko 100
ු 100
世界 100
成 100
▁Til 100
▁فر 100
тор 100
format 100
▁کارو 100
▁бўлиб 100
sser 100
że 100
▁יודע 100
dum 100
ዙ 100
யே 100
است 100
▁oan 100
ppel 100
▁tell 100
▁بیان 100
කට 100
▁অন 100
ient 100
▁weet 100
ିତ 100
ኖ 100
▁ditu 100
ení 100
our 100
low 100
ischen 100
uko 100
zę 100
ät 100
▁isan 100
.1. 100
yî 100
▁sõ 100
▁IV 100
需要 100
▁punkta 100
▁Më 100
ukan 100
更 100
tzea 100
▁perlu 100
луч 100
வா 100
▁ବ 100
▁деди 100
▁Cô 100
▁bá 100
受 100
ფვ 100
▁ആര 100
▁دەيدۇ 100
wã 100
▁अस 100
▁ئاتا 100
▁great 100
ශ 100
▁ئېيتقىنكى 100
πε 100
▁ken 100
ено 100
ගෙන 100
เก 100
gina 100
▁карда 100
97 100
▁whatsthis 100
fol 100
▁난 100
ең 100
quer 100
ová 100
분 100
小 100
ιο 100
57 100
مە 100
ក្រ 100
ष 100
▁قیامت 100
ූ 100
ড়া 100
dja 100
▁Tag 100
డి 100
▁ពេល 100
▁بين 100
▁ша 100
▁valstybės 100
▁след 100
76 100
▁انجام 100
char 100
▁قبل 100
▁हा 100
gai 100
ged 100
స 100
▁skup 100
▁кара 100
▁nego 100
▁būtų 100
▁ஏ 100
▁yanã 100
▁низ 100
ಳ 100
意 100
liche 100
71 100
vne 100
taan 100
mil 100
▁mur 100
▁ماڵ 100
ય 100
род 100
▁tij 100
▁трябва 100
ыш 100
pot 100
zak 100
රා 100
▁Алар 100
▁الا 100
tara 100
ibi 100
▁טעקע 100
▁ৰ 100
ugu 100
EF 100
တ် 100
▁09 100
▁آنان 100
NAME 100
увчи 100
ുമ 100
گو 100
▁Ikke 100
▁למ 100
ਗ 100
ന്ത 100
▁ट 100
CD 100
ಜ 100
eth 100
▁үз 100
▁app 100
作 100
-4 100
▁Paul 100
ident 100
▁valor 100
vjet 100
▁objekt 100
▁nh 100
▁Pos 100
əgər 100
BA 100
indən 100
جی 100
▁Hol 100
vio 100
ماي 100
▁chomh 100
assa 100
ారు 100
HA 100
ಗಳ 100
▁ម៉ាស៊ីន 100
ଗ 100
▁gje 100
bol 100
ண்ட 100
hra 100
▁صرف 100
▁Ако 100
▁তখন 100
▁ដ 100
▁izi 100
ትም 100
▁sex 100
πο 100
▁নেই 100
▁دین 100
▁ban 100
▁kuke 100
box 100
fy 100
زار 100
▁মান 100
mě 100
GA 100
Do 100
azi 100
▁Ве 100
▁lub 100
bab 100
▁итагать 100
ন্ত 100
▁key 100
ួ 100
▁εδώ 100
eel 100
tere 100
dek 100
▁show 100
eć 100
▁ISO 100
ME 100
PS 100
▁%1$ 100
bun 100
ші 100
▁మేము 100
ト 100
▁Sel 100
nı 100
ála 100
▁وسا 100
▁마 100
▁inf 100
▁Tako 100
rz 100
ून 100
▁अगर 100
ঠ 100
▁quan 100
jiem 100
പ്പെട 100
▁Herr 100
awa 100
rang 100
▁Peyğəmbər 100
▁مەغپىرەت 100
▁ترس 100
▁அல்லாஹ்வின் 100
graf 100
▁broj 100
фе 100
▁deyə 100
▁тур 100
nkqubo 100
miss 100
▁다 100
ന് 100
ฟ 100
▁Stock 100
ós 100
▁Med 100
▁គឺ 100
▁meer 100
▁aug 100
▁Sve 100
urs 100
▁যায় 100
cou 100
جد 100
ல்ல 100
endo 100
72 100
▁ras 100
▁داخل 100
▁paš 100
▁Су 100
▁ನ 100
▁MA 100
ײ 100
اش 100
itz 100
rish 100
▁world 100
лов 100
▁ачык 100
▁جێ 100
せ 100
arna 100
▁mpan 100
mbro 100
እ 100
▁pře 100
ล่ะ 100
▁Ctrl 100
▁देख 100
يى 100
▁then 100
abil 100
▁jit 100
▁peut 100
ڵه 100
juk 100
نج 100
▁tě 100
ную 100
▁tyre 100
▁vain 100
lī 100
shëm 100
ถูก 100
▁meng 100
iye 100
تها 100
▁mí 100
tang 100
ара 100
kje 100
▁ئیتر 100
▁বাৰ্তা 100
方面 100
eng 100
qua 100
▁Nó 100
3, 100
▁eh 100
בה 100
▁இது 100
mun 100
dığı 100
此 100
bija 100
وون 100
▁chứ 100
rant 100
લે 100
לא 100
мый 100
ń 100
порт 100
dlu 100
yu 100
▁Bruk 100
▁تىن 100
▁قاتتىق 100
▁ví 100
AC 100
▁Парвардигори 100
▁csak 100
▁nebo 100
▁qué 100
ან 100
▁ড 100
ay 100
рав 100
▁(" 100
65 100
▁بڑی 100
▁هۆی 100
▁Yanã 100
▁بم 100
▁13. 100
▁ئېيت 100
보 100
▁olsun 100
ines 100
gla 100
▁Í 100
Lo 100
▁قىلغىن 100
▁baz 100
дел 100
Ú 100
niu 100
đen 100
▁пол 100
▁yalnız 100
▁sü 100
வர்கள் 100
-2 100
bé 100
rna 100
wyd 100
uen 100
▁χ 100
▁അങ്ങനെ 100
rê 100
▁Ham 100
pus 100
ىتى 100
▁chỉ 100
52 100
hus 100
▁uh 100
▁יכול 100
lande 100
kl 100
▁sekarang 100
ут 100
▁ھالاك 100
ян 100
78 100
ать 100
▁Ada 100
zat 100
▁үзе 100
▁đấy 100
▁Qui 100
=\\\\ 100
▁datang 100
गी 100
▁NA 100
▁ስ 100
▁evit 100
בו 100
▁הש 100
▁1998 100
み 100
ał 100
▁ოპჲ 100
ئیں 100
▁என்ன 100
дин 100
டை 100
nze 100
▁[1] 100
▁fru 100
ிடம் 100
▁dje 100
лет 100
ени 100
aran 100
PL 100
8) 100
▁এখন 100
▁ھە 100
▁ھىدايەت 100
ové 100
mpan 100
וס 100
▁מו 100
dul 100
ဖိုင် 100
ੂ 100
▁сам 100
▁వి 100
▁pays 100
▁Gro 100
ින් 100
.1 100
bona 100
▁py 100
lako 100
公 100
gge 100
rü 100
▁rob 100
lib 100
less 100
▁atau 100
šana 100
ंग 100
▁был 100
not 100
ෙක් 100
ပြ 100
ŝ 100
▁प्रकार 100
▁তু 100
▁aquest 100
▁einem 100
ave 100
▁также 100
рэ 100
ģi 100
ੱ 100
▁kul 100
weni 100
▁उसकी 100
▁day 100
sign 100
▁dok 100
▁نو 100
▁Bon 100
女 100
ати 100
oir 100
فل 100
▁već 100
▁%2$ 100
可以 100
▁того 100
”, 100
യോ 100
▁нам 100
ách 100
▁હ 100
▁nap 100
▁toy 100
▁دوای 100
▁وي 100
▁punktu 100
▁vidi 100
üh 100
했 100
▁Kopienas 100
▁gaskiya 100
ας 100
▁የሚያ 100
▁bana 100
▁after 100
ett 100
ēju 100
سب 100
▁hita 100
▁hä 100
each 100
▁rak 100
▁sku 100
rib 100
reb 100
▁ит 100
غل 100
كم 100
কারী 100
▁lista 100
keta 100
상 100
อย่าง 100
ரா 100
വാ 100
▁გთ 100
ଚ 100
بھی 100
▁እናንተ 100
дов 100
др 100
▁vse 100
stin 100
▁तपाईँ 100
čno 100
ടി 100
ава 100
န 100
titu 100
▁җәһәннәм 100
شون 100
▁सु 100
စ 100
CO 100
ํา 100
▁AM 100
ാണ 100
UM 100
▁гу 100
▁унга 100
نش 100
58 100
▁valsts 100
gui 100
▁Was 100
JA 100
stā 100
nic 100
▁bị 100
▁ಹ 100
▁bejn 100
▁ಆ 100
ပ် 100
ฮ 100
▁sammen 100
iniai 100
67 100
jeni 100
▁eus 100
াৰ 100
zioni 100
▁unë 100
الي 100
రా 100
▁Ara 100
▁lpp 100
▁taħt 100
opp 100
▁cop 100
კთ 100
ват 100
jär 100
▁الان 100
▁nome 100
▁mín 100
kis 100
ኩ 100
▁එක්ක 100
▁povas 100
▁kadar 100
lei 100
▁translated 100
ghị 100
gna 100
आ 100
ndan 100
▁ئې 100
▁emp 100
ભ 100
▁ата 100
кар 100
টো 100
php 100
valu 100
には 100
▁رحمت 100
▁Şübhə 100
মি 100
ræ 100
这一 100
▁sary 100
▁global 100
▁Hy 100
▁passa 100
66 100
▁neko 100
▁disk 100
▁Como 100
▁sənə 100
▁date 100
▁dí 100
ការ 100
▁īpaši 100
keyboard 100
ρω 100
比 100
53 100
уу 100
stant 100
▁restr 100
▁चीज़ 100
▁Musa 100
做 100
▁mos 100
▁Padomes 100
ិត 100
▁பற்றி 100
ppen 100
▁pää 100
▁chu 100
mele 100
چھ 100
▁sap 100
▁kup 100
▁column 100
▁där 100
vision 100
▁Wy 100
通 100
▁kontroll 100
vrš 100
াই 100
▁উ 100
lyn 100
ുണ്ട് 100
सी 100
▁بلکہ 100
рас 100
▁قىلىڭلار 100
▁stavka 100
ttä 100
▁Öz 100
▁شی 100
▁کفر 100
ቻቸው 100
nija 100
פי 100
▁দা 100
▁love 100
▁аны 100
tip 100
▁बे 100
osios 100
▁श 100
给 100
▁سزای 100
▁চ 100
▁mje 100
▁براي 100
غۇ 100
▁ئىككى 100
рон 100
▁dol 100
▁Shin 100
▁сал 100
▁38 100
▁Del 100
▁02 100
▁عطا 100
фр 100
▁было 100
ങ്ങള 100
ىسى 100
တာ 100
xesha 100
מי 100
ск 100
▁savo 100
▁ഞാൻ 100
▁گۇناھ 100
▁ஆகவே 100
йт 100
▁Kri 100
▁час 100
▁तू 100
із 100
▁какво 100
知 100
▁personal 100
▁important 100
77 100
లా 100
▁Peter 100
▁сиз 100
▁уларнинг 100
ция 100
▁قال 100
▁Ö 100
▁ас 100
ענט 100
▁mam 100
▁used 100
▁melihat 100
ロ 100
▁ela 100
▁илә 100
▁ન 100
▁като 100
▁ఎ 100
öm 100
หรือ 100
ండి 100
ള്‍ 100
▁veik 100
▁þ 100
▁pai 100
▁peng 100
▁ак 100
ngan 100
ithi 100
▁print 100
▁Parlamento 100
▁model 100
ුව 100
▁പറയ 100
▁industri 100
সি 100
▁კაკგჲ 100
▁എന്നാല്‍ 100
szt 100
▁урын 100
aro 100
▁günü 100
raf 100
▁view 100
ನ್ನು 100
▁hotel 100
▁ନାହିଁ 100
ент 100
ზთ 100
দা 100
▁tua 100
▁আপনার 100
bí 100
لاردىن 100
▁orada 100
PR 100
لت 100
▁باغ 100
rut 100
▁region 100
▁Nka 100
▁jer 100
▁Sol 100
ctor 100
▁பூமி 100
ată 100
ووه 100
▁bør 100
▁булмас 100
ovan 100
ора 100
▁அதை 100
▁igen 100
▁sava 100
enqanawa 100
▁tapi 100
工 100
▁kuin 100
тен 100
▁آخرت 100
▁എന്‍റെ 100
ുവ 100
tuur 100
▁sla 100
жен 100
▁multi 100
ลูก 100
يب 100
ған 100
жу 100
▁他 100
عد 100
ș 100
gio 100
▁xe 100
▁azt 100
ango 100
▁κα 100
دة 100
lov 100
हि 100
ጽ 100
▁dosta 100
พวกเขา 100
قر 100
▁saukar 100
sig 100
▁xi 100
děl 100
▁ഞാന 100
▁vardır 100
▁pacient 100
जि 100
лег 100
bare 100
▁ή 100
▁கொள்ள 100
▁[1], 100
▁మ 100
tada 100
▁fare 100
▁Бар 100
JE 100
മാ 100
gam 100
▁cũng 100
diyi 100
зі 100
▁respect 100
ন্ড 100
mple 100
fur 100
天 100
اغ 100
▁ха 100
▁report 100
▁پیغمبر 100
гез 100
zina 100
UT 100
▁edər 100
ल् 100
Vi 100
ถ 100
punt 100
grad 100
▁Who 100
ጭ 100
▁थ 100
விட 100
▁nov 100
стро 100
▁lasa 100
ambo 100
යේ 100
رف 100
▁Какво 100
▁vào 100
▁ಎ 100
jela 100
▁Си 100
▁Red 100
▁nisi 100
▁എനിക്ക 100
ško 100
▁relevant 100
▁وأ 100
skog 100
Г 100
▁rend 100
▁feil 100
▁nej 100
/% 100
▁access 100
▁Wil 100
▁edu 100
Ш 100
▁আমাকে 100
ബ 100
OT 100
उन 100
▁ئىبادەت 100
▁តែ 100
▁Zašto 100
▁እኔ 100
▁Hor 100
نگ 100
æl 100
ۇن 100
בע 100
▁வ 100
IP 100
stig 100
evi 100
Ê 100
▁narės 100
ική 100
▁ski 100
לה 100
ৰি 100
zte 100
ена 100
▁ور 100
▁مۆمىنلەر 100
▁fá 100
έν 100
▁À 100
▁параметр 100
ضا 100
đe 100
sı 100
▁шуморо 100
fn 100
▁ev 100
hou 100
គ 100
▁гына 100
τρ 100
chten 100
▁lain 100
▁ala 100
கள 100
শি 100
▁tê 100
laza 100
ġen 100
ایی 100
▁Bol 100
▁قورق 100
▁gá 100
IO 100
ovat 100
дык 100
ик 100
іл 100
▁Fl 100
्न 100
▁নহয় 100
▁محمد 100
Direttiva 100
立 100
▁vom 100
▁ши 100
ప్ 100
▁ప్ర 100
uks 100
▁studi 100
非 100
▁അവരെ 100
▁Eorpach 100
nni 100
lina 100
代表 100
ۇپ 100
lok 100
فق 100
imit 100
uro 100
▁grupp 100
▁кра 100
▁ese 100
根据 100
▁Twitter 100
ото 100
úl 100
ос 100
▁ста 100
PP 100
േണ്ട 100
▁port 100
▁asa 100
▁үтер 100
kommen 100
▁Ballstáit 100
เห็น 100
ūt 100
rou 100
▁həm 100
ales 100
উ 100
▁Voi 100
▁একজন 100
▁bunu 100
മേ 100
zam 100
▁छैन 100
▁'& 100
gn 100
нгиз 100
▁뭐 100
道 100
▁qarşı 100
▁দেখ 100
何 100
elles 100
ntsika 100
vē 100
gem 100
▁roa 100
▁sv 100
▁propos 100
▁ټاکل 100
וד 100
± 100
▁ƙ 100
тә 100
lož 100
▁väl 100
▁sett 100
مايدۇ 100
▁aqui 100
▁හිත 100
▁enga 100
7) 100
njo 100
uke 100
▁Ima 100
▁پەرۋەردىگارىڭ 100
▁travail 100
kana 100
ეჲ 100
মে 100
▁nau 100
sur 100
▁топ 100
▁darba 100
igu 100
▁باپ 100
▁Col 100
▁kry 100
▁certain 100
▁direkt 100
ште 100
pam 100
enja 100
luk 100
▁Và 100
采取 100
▁Bri 100
tzat 100
▁এমন 100
roj 100
een 100
اے 100
شار 100
ché 100
▁tax 100
▁Dji 100
▁máis 100
▁Ис 100
erings 100
ۇڭلار 100
▁rec 100
টে 100
▁মনে 100
▁dobi 100
▁ئەن 100
▁rei 100
▁фи 100
▁tog 100
iska 100
▁toimi 100
யின் 100
main 100
▁wordt 100
▁ήταν 100
▁15. 100
▁Ata 100
っ 100
фар 100
▁Kin 100
▁នៃ 100
гар 100
μά 100
parti 100
▁şeyi 100
▁ከአላህ 100
øg 100
▁Awak 100
▁halitta 100
isse 100
န်း 100
▁مح 100
▁Gw 100
▁ņemot 100
▁aiz 100
▁сугыш 100
iai 100
▁Пайғамбар 100
pet 100
▁kë 100
▁əvvəl 100
ൻ 100
▁ہوئی 100
ფთ 100
▁indica 100
ear 100
▁grad 100
мәк 100
ification 100
oana 100
네 100
< 100
TT 100
моқда 100
▁Mul 100
vik 100
ತ್ತ 100
ware 100
ST 100
imiz 100
▁pes 100
▁ষ 100
▁ओर 100
▁vr 100
rav 100
▁cam 100
▁nik 100
Č 100
▁ردگاری 100
▁വാ 100
wir 100
יד 100
▁Tru 100
▁Tor 100
▁তালিকা 100
▁биз 100
▁afaka 100
▁ദ 100
umo 100
▁Xa 100
skom 100
ním 100
ích 100
ධ 100
▁DA 100
▁معلوم 100
▁mikasik 100
▁Ingen 100
пре 100
▁پیش 100
gabe 100
区域 100
भा 100
▁profil 100
▁లేదు 100
erer 100
▁רק 100
kwi 100
▁bot 100
▁nombre 100
ტ 100
▁زیادہ 100
▁স্ব 100
▁look 100
ന്ന് 100
ಿಸ 100
ין 100
уб 100
tako 100
mela 100
▁Β 100
rå 100
▁nun 100
אי 100
▁between 100
▁ру 100
fal 100
▁estis 100
ndar 100
▁veel 100
▁если 100
κό 100
▁Ker 100
▁አሉ 100
dži 100
áin 100
▁هست 100
▁خاو 100
见 100
▁πρέπει 100
؟» 100
idos 100
രുത് 100
▁kemi 100
OD 100
ுங்கள் 100
▁تۇر 100
nyt 100
▁දෙන්න 100
ทาง 100
▁kraj 100
▁વિ 100
▁polici 100
ىگە 100
▁Wal 100
▁يامان 100
▁ប្រ 100
▁ოპვ 100
▁няма 100
▁ಬ 100
ाय 100
ጉ 100
▁аңа 100
▁ani 100
▁suo 100
לו 100
克 100
නු 100
gaghị 100
▁vår 100
sled 100
▁oso 100
▁kõik 100
▁വര 100
ehn 100
▁tras 100
▁manana 100
▁оп 100
aks 100
ဲ 100
▁тар 100
已 100
▁inlistbox 100
file 100
සි 100
▁Estados 100
टा 100
три 100
ผู้ 100
rich 100
oso 100
들이 100
▁giờ 100
▁vaš 100
▁кылыр 100
ција 100
gă 100
▁kredit 100
▁ફાઈલ 100
어요 100
▁رکھتے 100
那 100
▁Sonra 100
▁zor 100
▁Qur 100
▁قۇرئان 100
▁پێیان 100
elu 100
khulu 100
▁كۈن 100
▁same 100
ein 100
▁họ 100
fak 100
weg 100
▁اما 100
িন 100
يع 100
Ċ 100
▁වගේ 100
▁جگ 100
୍ର 100
▁شێو 100
▁الر 100
body 100
él 100
▁우리 100
▁[3] 100
▁qabel 100
▁aj 100
രാ 100
▁države 100
▁کون 100
▁එන්න 100
▁لایه 100
IF 100
▁lé 100
▁ubu 100
aya 100
▁pelo 100
▁направи 100
bini 100
ντ 100
halt 100
▁Nä 100
رن 100
▁ярдәм 100
ۈر 100
uit 100
ھا 100
▁בילד 100
ded 100
nă 100
kken 100
lazi 100
ğa 100
Ga 100
▁Windows 100
▁צ 100
▁পার 100
และ 100
eira 100
Ž 100
దు 100
ณ 100
▁पहले 100
▁கா 100
▁trí 100
▁دیتے 100
▁부 100
▁fari 100
▁ถ้า 100
▁دار 100
ለን 100
2000 100
ioù 100
EX 100
NO 100
▁Raz 100
▁эмас 100
▁вам 100
یی 100
▁لن 100
▁નામ 100
aan 100
▁کافروں 100
▁त्या 100
ሕ 100
็ 100
▁Hvor 100
▁Maar 100
▁Net 100
▁lähe 100
▁മാ 100
gs 100
▁നല്‍ക 100
ഞ്ഞ 100
▁stabil 100
▁اينجا 100
များကို 100
▁чыгар 100
ਸਟ 100
wel 100
፦ 100
▁Å 100
maan 100
άλ 100
tze 100
iyor 100
XX 100
arana 100
λη 100
▁گئی 100
▁ос 100
▁ਚ 100
▁bri 100
▁hele 100
ណ 100
▁Мен 100
cions 100
ρί 100
▁üle 100
▁לש 100
Language 100
च्या 100
▁weg 100
▁គ 100
▁nepa 100
programm 100
оч 100
શે 100
79 100
▁ቢ 100
пе 100
▁azãba 100
▁operation 100
▁бул 100
▁välja 100
86 100
▁sangat 100
▁seorang 100
▁porta 100
▁Gr 100
▁над 100
גר 100
▁Olen 100
▁Ã 100
ema 100
▁hEorpa 100
シ 100
ые 100
▁tego 100
▁tista 100
▁prim 100
த்துக் 100
▁يۈز 100
▁कुञ्जी 100
▁ләкин 100
▁gur 100
mpli 100
rain 100
ɗ 100
▁китер 100
ீர்கள் 100
dhë 100
enta 100
dle 100
▁04 100
ecek 100
▁בסדר 100
Mu 100
▁act 100
ගන්න 100
ddy 100
တဲ့ 100
elwe 100
sak 100
lara 100
▁биде 100
라고 100
▁Ní 100
▁espera 100
▁Në 100
▁France 100
αγ 100
▁osa 100
ൃ 100
▁și 100
▁Ly 100
iswa 100
ធ 100
▁हु 100
bles 100
سو 100
ाई 100
top 100
▁never 100
γκ 100
▁നിങ്ങളെ 100
ори 100
rien 100
▁அவர்களுடைய 100
▁ბ 100
▁söz 100
▁kohta 100
sus 100
▁GNU 100
נט 100
▁ऐ 100
▁سزا 100
دہ 100
ครับ 100
CT 100
एँ 100
ák 100
vær 100
қи 100
чно 100
▁gazety 100
פ 100
▁BE 100
práv 100
ljen 100
ow 100
▁ey 100
stelling 100
üb 100
▁jika 100
teľ 100
물 100
▁jobb 100
▁सि 100
▁Jekk 100
тра 100
tale 100
দান 100
ৃ 100
▁கு 100
▁شر 100
▁bus 100
▁હોય 100
يس 100
▁zon 100
lán 100
▁йўл 100
▁сар 100
▁제 100
ίσ 100
彼 100
款 100
▁کانیان 100
▁ነበር 100
74 100
عب 100
lij 100
▁Ó 100
▁кәферләр 100
لىقىنى 100
▁novo 100
▁مېنىڭ 100
▁हे 100
öö 100
āciju 100
▁plain 100
เล 100
juma 100
▁bija 100
uose 100
သို့ 100
▁gyfer 100
▁Ọ 100
زان 100
▁لي 100
ਰੀ 100
vam 100
▁알 100
▁ndi 100
tea 100
न्द 100
▁Cuir 100
▁mobil 100
ald 100
గా 100
▁gun 100
▁{@} 100
▁Joe 100
▁Nisam 100
?» 100
аф 100
으 100
кон 100
▁فرمایا 100
έλ 100
Ko 100
▁proc 100
ņ 100
▁haqq 100
ait 100
▁importante 100
▁ښودل 100
inis 100
äng 100
▁ibadət 100
вал 100
ngu 100
вет 100
гон 100
▁त्रुटि 100
мир 100
▁Nee 100
ሁ 100
▁ព 100
▁lin 100
2) 100
▁ವಿ 100
vede 100
jums 100
▁अनु 100
በላቸው 100
気 100
▁rem 100
ugh 100
▁мар 100
үн 100
▁porque 100
เจ้า 100
▁člankom 100
ምን 100
zzjonijiet 100
▁short 100
ιστ 100
lərdən 100
▁ئال 100
qala 100
cos 100
▁menye 100
정 100
▁మా 100
уда 100
▁Mill 100
▁Н 100
syn 100
▁mere 100
ीत 100
▁دۆز 100
▁لیکن 100
▁אותו 100
▁spr 100
대 100
ନ୍ତୁ 100
ً 100
ử 100
▁sabiex 100
Ф 100
▁jej 100
▁rin 100
ლს 100
▁ئۆ 100
▁እና 100
▁الك 100
וש 100
▁temps 100
ောက် 100
كه 100
▁ёки 100
先生 100
▁principal 100
▁បើ 100
ாகவும் 100
▁מי 100
주 100
▁bent 100
▁ach 100
▁már 100
▁सी 100
▁regi 100
μη 100
▁prej 100
▁قوي 100
▁Qa 100
▁bagi 100
ING 100
▁vita 100
rig 100
miseks 100
òr 100
▁रह 100
ич 100
ors 100
▁ūví 100
He 100
ီ 100
vai 100
ക്കു 100
AB 100
ลง 100
чә 100
▁side 100
▁Şi 100
बी 100
mping 100
ਿਆ 100
▁Max 100
ým 100
▁гөнаһ 100
дат 100
èn 100
▁Stra 100
ზვ 100
▁Të 100
▁ҳеч 100
▁Файл 100
▁اند 100
▁خۆتان 100
NE 100
utu 100
چا 100
▁ගන්න 100
▁ე 100
▁одам 100
load 100
Ar 100
ド 100
▁much 100
▁අපිට 100
шт 100
▁தான் 100
▁presente 100
dele 100
gene 100
▁Stu 100
▁Mitä 100
▁آگ 100
▁Sub 100
▁thôi 100
ktu 100
illä 100
▁Ky 100
унинг 100
▁panel 100
▁govori 100
பி 100
CN 100
▁George 100
hold 100
უთ 100
င်း 100
يدۇ 100
יל 100
مو 100
▁còn 100
▁کۆ 100
wedd 100
ไว้ 100
бл 100
شقا 100
ợ 100
▁ov 100
▁ჲე 100
▁web 100
▁അവന 100
али 100
ူ 100
▁õ 100
▁بەرگەن 100
▁tea 100
▁வா 100
▁너 100
▁Will 100
▁ڕوو 100
4, 100
anto 100
ديد 100
▁बहुत 100
earje 100
▁मेरे 100
▁уларни 100
liste 100
▁Мин 100
▁benar 100
শা 100
▁question 100
▁بې 100
▁stran 100
▁grand 100
▁гуноҳ 100
fik 100
▁strategi 100
▁परवरदिगार 100
심 100
▁یقیناً 100
▁شا 100
▁Stat 100
▁programme 100
OP 100
▁okay 100
رکه 100
მჲ 100
▁Och 100
▁Ž 100
▁விட்ட 100
شا 100
kant 100
▁bun 100
▁način 100
▁үшін 100
jumu 100
כן 100
IL 100
▁Onların 100
tore 100
ാൻ 100
▁aika 100
▁joka 100
qué 100
гра 100
ജ 100
▁sə 100
▁تێ 100
▁prac 100
▁بش 100
▁stre 100
▁кешеләрне 100
tage 100
▁ئۇلاردىن 100
sol 100
▁mio 100
신 100
2010 100
▁зарар 100
▁пи 100
▁উপর 100
▁moja 100
号 100
▁Pel 100
▁göstər 100
łu 100
▁deux 100
▁က 100
▁لپاره 100
ендә 100
lou 100
▁tag 100
λά 100
mani 100
▁cần 100
▁skall 100
▁lakukan 100
▁உங்களை 100
ბთ 100
▁Arab 100
æi 100
αι 100
▁നാ 100
ości 100
ிருந்த 100
god 100
ık 100
至 100
▁spel 100
必须 100
▁42 100
▁mul 100
jung 100
▁لك 100
ช่วย 100
▁انځور 100
▁আস 100
പ്പോ 100
Indian 100
mpe 100
▁`% 100
mur 100
▁ovde 100
hend 100
ина 100
▁기 100
▁TV 100
šanai 100
▁പോക 100
▁Ububiko 100
▁بہتر 100
▁16. 100
▁pet 100
mək 100
حد 100
வர்கள 100
▁tiene 100
▁financijsk 100
يف 100
▁მჲზვ 100
lė 100
স্ত 100
▁كاپىرلار 100
▁mich 100
▁πολύ 100
ius 100
eiro 100
နိုင် 100
▁مس 100
▁Comment 100
zki 100
وش 100
▁cá 100
▁menga 100
mem 100
▁ŝ 100
▁قانداق 100
▁conta 100
▁â 100
ဆ 100
▁Аллаһу 100
▁കാ 100
טר 100
▁kont 100
istan 100
▁Sil 100
▁нозил 100
▁खा 100
dura 100
▁ανα 100
▁punktā 100
rita 100
kai 100
▁кет 100
hun 100
는데 100
2002 100
చే 100
بى 100
SV 100
рен 100
гина 100
بو 100
iek 100
▁آیا 100
pụta 100
▁current 100
▁symbol 100
▁darb 100
زه 100
カ 100
▁Art 100
ባቸው 100
ស្ 100
▁dawk 100
mam 100
▁font 100
▁blo 100
▁Uredba 100
▁parlamenta 100
▁पाठ 100
මු 100
uga 100
ঙ্গ 100
▁bay 100
▁made 100
▁prev 100
▁pernah 100
▁तरह 100
▁mé 100
▁ที่ 100
FA 100
त्र 100
▁Bla 100
▁volta 100
كان 100
▁divers 100
▁মি 100
field 100
64 100
▁mida 100
▁verk 100
▁energi 100
▁Ši 100
aste 100
▁lokal 100
▁ល 100
▁مدد 100
ръ 100
▁ajo 100
▁IP 100
OV 100
Ε 100
lərin 100
▁1: 100
▁LongName 100
είς 100
नि 100
baovao 100
▁халык 100
▁regula 100
▁bezala 100
्द 100
▁وم 100
▁ሥራ 100
rigward 100
▁אותך 100
حر 100
▁सूची 100
▁یہاں 100
▁invest 100
▁അവര്‍ക്ക് 100
टो 100
▁bizi 100
▁Franc 100
▁datum 100
▁Jangan 100
▁nisu 100
šanās 100
▁këtu 100
段 100
▁ό 100
▁mij 100
ελ 100
▁sesuatu 100
peri 100
▁Ang 100
和平 100
▁Хо 100
▁װי 100
program 100
дж 100
▁very 100
ហ 100
фт 100
▁mati 100
קו 100
▁Ana 100
▁پێی 100
▁انسان 100
▁Só 100
습니다 100
▁prá 100
psi 100
▁cir 100
▁Egy 100
praš 100
ез 100
êye 100
prov 100
yti 100
lás 100
▁naha 100
▁Vous 100
▁1% 100
Lalle 100
ёт 100
ιά 100
▁دوسرے 100
▁ዐዋቂ 100
▁Може 100
▁Uni 100
søk 100
EEK 100
▁મ 100
▁vám 100
meto 100
Ó 100
▁tud 100
▁sia 100
ங்களை 100
rás 100
ojë 100
▁Jadi 100
소 100
emp 100
▁Hon 100
▁ئیمانداران 100
بل 100
▁14. 100
ствен 100
▁lwa 100
▁üçin 100
צו 100
▁stvari 100
говор 100
▁ئای 100
▁বাস 100
よう 100
работ 100
ৌ 100
▁services 100
▁ታ 100
▁search 100
▁Auf 100
தே 100
▁проблем 100
▁касоне 100
ሞ 100
Α 100
▁ishte 100
▁Chomhairle 100
ည် 100
▁вер 100
▁rekao 100
ించ 100
▁کرنا 100
tati 100
▁جاي 100
jö 100
▁jeho 100
▁изге 100
▁ሰ 100
kav 100
kend 100
▁Tab 100
æu 100
話 100
▁شۇ 100
▁toerana 100
▁noget 100
▁Trans 100
နှင့် 100
▁Sem 100
▁nova 100
ров 100
vala 100
▁mid 100
▁mog 100
▁αλλά 100
йте 100
▁mình 100
▁сега 100
▁dua 100
▁Una 100
ۇنداق 100
ote 100
▁Mod 100
▁кешеләргә 100
▁قرآن 100
▁Meta 100
▁före 100
▁бас 100
buk 100
ધ 100
▁nakon 100
▁Super 100
▁булып 100
▁ўша 100
▁minutes 100
▁ભૂલ 100
▁اپنا 100
▁edhe 100
রো 100
▁ene 100
CR 100
▁enn 100
kunã 100
ҳа 100
▁นี่ 100
رج 100
▁terug 100
zol 100
čko 100
▁Fra 100
마 100
කු 100
▁होगा 100
ოა 100
安全 100
▁play 100
▁Afrika 100
ixo 100
▁ჟყმ 100
Mac 100
▁CO 100
вин 100
▁suna 100
▁הם 100
eres 100
▁Αν 100
lichen 100
াল 100
илган 100
یاندا 100
▁ד 100
래 100
▁fast 100
▁җит 100
iadau 100
▁mult 100
ลา 100
vaj 100
mez 100
λέ 100
ิน 100
кой 100
סי 100
aal 100
лән 100
▁reci 100
▁jkunu 100
łem 100
ಹ 100
ሮ 100
حي 100
ත්ත 100
мож 100
▁ඕන 100
eron 100
ttivi 100
▁sort 100
וק 100
uses 100
▁Мар 100
اط 100
▁55 100
ို 100
ләргә 100
▁1997 100
7, 100
▁termin 100
▁ky 100
оқ 100
动 100
そ 100
▁кар 100
▁argument 100
نې 100
▁unter 100
表 100
▁vairāk 100
▁خا 100
▁خب 100
▁نصیحت 100
mų 100
▁fix 100
▁kãfirta 100
dige 100
▁Ef 100
ነው 100
રી 100
▁لكن 100
▁كۈندە 100
क्स 100
ош 100
タ 100
▁cla 100
יש 100
▁ሕዝቦች 100
ød 100
▁знам 100
1) 100
ភាព 100
▁мөшрикләр 100
link 100
လို 100
forma 100
vita 100
nza 100
▁dialog 100
Deċiżjoni 100
▁والی 100
ming 100
еб 100
▁gibi 100
▁چاو 100
ќ 100
mad 100
acije 100
hang 100
ட்டு 100
lərinə 100
ерләр 100
措施 100
slu 100
رێت 100
▁fiz 100
mic 100
merk 100
▁ജ 100
ใคร 100
▁एउटा 100
▁neki 100
▁роз 100
Ra 100
سانه 100
ခဲ့ 100
год 100
ರೆ 100
mate 100
ɓ 100
UR 100
ရေး 100
estra 100
ৎ 100
cono 100
shme 100
lių 100
▁കു 100
sett 100
▁kõme 100
▁ئاد 100
▁ظلم 100
▁Mc 100
▁vezi 100
ана 100
▁JE 100
wen 100
ठ 100
voir 100
▁rehefa 100
▁Тоа 100
任 100
rte 100
даги 100
之 100
▁hver 100
Possessiv 100
ദ് 100
elwa 100
▁prepar 100
bak 100
કા 100
▁হা 100
▁refer 100
▁Ent 100
▁stat 100
▁vagyok 100
7. 100
▁Oku 100
▁leg 100
ალ 100
▁stvar 100
ακ 100
ভি 100
▁Comp 100
▁ហើយ 100
▁Aga 100
αί 100
ੰ 100
▁corre 100
▁tikai 100
▁Kamu 100
ində 100
Ch 100
▁ناکه 100
kem 100
मे 100
pá 100
llet 100
īgi 100
iniz 100
antes 100
▁ని 100
లి 100
▁قىلغۇچى 100
建议 100
▁qe 100
▁পৰা 100
zek 100
▁nisy 100
ffen 100
▁Sir 100
▁believe 100
▁arma 100
ųjų 100
▁chce 100
見 100
▁당신 100
▁ഞങ്ങള്‍ 100
ூ 100
ೈ 100
▁ком 100
▁momento 100
▁Izina 100
▁Kam 100
▁Kommissionen 100
נות 100
pes 100
▁Hajde 100
▁85 100
ነት 100
▁পারে 100
schi 100
▁Оё 100
זה 100
▁[2] 100
άρ 100
▁ماذا 100
ята 100
▁können 100
▁Kada 100
▁tru 100
▁meni 100
▁būtu 100
▁теләгән 100
▁units 100
▁pur 100
▁kansu 100
ря 100
ырлар 100
कि 100
ыя 100
მთ 100
▁قد 100
▁tapa 100
▁nữa 100
system 100
rje 100
قە 100
pass 100
▁Dra 100
গণ 100
ছিল 100
` 100
uza 100
▁നിനക്ക് 100
fla 100
ından 100
▁ಮ 100
sper 100
ਜ 100
▁girma 100
她 100
янд 100
▁jūs 100
▁95 100
வ் 100
▁nje 100
▁sad 100
▁zač 100
ിക്കുന്ന 100
rija 100
▁رس 100
▁zdrav 100
▁Все 100
لے 100
nor 100
▁fila 100
▁Sti 100
▁před 100
▁ži 100
▁بيا 100
▁თმა 100
▁tokony 100
RT 100
bang 100
dak 100
bis 100
▁Tas 100
▁sebe 100
▁ü 100
▁Gri 100
صلی 100
▁Data 100
▁ለእናንተ 100
ਰਾ 100
▁बस 100
▁noku 100
Bu 100
▁वही 100
alu 100
नो 100
Ni 100
▁ئاما 100
klo 100
▁Од 100
рек 100
▁utvrđen 100
▁gach 100
шуда 100
▁بل 100
69 100
▁fazer 100
▁blev 100
তো 100
▁mode 100
▁ব্যৱহাৰ 100
óm 100
ます 100
▁prodotti 100
▁сол 100
יט 100
raka 100
▁שה 100
داوه 100
ටි 100
وک 100
▁adopt 100
▁mitt 100
▁نظر 100
▁gcomhréir 100
েল 100
▁দেখা 100
īgu 100
rø 100
▁too 100
nuti 100
ення 100
▁bada 100
cla 100
法律 100
▁godt 100
▁43 100
rse 100
sión 100
ிலும் 100
▁পে 100
▁kokoa 100
全 100
▁mehr 100
vej 100
ائ 100
なら 100
કો 100
tää 100
▁ukoll 100
▁mũ 100
нос 100
për 100
▁leat 100
다고 100
▁πά 100
▁Internet 100
▁ام 100
یل 100
tasun 100
əcək 100
▁ż 100
▁দিন 100
▁ল 100
kku 100
pusti 100
ẽwa 100
cky 100
▁iste 100
▁kien 100
lini 100
▁يەر 100
▁चल 100
▁država 100
ях 100
▁قەۋم 100
μπ 100
▁क़ 100
金 100
် 100
ொ 100
▁defini 100
▁Ту 100
▁এটি 100
▁bãbu 100
рад 100
83 100
स्ट 100
ое 100
▁fet 100
▁Ubwoko 100
▁ہمیشہ 100
▁div 100
▁كىمكى 100
真 100
▁उनकी 100
rank 100
çe 100
зем 100
mene 100
▁დ 100
קל 100
待 100
ଇ 100
▁rezultat 100
▁gabe 100
جل 100
ਖ 100
▁дөньяда 100
害 100
▁हुए 100
dü 100
ieren 100
▁цел 100
gol 100
▁aasta 100
ektor 100
▁उसने 100
▁‍ 100
बा 100
چه 100
▁vás 100
نس 100
▁mutta 100
мет 100
▁حد 100
FI 100
▁சி 100
▁פ 100
▁así 100
▁Bank 100
andi 100
实 100
▁ҳеҷ 100
uksen 100
୍ୟ 100
▁edir 100
إ 100
ယ 100
▁않 100
െയും 100
όν 100
jut 100
▁Nik 100
▁ایسا 100
▁gus 100
ingu 100
▁خێر 100
▁idea 100
▁melding 100
ڕه 100
▁آخر 100
ത്ര 100
▁نکال 100
▁қавми 100
▁১ 100
▁bad 100
nego 100
λο 100
▁تع 100
▁ove 100
▁Unë 100
▁وام 100
▁быть 100
map 100
avo 100
▁việc 100
كي 100
ിനെ 100
▁vou 100
ниот 100
▁ለእነርሱ 100
▁öldür 100
▁тў 100
▁permet 100
▁organ 100
သူ 100
лік 100
eerd 100
ünü 100
▁Jan 100
κο 100
▁дөнья 100
ियों 100
▁toga 100
▁знаю 100
▁oni 100
blo 100
чки 100
னர் 100
dj 100
▁ҳол 100
把 100
▁Добро 100
kim 100
лся 100
▁change 100
▁44 100
▁Tarybos 100
बाट 100
xh 100
▁fejn 100
▁erre 100
× 100
स्थ 100
тель 100
▁izda 100
▁fest 100
▁esku 100
▁lõ 100
fayili 100
▁Euroopa 100
imento 100
▁mira 100
▁still 100
ിന 100
กําลัง 100
62 100
▁તમે 100
ƙar 100
▁unije 100
▁naiz 100
▁itt 100
▁noma 100
neš 100
لىقى 100
niku 100
skir 100
▁kost 100
▁nii 100
rate 100
▁tv 100
çar 100
▁чиқар 100
생 100
раб 100
▁seks 100
▁situation 100
▁noi 100
ುತ್ತದೆ 100
መጣ 100
▁njihov 100
jí 100
▁ай 100
▁SA 100
▁মধ 100
▁kalian 100
khona 100
ір 100
য 100
▁fem 100
▁priv 100
▁چاہے 100
ndro 100
无 100
íte 100
▁ਕ 100
▁extra 100
▁ikun 100
▁نکل 100
laka 100
வர 100
▁ថត 100
буд 100
▁úr 100
സം 100
▁гуфт 100
هه 100
rot 100
▁Methu 100
ჩ 100
ыннан 100
ไหม 100
▁წ 100
▁Spa 100
ಶ 100
▁call 100
yim 100
ချ 100
▁غير 100
▁él 100
時 100
▁когда 100
ння 100
gut 100
▁MIME 100
ίας 100
▁pravi 100
ļa 100
▁realiz 100
▁osigura 100
▁event 100
druž 100
אָט 100
基 100
▁actual 100
гин 100
skab 100
andro 100
irson 100
▁טעקסט 100
▁할 100
▁Opp 100
▁رحم 100
மி 100
▁starp 100
▁Λ 100
▁Comité 100
wart 100
▁tul 100
jy 100
▁Pat 100
▁edin 100
▁nove 100
stavlja 100
די 100
▁primer 100
▁كنت 100
▁Plan 100
ก่อน 100
▁นาย 100
▁Island 100
制 100
ź 100
▁31. 100
▁එපා 100
ellä 100
▁valg 100
▁অন্য 100
ჟთ 100
▁usu 100
▁Kad 100
▁400 100
▁הת 100
▁Air 100
mati 100
tál 100
▁għat 100
ਜ਼ 100
▁Kra 100
▁ഒ 100
▁vasta 100
▁बि 100
▁kansa 100
position 100
▁Ou 100
ři 100
▁জা 100
▁داره 100
ிருப்ப 100
ಧ 100
명 100
لىرىدىن 100
увати 100
Ya 100
rela 100
عل 100
meri 100
平 100
▁समय 100
▁moeten 100
▁tarif 100
▁죽 100
വി 100
MP 100
izao 100
יס 100
수 100
▁Би 100
ép 100
lau 100
gus 100
livell 100
හෙ 100
тау 100
▁etc 100
glav 100
▁PO 100
▁hvad 100
tivo 100
alde 100
вен 100
▁tentang 100
▁করি 100
▁Gosi 100
डा 100
▁Ад 100
בר 100
စ် 100
$ 100
▁εκ 100
lda 100
▁ovat 100
ára 100
ாய் 100
poli 100
▁ڈر 100
▁כמו 100
न्ड 100
ampi 100
kwu 100
fatt 100
hatra 100
▁anak 100
▁guzti 100
▁limit 100
▁sav 100
▁prove 100
트 100
▁anaty 100
▁онон 100
56 100
mpo 100
▁weekday 100
管理 100
▁Sur 100
ুল 100
▁уч 100
▁wurin 100
тка 100
▁déc 100
ץ 100
▁çıx 100
▁кө 100
▁dela 100
umiem 100
ۋە 100
▁pomoc 100
FF 100
гер 100
istu 100
▁centr 100
▁നല്ല 100
лган 100
▁kto 100
▁јас 100
يار 100
▁මා 100
ahan 100
▁slo 100
▁мардум 100
▁воз 100
▁arna 100
થી 100
িং 100
mann 100
mbra 100
них 100
▁توغرا 100
ის 100
figur 100
ோர 100
▁ඔයාගේ 100
ək 100
rel 100
▁hala 100
bbi 100
▁план 100
▁lalàna 100
။ 100
rka 100
▁dije 100
▁bili 100
▁प्राप्त 100
▁লিখ 100
▁করছে 100
ilen 100
▁fitchî 100
کس 100
▁τι 100
别 100
히 100
ରୁ 100
▁ffeil 100
▁mesmo 100
teken 100
ಂದ 100
عي 100
再 100
zet 100
قي 100
eksi 100
▁кард 100
▁regional 100
▁Ар 100
RS 100
just 100
ദ്ധ 100
ezi 100
▁되 100
▁programma 100
insu 100
▁štát 100
דר 100
▁zareo 100
каш 100
VI 100
▁ئاشکرا 100
ី 100
▁imam 100
pati 100
▁però 100
yes 100
▁posebno 100
▁කා 100
ška 100
jm 100
ъл 100
▁punya 100
▁Об 100
▁دوزخ 100
ningar 100
▁ین 100
▁pul 100
▁Χ 100
خه 100
šte 100
ऊ 100
儿童 100
য়া 100
ней 100
▁mend 100
يش 100
ujú 100
▁چوڭ 100
▁Regulation 100
▁Ал 100
▁IR 100
▁هناك 100
iran 100
தா 100
▁ម 100
▁noen 100
asc 100
▁너희 100
▁insanlar 100
ัง 100
▁Tá 100
▁šio 100
100 100
UL 100
▁ಕಡತ 100
▁tel 100
▁מת 100
شی 100
▁nett 100
ாது 100
tka 100
▁még 100
▁زن 100
▁između 100
శ 100
▁සි 100
▁antes 100
▁كەلگەن 100
wydd 100
6, 100
mysl 100
▁visa 100
ക്കാര 100
▁ön 100
ത്ത് 100
Ħ 100
OM 100
▁εξ 100
▁laikā 100
▁posta 100
▁ShortName 100
▁uno 100
.2. 100
▁ярат 100
ዎቹ 100
Si 100
ларны 100
▁йөр 100
രു 100
ника 100
▁hus 100
رنامه 100
▁இருந்த 100
ଟି 100
▁pana 100
జ 100
க்கும் 100
但 100
量 100
ball 100
่ง 100
bile 100
重 100
အတွက် 100
ต้องการ 100
▁анда 100
▁150 100
αλ 100
决定 100
▁ئىنسانلار 100
аи 100
bed 100
▁garanti 100
▁object 100
קר 100
▁Mike 100
HO 100
▁thứ 100
▁جاتا 100
reich 100
rok 100
▁godina 100
▁Ке 100
▁vehivavy 100
▁viel 100
▁Daj 100
nije 100
▁ring 100
▁Φ 100
▁نېمى 100
▁Mais 100
▁{0} 100
زم 100
▁പാ 100
නෙ 100
봐 100
▁போது 100
▁только 100
lage 100
▁wenn 100
▁piemēro 100
दार 100
▁bendr 100
veg 100
▁Kre 100
▁Gy 100
▁Cam 100
సి 100
oval 100
വന 100
▁rok 100
รา 100
▁direktiv 100
lder 100
boj 100
JO 100
▁anche 100
▁esa 100
▁eru 100
suq 100
udu 100
σης 100
▁الأمم 100
▁இறைவன் 100
fall 100
▁maga 100
роб 100
▁razvoj 100
▁jour 100
יים 100
ick 100
چو 100
ақ 100
▁every 100
ിരിക്കുന്നു 100
▁ting 100
אר 100
ുടെ 100
ଛି 100
dın 100
หล 100
ವು 100
dür 100
▁නැ 100
▁tho 100
misel 100
mohandes 100
▁nire 100
▁significa 100
▁NO 100
गो 100
▁nytt 100
니까 100
▁Region 100
让 100
ሽ 100
▁Kir 100
▁fampi 100
▁Ли 100
▁these 100
ratu 100
ଫ 100
oon 100
▁Auto 100
▁life 100
르 100
▁Mana 100
ades 100
മാണ് 100
▁czy 100
bij 100
ком 100
▁tudo 100
▁Martin 100
ở 100
▁slik 100
▁relat 100
▁گرفت 100
każ 100
▁Nic 100
யான 100
马 100
支持 100
kulu 100
ям 100
▁techni 100
ើ 100
ûn 100
ଧ 100
▁которые 100
▁ಒಂದು 100
▁51 100
ungs 100
▁vak 100
eadh 100
▁رہیں 100
mą 100
üz 100
eo 100
▁شو 100
▁сүз 100
▁кылучы 100
▁Inc 100
jev 100
rol 100
ść 100
น่า 100
bord 100
▁ግን 100
ρό 100
off 100
号决议 100
ENT 100
▁modo 100
▁Yang 100
ađ 100
▁mellom 100
▁poder 100
▁utiliza 100
વી 100
তার 100
▁sca 100
▁želim 100
นั่น 100
iser 100
omba 100
▁kurā 100
▁എന്ന് 100
ოვ 100
▁ul 100
ларидан 100
šel 100
umā 100
legt 100
▁сто 100
yon 100
▁সেই 100
لەرنىڭ 100
હ 100
▁رات 100
▁igjen 100
▁Možda 100
▁Га 100
▁mail 100
lock 100
▁ഹ 100
▁XML 100
▁لگا 100
▁olduğu 100
בל 100
ând 100
hm 100
▁Last 100
vni 100
▁cilj 100
▁کل 100
▁Europskog 100
mpu 100
ಕ್ಕೆ 100
tuko 100
ক্ত 100
▁کردی 100
▁Br 100
tid 100
▁لگے 100
ਂ 100
ומ 100
▁Please 100
স্ক 100
▁obra 100
TH 100
▁çək 100
▁trai 100
തിര 100
-3 100
▁folk 100
▁ફાઇલ 100
▁koju 100
بت 100
▁फोल्डर 100
▁دې 100
▁ezt 100
െന്ന 100
▁pati 100
▁هاو 100
秘书长 100
An 100
▁اختیار 100
ਚ 100
iweyo 100
риб 100
▁uns 100
▁послед 100
コ 100
▁alles 100
ാക്ക 100
शा 100
μο 100
▁நாங்கள் 100
မ်း 100
ৈ 100
▁ଗୋଟିଏ 100
▁idir 100
▁دارم 100
▁gö 100
قل 100
ớ 100
▁case 100
ಿತ 100
▁nev 100
▁unit 100
▁ديگه 100
లో 100
▁ឈ្មោះ 100
סט 100
▁хатыннар 100
▁rai 100
▁April 100
▁فا 100
ម្ 100
වු 100
▁dik 100
ứ 100
ови 100
قۇ 100
nazil 100
▁line 100
단 100
▁Ewropew 100
дем 100
vela 100
▁jų 100
टे 100
▁*. 100
▁výrob 100
▁presta 100
▁command 100
努力 100
▁Ubu 100
ият 100
▁வந்த 100
ód 100
лық 100
▁παρ 100
指 100
ació 100
εύ 100
tö 100
▁didn 100
rb 100
jot 100
▁même 100
Я 100
▁Ди 100
▁Tie 100
▁pik 100
▁automat 100
▁andro 100
▁fand 100
tás 100
▁etmə 100
▁tule 100
▁кыла 100
000 100
▁begin 100
ประ 100
▁ជ 100
lse 100
Parlament 100
▁نفس 100
teurs 100
▁ана 100
īna 100
gå 100
▁histori 100
åt 100
▁သ 100
▁các 100
ggi 100
▁mh 100
lep 100
acija 100
▁ši 100
▁gedit 100
итель 100
▁سامنے 100
▁сөйлә 100
žia 100
sht 100
ighet 100
▁ħa 100
pti 100
ជ 100
trans 100
▁dedilər 100
oth 100
▁anal 100
▁тан 100
▁дигар 100
indu 100
▁bà 100
▁거야 100
ингиз 100
ستان 100
meter 100
ലോ 100
▁zato 100
▁нет 100
▁vali 100
IK 100
▁esse 100
▁gjør 100
▁Дар 100
سىز 100
ايىتى 100
ජ 100
koli 100
▁എല്ലാ 100
ень 100
▁aterineto 100
▁ఇది 100
▁prost 100
tio 100
ской 100
tres 100
ritra 100
▁Ova 100
▁indray 100
▁işlər 100
▁onlardan 100
ders 100
▁Evet 100
▁bilir 100
▁ƙa 100
bek 100
▁ទេ 100
اره 100
lais 100
▁үл 100
▁“% 100
▁ចុច 100
hand 100
niz 100
зор 100
கு 100
▁65 100
▁fakt 100
ajā 100
už 100
▁ران 100
dores 100
▁нәрсә 100
▁ڕو 100
▁tempat 100
▁לו 100
▁než 100
▁דאָס 100
▁ništa 100
ழ் 100
▁ý 100
▁apo 100
phezulu 100
▁បើក 100
▁komme 100
ขอ 100
▁glu 100
▁ڕێ 100
▁ਕਰਨ 100
dah 100
▁fue 100
jor 100
▁nandritra 100
GB 100
chod 100
tico 100
▁አንተ 100
يو 100
2001 100
▁দু 100
ырга 100
▁කතා 100
▁ہوتا 100
▁اگه 100
mă 100
▁Regulas 100
▁يمكن 100
▁эт 100
▁יותר 100
iċi 100
▁Bai 100
▁vre 100
ናቸው 100
▁کاتێکدا 100
▁سامان 100
аг 100
▁top 100
män 100
üt 100
▁rất 100
হা 100
kannya 100
gó 100
قت 100
▁ጥ 100
▁such 100
▁vetëm 100
gati 100
▁ឧបករណ៍ 100
old 100
rci 100
حة 100
etti 100
▁ئىلگىرى 100
▁fine 100
îne 100
▁Shĩ 100
▁Park 100
总 100
▁priorit 100
▁ہاں 100
▁ияр 100
▁© 100
▁Group 100
▁الص 100
▁kart 100
svar 100
▁barn 100
gno 100
пра 100
95 100
ල්ල 100
ਤਾ 100
rica 100
रू 100
▁akt 100
уч 100
▁என் 100
▁Charlie 100
▁كىشىلەر 100
▁بنایا 100
TU 100
لف 100
හි 100
认为 100
▁Ii 100
roz 100
مەيدۇ 100
▁gest 100
▁ඒත් 100
ink 100
izə 100
▁helt 100
失 100
гӯ 100
ێنێت 100
iju 100
▁tamo 100
▁Japan 100
▁habe 100
▁mol 100
date 100
قة 100
▁میهر 100
ਵ 100
▁Conseil 100
▁luk 100
fte 100
दि 100
mond 100
▁قتل 100
▁ikunu 100
▁jedan 100
▁bug 100
▁trá 100
ebe 100
eller 100
▁tio 100
▁Çá 100
olu 100
cro 100
▁lugar 100
设 100
▁కా 100
рин 100
aš 100
▁ges 100
▁Ä 100
ುವ 100
▁Hvala 100
▁пла 100
▁nataon 100
▁عليه 100
▁hacer 100
▁gjorde 100
▁தவிர 100
ไม่มี 100
▁water 100
jski 100
▁есть 100
ധി 100
etta 100
▁ange 100
▁był 100
▁Hayır 100
▁kunnen 100
ীর 100
mac 100
деләр 100
lling 100
▁سمجھ 100
▁barra 100
лап 100
▁subjekt 100
lett 100
▁гамәлләр 100
▁иреш 100
کي 100
▁صبر 100
▁tontolo 100
Ro 100
▁tuine 100
▁ਲ 100
oor 100
▁peyğəmbər 100
▁dich 100
lwe 100
▁Zna 100
anı 100
▁mand 100
▁aga 100
Fa 100
▁kiel 100
▁мөселманнар 100
ələ 100
нем 100
▁Parti 100
相 100
▁byť 100
http 100
▁Igen 100
▁Nav 100
jun 100
simo 100
▁στα 100
anie 100
wayo 100
버 100
▁Idirishya 100
يق 100
▁ਫ 100
ас 100
▁Hur 100
のか 100
▁Ўзи 100
isha 100
ဖ 100
▁17. 100
▁Treba 100
▁West 100
ាក់ 100
▁tres 100
jeti 100
▁vše 100
omp 100
▁vide 100
▁qorxu 100
stå 100
iba 100
▁була 100
▁بأن 100
ന്നു 100
▁Ry 100
ക്കും 100
继续 100
қы 100
hul 100
▁කියන්න 100
Description 100
▁қо 100
υρ 100
ନି 100
▁reikia 100
▁مار 100
inda 100
▁found 100
ॅ 100
▁eigen 100
nol 100
▁proizvoda 100
▁člen 100
▁hold 100
nau 100
пад 100
▁88 100
▁പോ 100
▁mok 100
▁নাই 100
▁Win 100
▁47 100
▁nagu 100
iera 100
SD 100
▁يو 100
▁Imi 100
▁64 100
сең 100
▁эса 100
▁rest 100
必要 100
▁Бе 100
9, 100
▁қўй 100
▁uključujući 100
tad 100
ľa 100
▁przez 100
ხ 100
ოჲ 100
mont 100
▁qiyamət 100
▁sitä 100
pụ 100
fat 100
vs 100
▁Нет 100
ннан 100
vide 100
▁musi 100
▁image 100
ைய 100
кай 100
▁His 100
운 100
сте 100
ங்கள 100
āju 100
tsika 100
▁кам 100
▁вз 100
▁булу 100
rug 100
Bo 100
▁пункт 100
ပေး 100
▁puede 100
valo 100
vra 100
▁kienu 100
▁פֿאַרב 100
▁έχει 100
tig 100
▁پوښۍ 100
님 100
오 100
reiz 100
ായിരുന്നു 100
▁Шу 100
▁رچی 100
んな 100
VE 100
ināt 100
▁Ao 100
▁ari 100
ছেন 100
נד 100
8. 100
진 100
▁مقرر 100
▁tous 100
▁ता 100
ικό 100
vou 100
▁proced 100
▁dtagraítear 100
▁left 100
tare 100
▁стран 100
▁vastu 100
ität 100
Х 100
▁وعدہ 100
pí 100
нен 100
▁stavak 100
leko 100
▁System 100
▁držav 100
öt 100
▁propi 100
كر 100
▁პაჱ 100
▁Μπ 100
▁geh 100
▁niin 100
nant 100
▁എന്നെ 100
▁dels 100
▁pois 100
ዩ 100
▁ថ្មី 100
fort 100
▁কেউ 100
▁aplica 100
ဘ 100
лад 100
owa 100
▁Reglamento 100
miżuri 100
▁analiz 100
meli 100
мал 100
ไม่ใช่ 100
▁బ 100
ncia 100
▁jste 100
bhe 100
▁lêer 100
▁пот 100
អ 100
-8859- 100
بوو 100
roka 100
▁mean 100
技术 100
▁ஈமான் 100
০ 100
▁نیشان 100
тро 100
جن 100
▁kembali 100
▁ڕیان 100
vara 100
ক্র 100
▁হে 100
▁زندگی 100
▁شۇنىڭ 100
▁Έ 100
opera 100
▁Elle 100
▁mange 100
ां 100
▁буде 100
▁taƙawa 100
صر 100
ores 100
▁são 100
▁gcás 100
▁Sto 100
▁eman 100
മില്ല 100
eret 100
▁рад 100
ణ 100
放 100
▁ئۇنىڭدىن 100
▁verdi 100
▁یک 100
▁ඔ 100
middel 100
ность 100
▁mundo 100
cala 100
lly 100
مار 100
زي 100
▁sinu 100
သည်။ 100
▁нав 100
▁درمیان 100
▁मे 100
kou 100
▁چرا 100
▁Tuhan 100
মার 100
ধা 100
▁Nhưng 100
алар 100
ху 100
▁प्रति 100
▁фақат 100
▁الآن 100
اخ 100
كەن 100
▁ជម្រើស 100
▁બ 100
不是 100
种 100
▁stato 100
▁21. 100
аб 100
Com 100
isia 100
िन 100
sithombe 100
sınız 100
▁ceva 100
▁нещо 100
بێت 100
▁კ 100
stab 100
қта 100
elsen 100
ası 100
▁‫ 100
▁Land 100
Þ 100
ष्ट 100
▁due 100
νη 100
न्ट 100
▁teks 100
pada 100
akt 100
▁nella 100
irana 100
▁tím 100
zal 100
▁free 100
▁ụ 100
ష 100
ാര 100
ony 100
லா 100
▁ayi 100
▁düş 100
没 100
dım 100
▁camp 100
زن 100
▁internet 100
▁প্ৰদৰ্শন 100
iff 100
▁пок 100
▁этом 100
▁komen 100
▁سېنى 100
வரும் 100
▁Kö 100
▁सेट 100
▁ер 100
▁может 100
▁obu 100
”) 100
sert 100
▁Savienības 100
ဆို 100
Airteagal 100
▁durante 100
▁నాకు 100
▁standart 100
paragrafu 100
zela 100
▁ഇത 100
्नुहोस् 100
▁Denne 100
edig 100
ying 100
ہر 100
反 100
▁ton 100
atan 100
sage 100
вали 100
dyn 100
sala 100
▁مانگ 100
gga 100
▁voalohany 100
garri 100
▁ఇ 100
kina 100
uojam 100
otra 100
▁Poli 100
ောင် 100
▁زا 100
▁ovog 100
▁ŝi 100
身 100
yã 100
liz 100
▁ет 100
skriv 100
▁Stan 100
ئو 100
nj 100
eze 100
▁معبود 100
▁टॉम 100
▁ଏହି 100
ගෙ 100
ced 100
ايي 100
ани 100
▁fy 100
▁Син 100
▁بدل 100
▁දෙයක් 100
▁22. 100
ēr 100
script 100
▁කියල 100
lista 100
нии 100
▁leid 100
▁වෙන 100
▁kwaye 100
▁famo 100
▁টি 100
▁viss 100
èr 100
▁prov 100
▁якын 100
▁قىلغانلار 100
▁جانتے 100
▁norma 100
āt 100
▁செய்வ 100
ива 100
▁куфр 100
hany 100
▁ليس 100
েন 100
▁pane 100
선 100
▁የምት 100
sť 100
▁live 100
▁লোক 100
▁grund 100
रण 100
..." 100
gger 100
▁បន្ថែម 100
▁kanë 100
ларида 100
▁tới 100
▁več 100
▁אױב 100
▁sagt 100
▁Jah 100
zaka 100
▁தம் 100
vul 100
▁କରିବା 100
haka 100
▁fé 100
▁cent 100
▁nás 100
▁Ré 100
eanna 100
▁wij 100
▁acest 100
▁ficheiro 100
▁どう 100
▁skil 100
▁צי 100
riz 100
ергә 100
crawl 100
▁fatto 100
▁halua 100
() 100
▁pirm 100
▁гоҳ 100
▁પ્ર 100
เอา 100
AG 100
യുടെ 100
உ 100
ālā 100
cional 100
▁فضل 100
▁Kop 100
zara 100
▁Sary 100
▁Grand 100
cchi 100
WE 100
▁edil 100
主席 100
inni 100
▁មើល 100
rog 100
63 100
පු 100
ბვ 100
▁عبادت 100
ικ 100
رق 100
▁Pak 100
▁Què 100
▁== 100
项目 100
ുന്നത 100
Ė 100
mina 100
▁Gen 100
▁አላቸው 100
izay 100
▁viol 100
▁있는 100
▁Len 100
▁iya 100
rite 100
▁بىزگە 100
▁56 100
modus 100
▁yol 100
يان 100
szy 100
▁central 100
음 100
除 100
▁тәгалә 100
▁තමයි 100
னால் 100
▁Izi 100
▁hökm 100
▁Ban 100
யி 100
▁пас 100
▁Аның 100
▁або 100
▁Amin 100
TER 100
VA 100
▁итә 100
▁있어 100
bild 100
▁ശിക്ഷ 100
দিন 100
út 100
▁друг 100
▁Edit 100
tatu 100
ံ 100
▁uvoz 100
raš 100
▁privat 100
يال 100
plica 100
▁Ц 100
▁تەرىپىدىن 100
সে 100
▁Are 100
ολ 100
แก 100
▁art 100
ાઈ 100
▁таоло 100
▁સાથે 100
emos 100
gá 100
كن 100
inta 100
ىغا 100
Coptic 100
▁ناھ 100
▁Byose 100
Co 100
▁جه 100
ിട 100
රු 100
▁ڵکو 100
ඟ 100
▁שא 100
שה 100
▁എന്റെ 100
čki 100
vå 100
▁Date 100
▁પ 100
রণ 100
▁كرد 100
KU 100
кы 100
ჱთ 100
▁ее 100
οι 100
еро 100
git 100
由 100
▁хөкемнәрен 100
▁بالا 100
▁том 100
jum 100
三 100
ലി 100
ison 100
▁ნწმა 100
▁quá 100
▁well 100
▁Ezin 100
▁ياد 100
▁zure 100
▁twee 100
▁sự 100
index 100
▁Beh 100
Ho 100
ried 100
ेल 100
少 100
▁posla 100
▁disa 100
▁atas 100
hina 100
▁yalan 100
لاش 100
▁zara 100
▁መንገድ 100
иқ 100
জি 100
arta 100
डे 100
▁deyil 100
rapport 100
▁پو 100
pek 100
گاه 100
йти 100
▁leng 100
▁1996 100
▁really 100
ப்பி 100
raw 100
gni 100
▁Gor 100
чен 100
▁št 100
בת 100
▁הזה 100
bour 100
лись 100
▁Ле 100
▁сен 100
▁especial 100
▁seus 100
verk 100
▁protokol 100
▁यस 100
loj 100
▁fia 100
ताकि 100
eurs 100
▁미 100
▁кој 100
▁ekonomi 100
▁Само 100
▁китап 100
▁رہ 100
▁때 100
▁നോക്ക 100
ции 100
▁Bat 100
▁바 100
▁run 100
жо 100
eż 100
ныя 100
ሉት 100
▁هيچ 100
Jo 100
실 100
▁komuni 100
▁honom 100
▁வேண்ட 100
▁maž 100
mã 100
▁49 100
Kuma 100
vek 100
▁ብት 100
лам 100
▁ঠিক 100
вој 100
lade 100
▁trata 100
గు 100
ување 100
Region 100
କ୍ଷ 100
zd 100
ችን 100
abel 100
лем 100
შ 100
manzi 100
▁좀 100
▁Rialachán 100
كل 100
żjoni 100
吧 100
▁यहाँ 100
▁tijela 100
ھى 100
▁kok 100
▁ngu 100
మా 100
cil 100
rni 100
▁tome 100
▁আৰু 100
▁بە 100
▁қиёмат 100
5, 100
имиз 100
otu 100
▁PA 100
▁kafir 100
▁ár 100
ৱ 100
സി 100
▁وتیان 100
▁مۇ 100
▁Kai 100
৩ 100
kni 100
ତି 100
ajiem 100
▁alfa 100
▁এখানে 100
labor 100
മ്മ 100
▁ике 100
▁کێ 100
лиги 100
▁ina 100
▁gara 100
mhla 100
▁সত 100
၊ 100
Ti 100
巴 100
▁ир 100
保护 100
▁uzimajući 100
oja 100
▁پہنچ 100
▁forordning 100
▁অব 100
安 100
▁سأ 100
mend 100
рә 100
▁waere 100
သည့် 100
-% 100
▁دکھا 100
رس 100
্রি 100
▁ڕاست 100
▁قول 100
▁članica 100
ھە 100
βα 100
▁الد 100
▁хәлдә 100
AE 100
PH 100
▁cię 100
วิ 100
aith 100
▁الط 100
▁abi 100
asie 100
ائے 100
▁Naj 100
▁рост 100
▁Αυτό 100
▁हुआ 100
īga 100
්‍ය 100
▁الف 100
▁abu 100
īd 100
▁öl 100
▁بین 100
rige 100
фо 100
mluv 100
▁Bes 100
▁Қуръон 100
▁время 100
▁tooltip 100
سۇن 100
▁кайт 100
nova 100
leh 100
▁turėtų 100
iņa 100
▁vec 100
特别 100
▁вакыт 100
▁люб 100
▁1995 100
മി 100
▁כאן 100
▁ਇਹ 100
▁ကို 100
hoz 100
lela 100
дылар 100
פה 100
▁ویدا 100
annya 100
şə 100
▁അല്ലാഹുവ 100
▁Nema 100
▁600 100
ッ 100
▁оз 100
▁mungkin 100
stavi 100
▁тарт 100
▁درست 100
▁ake 100
▁Log 100
▁بولۇش 100
▁واقع 100
▁Urutonde 100
▁aịkọn 100
▁شەيتان 100
▁پیچھے 100
▁ਉੱਤੇ 100
▁ґәзабы 100
อา 100
▁pay 100
▁għad 100
▁그래 100
▁banyak 100
▁Р 100
▁সি 100
ୟ 100
▁בא 100
▁τρ 100
asan 100
als 100
▁இருப்ப 100
▁merk 100
▁qədər 100
▁membuat 100
ตาม 100
tään 100
ल्या 100
▁живот 100
বো 100
dikləri 100
▁mēs 100
ღა 100
ริ 100
ිය 100
▁آنها 100
jery 100
▁Hay 100
ム 100
гувчи 100
วัน 100
▁(2 100
▁وتن 100
ēji 100
▁அன்றியும் 100
▁რპწბგა 100
▁little 100
▁satria 100
organisation 100
▁gai 100
▁keď 100
▁vais 100
▁göra 100
лау 100
стер 100
წრ 100
取 100
▁kombin 100
রের 100
▁ваш 100
ление 100
▁Image 100
▁živ 100
trauk 100
mnt 100
кен 100
▁kũ 100
▁Fri 100
▁57 100
▁41 100
▁sikker 100
▁හැ 100
되 100
שר 100
▁אותי 100
▁お 100
ston 100
▁faritra 100
gji 100
核 100
▁Coimisiún 100
▁ใช่ 100
।’’ 100
ħħ 100
▁jadi 100
/2001 100
しい 100
રા 100
▁inclu 100
▁mã 100
ائیں 100
要求 100
ေး 100
▁minha 100
▁član 100
▁더 100
्रि 100
बो 100
▁mom 100
şti 100
▁ပ 100
طر 100
রু 100
▁шулай 100
ộ 100
▁støtte 100
medi 100
▁биргән 100
оти 100
▁gjøre 100
CP 100
▁deleg 100
业 100
▁byl 100
kning 100
▁havas 100
дет 100
shë 100
▁нима 100
cco 100
▁tahaka 100
ंड 100
கிற 100
bila 100
லி 100
西 100
▁پانی 100
▁neces 100
टी 100
सँग 100
аётган 100
owe 100
ibili 100
schen 100
Ο 100
▁kurios 100
cido 100
ikka 100
▁SE 100
▁eil 100
lərindən 100
▁kurių 100
eho 100
▁ćemo 100
ये 100
▁Ishusho 100
君 100
▁aussi 100
lici 100
▁کیوں 100
gul 100
inten 100
ুক 100
tuk 100
▁この 100
▁jsme 100
▁κατα 100
▁bearta 100
▁අර 100
▁kata 100
ဝ 100
ிலிருந்து 100
▁compte 100
tiku 100
gala 100
bola 100
ணி 100
cola 100
dıq 100
ούμε 100
بات 100
rebbe 100
▁temelju 100
▁iç 100
殺 100
▁юлга 100
▁бошад 100
▁不 100
оп 100
etik 100
▁defin 100
قص 100
sí 100
ჱა 100
xar 100
кот 100
▁ڕی 100
হি 100
▁네 100
▁رہو 100
▁James 100
▁ 100
▁drugi 100
jena 100
kontroll 100
▁šīs 100
lain 100
▁national 100
▁እንጂ 100
▁قبول 100
গ্র 100
▁ert 100
นา 100
▁ശരി 100
▁못 100
▁Ubangijinka 100
▁18. 100
▁Hoe 100
almente 100
ยา 100
▁хәбәр 100
▁Няма 100
ଡ 100
ார 100
ที่จะ 100
indi 100
IA 100
▁stand 100
▁шуда 100
▁projet 100
वे 100
ሐ 100
selt 100
що 100
გამ 100
▁під 100
Ü 100
▁Rəsulu 100
▁điều 100
▁ጋር 100
▁Cum 100
рис 100
▁mint 100
▁kjo 100
tuta 100
▁Bagaimana 100
▁counties 100
▁Dy 100
間 100
สิ่งที่ 100
▁कु 100
▁Šis 100
หน้า 100
ตาย 100
нал 100
TR 100
▁2014. 100
ière 100
njem 100
▁ناس 100
▁vēl 100
▁ഫ 100
િક 100
cka 100
мын 100
▁ਗ 100
سته 100
▁نماز 100
▁hetsika 100
tě 100
kaan 100
ଉ 100
男 100
टि 100
عمل 100
▁ഇവിടെ 100
8, 100
ኾኑ 100
▁हमारे 100
▁hidup 100
▁តាម 100
mata 100
▁әйттеләр 100
▁मिल 100
▁නම් 100
▁ema 100
inya 100
vice 100
ウ 100
届会议 100
▁triem 100
▁PNG 100
▁dị 100
▁loro 100
▁Δ 100
ετε 100
കാര 100
ētā 100
ጫ 100
▁zahtjev 100
ाउनुहोस् 100
MI 100
▁fik 100
▁buat 100
▁izin 100
غه 100
▁دیجئے 100
nig 100
▁ඔව් 100
ச்ச 100
эн 100
▁dins 100
▁sev 100
دل 100
sika 100
্রা 100
ず 100
▁хабар 100
▁daudz 100
▁cen 100
▁pop 100
▁hvađ 100
ဖွင့် 100
▁Për 100
▁halda 100
вя 100
▁yarat 100
prem 100
зан 100
▁кул 100
ኮ 100
思 100
▁(3) 100
▁ጌታ 100
▁دینے 100
▁ماڭا 100
maso 100
▁Str 100
acord 100
кт 100
▁Start 100
▁ಸಂ 100
▁পথ 100
▁sud 100
▁چىق 100
▁confi 100
▁রে 100
graph 100
▁tanto 100
▁күрсәт 100
▁imi 100
▁Sz 100
rada 100
▁LI 100
aciones 100
gian 100
ណា 100
şte 100
dge 100
▁খু 100
lisi 100
AK 100
print 100
▁hæ 100
sione 100
tamise 100
ତା 100
▁då 100
ਮਾ 100
▁мол 100
તી 100
▁08 100
bot 100
ள் 100
▁labor 100
▁vahoaka 100
ۍ 100
84 100
▁dugu 100
yang 100
▁Bor 100
▁flu 100
fung 100
▁tagħha 100
▁Hotel 100
▁Mat 100
전 100
ിട്ട 100
▁هات 100
ëve 100
▁право 100
▁Text 100
ặ 100
ჟრთ 100
ئۇ 100
ଥିବା 100
▁юбор 100
oji 100
▁дунё 100
тик 100
hre 100
▁эшләр 100
فعل 100
▁debe 100
▁වැඩ 100
יך 100
фер 100
▁தன் 100
vana 100
ც 100
shumi 100
τή 100
ными 100
eder 100
▁Vin 100
▁የማ 100
交 100
▁زۇلۇم 100
▁کړکۍ 100
▁ছা 100
ែ 100
▁qed 100
▁fat 100
ไง 100
rantz 100
jati 100
▁dl 100
▁usta 100
▁utan 100
vate 100
یاں 100
▁Mad 100
vim 100
▁שאני 100
布 100
▁پہنچا 100
▁sabe 100
▁δε 100
▁Presidente 100
▁Пре 100
▁چۈش 100
▁Prim 100
ઇ 100
▁služb 100
▁προσ 100
▁project 100
েক 100
▁Už 100
▁vyk 100
▁Добре 100
အား 100
yên 100
וח 100
רה 100
▁αυτή 100
부 100
▁sä 100
▁کئے 100
▁Wara 100
▁২ 100
▁యొక్క 100
ــ 100
ृ 100
зер 100
▁kategori 100
▁nhà 100
▁যোগ 100
▁gele 100
▁شەك 100
め 100
zí 100
ік 100
▁Kong 100
▁ĠU 100
▁sl 100
▁gjort 100
▁అతను 100
▁неъмат 100
▁እርሱም 100
мест 100
्स 100
дал 100
zó 100
gid 100
hil 100
▁possible 100
▁Bendrijos 100
▁artikli 100
▁бўлади 100
▁siin 100
tasuna 100
▁fail 100
remo 100
وال 100
ரும் 100
▁ਮ 100
▁Però 100
▁Robert 100
Ethiopian 100
▁ठीक 100
▁በፊት 100
▁może 100
▁köz 100
▁godine 100
▁hierdie 100
▁κατά 100
▁hab 100
isation 100
未 100
▁היי 100
เบ 100
▁پکار 100
▁ស្ 100
bou 100
ικά 100
▁පුළුවන් 100
сың 100
▁κι 100
▁တ 100
AND 100
▁agora 100
政策 100
▁Blo 100
▁ihr 100
▁sø 100
▁келтирганлар 100
onta 100
▁Global 100
▁hag 100
▁contact 100
ration 100
ряд 100
കള്‍ 100
▁filter 100
▁Bos 100
dade 100
▁andra 100
▁exc 100
▁imeachta 100
▁ჲბ 100
osť 100
ovana 100
▁برابر 100
▁Sj 100
dda 100
గ్ 100
vier 100
დჲ 100
jø 100
▁этого 100
éad 100
▁novi 100
teur 100
▁jó 100
ขึ้น 100
rece 100
▁kafirlər 100
▁რა 100
▁Кар 100
▁خشی 100
গত 100
vaka 100
▁bãyan 100
▁موسیٰ 100
식 100
▁být 100
▁lehibe 100
▁kopi 100
лин 100
▁дей 100
▁ඇය 100
▁client 100
▁soku 100
▁ukuze 100
▁Comissão 100
▁RE 100
▁други 100
▁δι 100
▁pani 100
тим 100
98 100
▁ពណ៌ 100
▁own 100
æe 100
▁pob 100
▁നമ്മുടെ 100
▁bütün 100
▁Если 100
▁wrth 100
▁Ла 100
▁පැ 100
▁Ça 100
álacha 100
▁ख़ 100
segu 100
fayela 100
اپ 100
veni 100
मत 100
іль 100
▁Pode 100
ભા 100
加强 100
వే 100
职 100
▁кабул 100
▁już 100
mali 100
▁قىلىدىغان 100
▁Belgi 100
▁намаз 100
त् 100
▁volume 100
kora 100
▁provi 100
వా 100
▁OV 100
ления 100
▁ફોલ્ડર 100
NI 100
▁process 100
ப்படும் 100
▁mulle 100
inį 100
▁пос 100
▁feidhme 100
oda 100
▁prek 100
▁Mama 100
kona 100
▁اِن 100
føre 100
tena 100
ward 100
ked 100
itan 100
иот 100
▁yoxdur 100
▁PRO 100
бин 100
▁Sei 100
இறைவன 100
▁להיות 100
ჳა 100
▁señor 100
hur 100
▁ionad 100
ډ 100
ovo 100
▁aquesta 100
▁Tek 100
▁روشن 100
▁jih 100
▁வெ 100
▁तपाईँले 100
arekin 100
nın 100
σω 100
▁নিশ 100
▁ჟჲ 100
▁Bez 100
бат 100
ões 100
二 100
▁fly 100
எ 100
간 100
▁menos 100
▁mua 100
මා 100
▁kojima 100
促进 100
水 100
▁application 100
னி 100
loc 100
达 100
▁adi 100
▁Fort 100
▁Kli 100
vus 100
▁elle 100
▁partikolari 100
▁doktor 100
バ 100
іць 100
▁זו 100
いて 100
rekin 100
▁rekla 100
▁حالانکہ 100
wij 100
cing 100
▁ath 100
▁vur 100
▁suis 100
▁popul 100
учылар 100
▁നിന്‍റെ 100
▁لی 100
▁សារ 100
▁sina 100
үү 100
ძ 100
rach 100
твор 100
▁Porogaramu 100
ffa 100
▁neka 100
▁lit 100
real 100
ষ্ট 100
pression 100
▁ظالم 100
▁Baina 100
▁Με 100
▁Est 100
▁بېرىدۇ 100
▁baino 100
ўр 100
lej 100
▁লাহর 100
ترین 100
MO 100
ጸ 100
ត្រ 100
▁ахирәттә 100
▁گھر 100
▁କି 100
full 100
Fi 100
▁alhẽri 100
▁пока 100
▁Ŝi 100
▁minden 100
▁укы 100
ገባ 100
▁hea 100
▁odgovor 100
▁вопрос 100
ต่อ 100
▁Јас 100
Li 100
▁кўп 100
නය 100
▁ئىنسان 100
ைத் 100
▁دوو 100
▁Sąjungos 100
▁īsteno 100
zjoni 100
▁tant 100
▁france 100
dav 100
▁шуд 100
▁Rei 100
▁hắn 100
길 100
-5 100
க்கி 100
شي 100
থা 100
ця 100
భ 100
▁فی 100
▁appro 100
WA 100
▁znaš 100
ിച്ച് 100
▁commun 100
માંથી 100
▁tutto 100
▁بلا 100
▁tantara 100
▁modifi 100
▁پڑھ 100
▁vì 100
▁SL 100
▁хоҳ 100
▁week 100
▁koncentr 100
▁mgbe 100
▁US 100
acaq 100
▁vaja 100
கை 100
▁үзләре 100
kad 100
вать 100
▁Gishya 100
................ 100
▁Brasero 100
ልን 100
ối 100
ello 100
асы 100
▁шәһәр 100
ؤں 100
付 100
▁дөрес 100
¤ 100
▁filoha 100
▁manokana 100
▁lag 100
λή 100
▁tabbata 100
▁അദ്ദേഹം 100
▁Vid 100
▁kapital 100
▁tablet 100
ەل 100
dini 100
пита 100
▁kasuta 100
သိမ်း 100
stellen 100
mmen 100
▁ذ 100
▁baru 100
▁Кон 100
▁thing 100
▁Ray 100
▁mọọbụ 100
▁فرعون 100
uten 100
▁Jika 100
ografi 100
▁method 100
长 100
ਰੇ 100
యి 100
▁ጠ 100
▁أم 100
▁ūá 100
▁coisa 100
مال 100
经 100
Un 100
▁أجل 100
81 100
▁algun 100
નાં 100
▁Mam 100
source 100
▁Ia 100
pko 100
guna 100
פו 100
Istat 100
താണ് 100
▁På 100
▁Gan 100
이야 100
▁bide 100
ぞ 100
▁NIBA 100
▁फ़ाइल 100
оф 100
▁än 100
▁nepo 100
govor 100
▁sekund 100
লাম 100
▁teraz 100
ayı 100
▁komis 100
▁Juli 100
保 100
▁иткән 100
ops 100
bba 100
▁пе 100
▁келган 100
▁পু 100
တွေ 100
odo 100
ี้ 100
▁passe 100
▁Prav 100
▁dalyje 100
▁fr 100
гъ 100
lardan 100
▁wieħed 100
ېرى 100
▁aktivnosti 100
▁добро 100
▁aikata 100
óir 100
لې 100
aient 100
하여 100
jir 100
▁ჟამჲ 100
▁одамлар 100
dica 100
▁demande 100
▁موسا 100
▁add 100
വ് 100
▁jij 100
kó 100
▁επ 100
▁Dre 100
جي 100
fas 100
rjocht 100
тил 100
আ 100
▁અથવા 100
ിന്റെ 100
▁olana 100
kê 100
เด 100
▁göndər 100
اك 100
▁Svi 100
▁mislim 100
เวลา 100
▁siden 100
▁Пред 100
ন্ট 100
▁prava 100
ിരുന്ന 100
rast 100
Allah 100
▁votre 100
говори 100
▁ziren 100
lab 100
オ 100
▁ქრჲ 100
▁20. 100
▁estaba 100
quel 100
▁ибодат 100
▁অংশ 100
kkel 100
ið 100
ndlela 100
ဒ 100
▁fire 100
▁வேதனை 100
vý 100
▁три 100
▁mau 100
▁በኋላ 100
▁எனவே 100
▁मेरी 100
ery 100
ளை 100
▁پەرۋەردىگارى 100
തര 100
ояд 100
▁particular 100
كو 100
глас 100
▁Lá 100
▁dne 100
ове 100
πα 100
parte 100
▁bag 100
▁gut 100
▁उनसे 100
▁აკჲ 100
▁Bog 100
▁انت 100
lár 100
フ 100
▁එහෙම 100
ост 100
▁زىيان 100
▁Tämä 100
SH 100
bě 100
غۇچى 100
▁ምን 100
cap 100
▁жи 100
ன்ன 100
ләрне 100
▁тр 100
▁gospodar 100
▁kanssa 100
άσ 100
ழி 100
ngel 100
▁ķ 100
▁yerin 100
▁Ибраһим 100
OK 100
law 100
وارد 100
lac 100
toja 100
ပြန် 100
хран 100
كون 100
▁ette 100
▁кылдык 100
ত্ত 100
рес 100
▁purnea 100
▁lö 100
▁бит 100
▁hid 100
▁каршы 100
ば 100
mens 100
▁무 100
▁دي 100
iswe 100
▁biri 100
sebenzisa 100
▁Set 100
▁będzie 100
คิดว่า 100
klar 100
▁72 100
决 100
▁চল 100
▁faidhle 100
▁잘 100
▁پار 100
سن 100
▁بارے 100
▁câ 100
ук 100
▁tiksl 100
كِ 100
해요 100
▁thật 100
▁bru 100
GE 100
น่ะ 100
ിൽ 100
ঘ 100
▁кир 100
▁Why 100
start 100
▁يت 100
▁leith 100
пор 100
ес 100
▁Vamos 100
ਲਾ 100
▁და 100
dne 100
任何 100
ട്ടി 100
▁ඔබ 100
ဂ 100
လာ 100
▁visi 100
▁wê 100
рга 100
voz 100
பா 100
ăm 100
রী 100
▁Tamin 100
▁불 100
ονται 100
èe 100
▁won 100
HE 100
eux 100
▁muut 100
我的 100
▁etdiyi 100
▁prin 100
lene 100
لۇق 100
റി 100
▁Byahiswemo 100
ются 100
▁aps 100
gues 100
ৰে 100
▁چون 100
cem 100
ธ 100
ുകള്‍ 100
▁britain 100
▁ислам 100
صف 100
▁contribu 100
ارت 100
▁Yes 100
Su 100
▁قەۋمى 100
▁സത്യ 100
atzeko 100
▁olar 100
▁най 100
▁今 100
uđ 100
なかった 100
тон 100
▁rot 100
▁jik 100
ทําให้ 100
াম 100
▁جاتے 100
larına 100
ቻችሁ 100
▁ඕනේ 100
сәләр 100
נת 100
oga 100
▁glas 100
Du 100
ψ 100
▁kl 100
▁تاپ 100
品 100
▁pantu 100
ជា 100
▁مۇشرىكلار 100
▁esto 100
▁җәннәт 100
נים 100
▁nic 100
▁orden 100
▁നിന്റെ 100
سې 100
வர்களை 100
▁considera 100
ρη 100
▁bomb 100
▁वाला 100
מע 100
oksi 100
ulla 100
▁value 100
▁Znam 100
▁περι 100
szer 100
▁ദൈവ 100
▁ono 100
▁server 100
сін 100
さん 100
elen 100
wing 100
▁चाल 100
▁στη 100
გყპ 100
▁কেন 100
▁Jul 100
▁eins 100
▁Poz 100
▁چۆن 100
تن 100
▁ден 100
▁অপ 100
▁જો 100
ใช้ 100
▁പറഞ്ഞ 100
▁rast 100
്യ 100
▁dizze 100
дом 100
▁пов 100
▁ז 100
61 100
▁orde 100
▁drog 100
▁əmr 100
▁acu 100
▁Umwandiko 100
▁បញ្ជី 100
ခံ 100
ック 100
▁Yn 100
▁સ્ 100
อน 100
ða 100
▁estás 100
Je 100
▁1000 100
mble 100
ಯಾ 100
ње 100
▁política 100
▁ئوقۇ 100
ất 100
asti 100
చ 100
cce 100
▁stol 100
▁бирер 100
ବା 100
pio 100
Аллоҳ 100
▁sob 100
▁дела 100
lji 100
iwe 100
▁അപ്പോള്‍ 100
rdi 100
ị̀ 100
şe 100
▁Bila 100
▁fill 100
vom 100
וע 100
▁מש 100
چی 100
▁iets 100
inë 100
▁Member 100
2012 100
▁hey 100
▁joj 100
ফি 100
▁деган 100
ذهب 100
гор 100
▁senti 100
▁DO 100
شن 100
anan 100
▁Fel 100
▁მ 100
▁بولدى 100
tique 100
വരും 100
▁файда 100
▁tiegħek 100
▁human 100
▁plo 100
gatik 100
bid 100
▁midagi 100
▁sed 100
▁ø 100
▁Әйт 100
2011 100
▁numa 100
▁گرد 100
▁सकते 100
▁ঘটনা 100
▁persona 100
▁Zeit 100
▁сака 100
▁бўлди 100
ഡ് 100
▁riƙ 100
LI 100
▁hou 100
கா 100
▁tiu 100
▁ប្រអប់ 100
▁keluar 100
▁왜 100
Ge 100
▁barəsində 100
öd 100
ӯҳ 100
▁30. 100
▁meine 100
▁अब 100
▁farge 100
▁көн 100
▁ئېلىپ 100
▁فیصلہ 100
▁እነሱ 100
▁Л 100
联 100
▁special 100
▁sənin 100
खा 100
ści 100
▁Where 100
مىدى 100
▁조 100
אַר 100
ėjo 100
ቶ 100
amas 100
fter 100
▁ڕوون 100
▁इन 100
▁todas 100
จริง 100
▁biss 100
プ 100
证 100
imus 100
▁estat 100
sies 100
riti 100
▁لېكىن 100
saka 100
だった 100
▁സാ 100
▁taorian 100
skim 100
iteit 100
▁lid 100
ží 100
▁jsou 100
▁لڑ 100
▁pravo 100
▁இட 100
ంట 100
▁informacija 100
▁Chonradh 100
▁tren 100
0000 100
这个 100
▁спо 100
▁gjithë 100
情 100
▁خالىغان 100
δο 100
ग़ 100
▁ngosi 100
▁hain 100
▁उसी 100
пар 100
eği 100
▁trebalo 100
▁યાદી 100
àng 100
ځ 100
▁Person 100
▁كۆز 100
▁дурӯғ 100
▁جنہیں 100
aon 100
áva 100
▁kil 100
bung 100
▁session 100
▁ಇ 100
이라 100
▁વ 100
Nya 100
магыз 100
্র 100
ვი 100
valt 100
▁تت 100
▁constitu 100
lite 100
▁organi 100
知道 100
▁കണ്ട 100
▁tine 100
▁በምድር 100
▁Раз 100
▁etmək 100
▁internationale 100
çı 100
رك 100
▁દ 100
▁دوتنه 100
▁produktu 100
▁band 100
▁نوم 100
▁każ 100
▁cyf 100
▁ಆಯ್ಕೆ 100
بىز 100
▁prijatelj 100
നെ 100
▁Fol 100
emme 100
isan 100
uste 100
▁sasany 100
ෙන්න 100
eran 100
▁કી 100
▁बोल 100
slot 100
▁vaig 100
לת 100
▁گے۔ 100
▁mó 100
рәк 100
▁ବି 100
fl 100
dok 100
▁59 100
ది 100
▁zin 100
ώς 100
▁Spo 100
▁million 100
দি 100
CA 100
▁finns 100
▁Она 100
▁oro 100
▁нај 100
يون 100
ந 100
▁тәхкыйк 100
▁نۇرغۇن 100
▁ваъда 100
▁බලන්න 100
▁ئیمان 100
▁reglamento 100
▁Ý 100
estä 100
▁kawai 100
fə 100
▁বিশ 100
taka 100
▁South 100
▁turn 100
▁atsi 100
JU 100
▁nao 100
▁qo 100
¶ 100
▁مہربان 100
cket 100
kap 100
යට 100
▁olisi 100
▁mjere 100
▁کہنے 100
▁move 100
▁gözəl 100
▁पैदा 100
▁นั่น 100
ზა 100
EÜ 100
▁večer 100
ہم 100
▁développement 100
▁cikinta 100
بان 100
kirin 100
▁চাই 100
▁생각 100
▁aman 100
sjonen 100
റ്റ് 100
bantu 100
▁اٹھا 100
For 100
▁න 100
ruč 100
▁réir 100
pajjiż 100
▁because 100
▁човек 100
nir 100
بة 100
όλ 100
bei 100
▁sche 100
under 100
▁ஜ 100
ič 100
▁pokr 100
▁yan 100
▁Een 100
awu 100
ētu 100
ვრჲ 100
▁cré 100
ürü 100
iems 100
▁юр 100
▁حکمت 100
čni 100
© 100
▁Cəhənnəm 100
ыңыз 100
▁قورئان 100
▁פֿאַר 100
skerm 100
▁vista 100
īs 100
-0 100
▁назди 100
▁ពាក្យ 100
▁trebuie 100
情况 100
тив 100
员 100
▁bheidh 100
σι 100
▁ಅನ್ನು 100
▁--- 100
rink 100
▁нешто 100
കര 100
▁muy 100
בן 100
пис 100
οί 100
▁চি 100
援助 100
cze 100
ējā 100
احت 100
ţă 100
ţa 100
คง 100
णी 100
كت 100
▁কার 100
▁Kara 100
ög 100
ቹ 100
▁شتێک 100
▁zion 100
bank 100
▁posto 100
VO 100
еч 100
▁diese 100
▁vola 100
▁hatramin 100
▁woku 100
▁ainsi 100
ውም 100
લો 100
bhar 100
▁رکھا 100
▁deres 100
mia 100
▁Christ 100
▁fito 100
▁tö 100
▁2007. 100
サ 100
ordin 100
▁Како 100
▁bike 100
▁чем 100
▁итү 100
▁شوێن 100
▁رست 100
ិន 100
▁أنه 100
▁جز 100
now 100
aldi 100
▁sehr 100
onga 100
▁también 100
ures 100
ların 100
▁была 100
eau 100
krat 100
▁rich 100
▁identi 100
▁கூறினார் 100
▁здесь 100
▁کیے 100
fang 100
▁eto 100
然 100
liv 100
▁сизга 100
▁سلام 100
wali 100
▁kvin 100
▁Skriv 100
search 100
▁ოა 100
thy 100
▁Ath 100
ブ 100
▁ovom 100
▁Kao 100
▁Nautilus 100
cun 100
fær 100
▁Test 100
ಬ 100
ರಾ 100
ரை 100
▁কৰি 100
mandla 100
▁ġej 100
നം 100
▁dünyada 100
▁Roz 100
mbhalo 100
داو 100
▁tani 100
▁əməllər 100
pred 100
▁fins 100
▁расүл 100
持 100
IZ 100
▁حساب 100
robe 100
▁oled 100
▁permezz 100
エ 100
▁4, 100
▁tsi 100
던 100
neho 100
দেশ 100
pai 100
▁estu 100
▁chưa 100
▁Israel 100
▁CE 100
مەي 100
dun 100
▁years 100
حب 100
▁ئەھلى 100
▁onde 100
aktiv 100
▁rou 100
▁być 100
عم 100
▁Maha 100
ôr 100
▁төрле 100
影响 100
德 100
▁kosa 100
▁Thu 100
తి 100
roll 100
ව් 100
▁πως 100
▁statisti 100
eten 100
▁كەلتۈر 100
▁Dá 100
▁деген 100
▁pé 100
处 100
мис 100
▁суд 100
timi 100
▁അല്ല 100
▁oor 100
ًا 100
ဝင် 100
▁सुन 100
▁potrebno 100
▁তাহলে 100
▁ਇੱਕ 100
▁gadījumā 100
▁लिया 100
▁dev 100
maksā 100
əcəkdir 100
කා 100
▁против 100
nez 100
kú 100
kru 100
▁הח 100
▁Control 100
▁עכשיו 100
▁କରି 100
ത്തി 100
াপ 100
ിരിക്ക 100
▁araka 100
kry 100
▁kis 100
ZI 100
▁Over 100
▁මොකද 100
tol 100
ký 100
▁kleur 100
зар 100
▁إذا 100
בד 100
תו 100
rado 100
▁Yu 100
▁நம் 100
ಿನ 100
רט 100
▁белә 100
৫ 100
▁Όχι 100
▁unsere 100
▁شيء 100
▁ਹ 100
งาน 100
ære 100
bala 100
进 100
▁Ст 100
Es 100
▁aktu 100
▁fur 100
▁Kate 100
▁বিষয় 100
▁برد 100
▁परि 100
trop 100
▁19. 100
icos 100
ihin 100
▁Объединенны 100
▁олугъ 100
▁ئینجا 100
slov 100
▁দেশ 100
▁జ 100
▁filer 100
താ 100
▁vu 100
▁бір 100
▁الل 100
▁Merk 100
handel 100
格 100
▁qoy 100
unu 100
isch 100
▁აჱ 100
ାର 100
▁atao 100
mål 100
▁druge 100
▁انکار 100
חו 100
zzo 100
▁ಗಣಕತೆರೆ 100
▁açıq 100
We 100
▁sena 100
▁ske 100
article 100
áz 100
▁مست 100
ança 100
92 100
▁جگہ 100
▁asia 100
▁olaraq 100
▁recon 100
▁amma 100
▁تاوان 100
వు 100
▁shĩ 100
▁North 100
▁كىشى 100
如 100
කෝ 100
kė 100
▁sendiri 100
itar 100
mah 100
거야 100
9) 100
▁정 100
▁bile 100
▁مش 100
atori 100
kira 100
行为 100
ண் 100
عمه 100
гляд 100
inci 100
▁その 100
lni 100
▁বল 100
jene 100
▁kin 100
▁determina 100
▁געק 100
▁рәхмәт 100
сов 100
▁tã 100
lobo 100
▁nit 100
ိုး 100
▁53 100
▁ئالدى 100
▁through 100
▁Alex 100
▁edənlər 100
▁sain 100
▁çat 100
тин 100
фат 100
▁அவர்கள 100
▁lige 100
▁tylko 100
sses 100
▁nationale 100
▁зотдир 100
▁тэ 100
ode 100
علیہ 100
setyenziswa 100
▁私は 100
▁اولاد 100
ект 100
तर 100
уди 100
▁begitu 100
▁чу 100
oke 100
▁iad 100
kama 100
▁მს 100
▁biyu 100
מת 100
▁والم 100
ब्र 100
▁Azt 100
내 100
PO 100
िस 100
ുകയില്ല 100
▁áll 100
▁pala 100
ঙ 100
▁کردو 100
హ 100
▁kommissionen 100
aty 100
▁eftir 100
ené 100
▁பா 100
യുള്ള 100
ുന്നവര 100
▁ڕێگ 100
tën 100
▁Nga 100
pru 100
▁sje 100
€ 100
▁mitä 100
▁nsomebefaịlụ 100
▁דורכפֿאַל 100
inner 100
▁ask 100
▁stav 100
গা 100
▁FBI 100
▁හැම 100
▁desde 100
▁aiki 100
innstilling 100
New 100
คิด 100
ଗୁଡ଼ିକ 100
▁Regulu 100
▁Pass 100
▁quant 100
dź 100
▁මාව 100
ciju 100
▁ಮಾಡ 100
(3) 100
ical 100
Ī 100
▁böyük 100
▁Наций 100
▁ڕێبازی 100
▁izahay 100
▁hadde 100
گا 100
▁rahama 100
▁വേണ്ടി 100
▁Bio 100
"; 100
ҳам 100
▁papild 100
번 100
▁Bit 100
▁alde 100
▁সর 100
▁geç 100
неш 100
▁natural 100
anci 100
▁tutti 100
▁Star 100
▁мекунад 100
fasitela 100
▁president 100
▁hefur 100
LU 100
▁Ông 100
ач 100
kez 100
ship 100
▁මි 100
itse 100
▁उन्होंने 100
▁بھیجا 100
udio 100
маслар 100
▁tvoje 100
ାନ 100
感 100
తో 100
▁Bak 100
ბა 100
зы 100
▁inde 100
▁പിന്നെ 100
gende 100
▁й 100
▁musí 100
▁বন্ধ 100
▁מא 100
▁Saýla 100
tiċi 100
▁meget 100
▁away 100
▁letter 100
▁основ 100
čaj 100
ować 100
veri 100
▁vii 100
kere 100
ről 100
tör 100
▁alalan 100
あなた 100
▁character 100
▁saj 100
след 100
▁roku 100
lighet 100
人员 100
▁നിന്നെ 100
jeli 100
군 100
▁vist 100
here 100
▁глав 100
▁ڕان 100
घ 100
▁lahatsoratra 100
धि 100
▁kasih 100
▁miss 100
▁பின்னர் 100
vao 100
▁صلی 100
jnë 100
بۆ 100
ekt 100
ضع 100
går 100
▁ireny 100
▁тем 100
▁তোমাকে 100
▁شیطان 100
▁नयाँ 100
▁54 100
▁mang 100
ėti 100
▁Cer 100
viet 100
▁አላህን 100
▁zoku 100
కో 100
▁ditt 100
tov 100
isme 100
سک 100
▁kaikki 100
cus 100
▁hef 100
▁reco 100
▁jetë 100
inimo 100
▁lib 100
rend 100
lection 100
زل 100
্ট 100
잖아 100
▁Komisi 100
▁eziokwu 100
rand 100
▁Има 100
▁Daniel 100
▁மிக்க 100
йн 100
▁slučaju 100
Бу 100
tú 100
▁خط 100
▁জান 100
чер 100
▁оят 100
ék 100
▁संदेश 100
▁kira 100
▁veikt 100
спа 100
ሚ 100
▁υπο 100
ljeni 100
писа 100
र्ड 100
bran 100
balk 100
čin 100
▁ـ 100
▁кофир 100
увам 100
தோ 100
mite 100
bhu 100
▁پەرىشتىلەر 100
▁درۆ 100
ார்களோ 100
▁ଫାଇଲ 100
மு 100
▁ہرگز 100
▁ۋاقتىدا 100
tty 100
▁export 100
▁रङ 100
▁international 100
▁dost 100
ап 100
уы 100
ိ 100
arja 100
ሮች 100
南 100
▁cin 100
ற்று 100
▁lik 100
irí 100
▁sens 100
тели 100
▁يک 100
comp 100
位 100
єш 100
paha 100
▁Дәхи 100
▁ئوخشاش 100
じゃない 100
▁kuras 100
lingan 100
łam 100
▁geb 100
ót 100
级 100
elser 100
sicht 100
▁znači 100
arbeit 100
4) 100
▁Унинг 100
▁оч 100
▁üks 100
เท 100
▁sedang 100
ально 100
tuar 100
▁edib 100
▁күңел 100
▁ಪ್ರ 100
▁países 100
▁каза 100
▁Bé 100
куп 100
ख़ 100
▁List 100
▁ڵه 100
▁interven 100
▁head 100
▁ianao 100
▁ياردەم 100
▁hơn 100
▁lys 100
▁espe 100
▁ט 100
ফা 100
iranje 100
▁буданд 100
▁ہاتھ 100
▁دلوں 100
▁ዘ 100
▁Sunt 100
ūk 100
▁документ 100
EEB 100
ọ́ 100
▁کاتێك 100
culo 100
/4 100
кин 100
νω 100
▁Šī 100
▁μπ 100
ません 100
▁그리고 100
طف 100
82 100
▁pap 100
▁98 100
▁Kjo 100
ىي 100
▁लो 100
isht 100
▁result 100
▁svet 100
▁আপুনি 100
▁bạn 100
▁نشانیاں 100
▁Vá 100
kių 100
حت 100
▁Пра 100
▁arm 100
arte 100
▁Çfarë 100
ụ̀ 100
ட்டி 100
বু 100
▁carr 100
rsu 100
=" 100
▁кем 100
▁থাক 100
▁mappe 100
▁रि 100
住 100
▁Tao 100
বাদ 100
▁môže 100
▁Get 100
▁Sar 100
▁хочу 100
这种 100
▁masih 100
IV 100
près 100
▁گوێ 100
лось 100
dä 100
სგა 100
▁соңра 100
▁যেন 100
▁State 100
بط 100
पी 100
▁ọfụụ 100
лась 100
▁tau 100
ęs 100
So 100
▁بدلہ 100
ennoù 100
ீர் 100
▁Lag 100
ઝ 100
▁Khetha 100
▁كاپىر 100
ൊക്കെ 100
ūs 100
▁aloha 100
ناک 100
ează 100
▁Ман 100
hwe 100
▁Ҳар 100
▁लग 100
▁metu 100
rial 100
▁alda 100
▁сред 100
żo 100
▁Що 100
З 100
▁אחד 100
ัด 100
代 100
▁Ναι 100
▁bud 100
NU 100
▁bort 100
▁нәрсәләр 100
ោះ 100
kler 100
▁آج 100
miz 100
▁52 100
▁Tio 100
▁prefer 100
▁πα 100
öh 100
φορ 100
isce 100
▁کردیا 100
legg 100
▁yola 100
sider 100
▁možeš 100
▁تن 100
ഖ 100
анда 100
▁nuen 100
商 100
▁במ 100
▁administra 100
size 100
▁demand 100
help 100
▁Maj 100
▁ብ 100
▁vă 100
▁volas 100
जी 100
海 100
šta 100
▁Now 100
▁saber 100
▁मि 100
соз 100
ರು 100
▁Kem 100
ିକ 100
▁ජ 100
▁پاك 100
тов 100
▁politic 100
▁ሊ 100
▁چن 100
▁devas 100
வேத 100
▁hemen 100
▁кәфер 100
解 100
▁خەۋەر 100
achtaí 100
เมื่อ 100
▁İs 100
计划 100
ял 100
▁ਨਾਲ 100
ttava 100
▁99 100
▁Ind 100
iten 100
▁ეჲბპვ 100
▁Membru 100
▁okviru 100
tical 100
▁រក 100
SM 100
னும் 100
ligen 100
sjoni 100
▁Pres 100
တစ်ခု 100
ታቸው 100
▁بىلىپ 100
▁dieser 100
वी 100
▁sano 100
▁indawo 100
▁ევ 100
▁melakukan 100
ierung 100
čan 100
agi 100
ዎችን 100
▁золым 100
▁تب 100
κε 100
ból 100
▁கொ 100
ىدا 100
▁तुम्हारी 100
▁উপস্থিত 100
프 100
▁बड़ा 100
▁شوی 100
UK 100
▁Nova 100
▁necə 100
гоҳ 100
▁polo 100
кер 100
▁រូបភាព 100
▁mond 100
だけ 100
▁rett 100
▁aşa 100
нам 100
තර 100
▁Mur 100
▁2011. 100
常 100
ジ 100
dite 100
▁görkez 100
▁bhf 100
▁šali 100
▁খা 100
▁želi 100
▁ζ 100
қар 100
▁leurs 100
▁mah 100
▁شب 100
banye 100
кяр 100
▁rregull 100
olla 100
bert 100
▁vind 100
ης 100
キ 100
▁መልካም 100
more 100
▁súa 100
▁lehen 100
dici 100
▁кардани 100
maya 100
▁cheart 100
vanju 100
▁هێنا 100
تانه 100
▁една 100
▁Cro 100
▁кыз 100
nus 100
veik 100
かった 100
▁anos 100
භ 100
ałem 100
сці 100
▁Komisijai 100
▁mål 100
▁Euroopan 100
▁Tā 100
dott 100
▁elimin 100
▁naše 100
▁ਆ 100
нут 100
ჟრჲ 100
koj 100
auto 100
skjerm 100
lica 100
ject 100
iques 100
▁نەرسىنى 100
▁Tot 100
▁여기 100
▁46 100
▁нарсани 100
▁When 100
▁trano 100
▁arra 100
imet 100
liet 100
▁vjer 100
▁fita 100
fica 100
もの 100
▁Up 100
žin 100
▁ڕۆژی 100
ኔ 100
▁យក 100
yttä 100
રે 100
▁muka 100
▁rek 100
መል 100
▁дедилар 100
assi 100
▁stud 100
முறை 100
▁ھۆكۈم 100
문 100
▁front 100
schaft 100
▁లో 100
ļauj 100
кам 100
ācija 100
сини 100
mica 100
шка 100
ατ 100
▁2006. 100
▁Yake 100
ىسىلەر 100
лог 100
ણી 100
▁स्थान 100
εν 100
▁Bonisa 100
▁faýly 100
ация 100
പര 100
्यू 100
▁€ 100
▁زمان 100
яс 100
tő 100
▁bod 100
غى 100
ël 100
▁Onu 100
▁appar 100
сия 100
sir 100
▁நிலை 100
దా 100
๊ 100
▁dhéanamh 100
యా 100
ழை 100
رے 100
▁لړ 100
kę 100
▁Ø 100
▁cứ 100
▁দল 100
▁idiot 100
тре 100
ίζ 100
ahkan 100
▁2009. 100
ාව 100
▁Bob 100
▁ኾ 100
יות 100
▁stad 100
▁ym 100
yat 100
ize 100
ন্ 100
▁Ша 100
▁prodott 100
ლწ 100
▁ਕਿ 100
▁нарсалар 100
▁தா 100
iä 100
▁یت 100
▁pow 100
▁गए 100
ደር 100
阿 100
▁IL 100
▁여 100
ਉ 100
уж 100
▁recht 100
크 100
▁sammai 100
▁দেহ 100
▁себе 100
▁yohlu 100
బ 100
għan 100
self 100
▁từ 100
ará 100
GI 100
▁OL 100
نہ 100
▁سېنىڭ 100
mmel 100
▁okkur 100
аваць 100
ئە 100
ದಲ್ಲಿ 100
▁যার 100
צי 100
ুর 100
ുകള 100
▁(19 100
▁ишет 100
tinu 100
удан 100
▁є 100
▁قىلغۇچىلار 100
tail 100
eket 100
▁Dir 100
muş 100
nių 100
▁NE 100
sistent 100
▁jar 100
▁dön 100
роқ 100
▁urrainn 100
▁បញ្ជា 100
Go 100
▁رمانی 100
▁mums 100
▁yet 100
▁العمل 100
chị 100
ью 100
▁ایسی 100
▁سنا 100
fet 100
▁zien 100
handle 100
▁malam 100
▁ചില 100
тиб 100
▁iznos 100
ডি 100
▁gøre 100
▁causa 100
▁جمع 100
posit 100
▁første 100
▁Организации 100
▁moral 100
иться 100
نظر 100
▁ኾነው 100
abe 100
DVD 100
รัก 100
0, 100
约 100
nym 100
▁ئەڭ 100
▁بڑے 100
uješ 100
baar 100
▁Aš 100
▁азоби 100
nę 100
kter 100
zas 100
RU 100
▁аҳли 100
टर 100
க்கப்பட்ட 100
▁ECB 100
▁这 100
▁الاست 100
kazi 100
▁Une 100
▁كىر 100
우 100
čem 100
بع 100
ról 100
▁банда 100
tine 100
mista 100
вор 100
സ്ഥ 100
mpah 100
ంగా 100
▁Media 100
▁шайтан 100
已经 100
tran 100
bula 100
▁mani 100
▁fon 100
▁മറ്റ 100
▁داده 100
▁Ili 100
▁vieno 100
▁ошкор 100
চিত 100
▁কৰিবলে 100
▁ټول 100
▁الخ 100
мор 100
hlelo 100
haya 100
▁ना 100
jedi 100
voaka 100
▁acum 100
▁día 100
ziv 100
▁уст 100
▁سکتے 100
ното 100
▁پاداشتی 100
ไหน 100
pta 100
▁éis 100
സ്റ്റ 100
▁Poč 100
▁handi 100
▁என்பதை 100
▁کش 100
▁уже 100
france 100
▁članak 100
▁حالا 100
remos 100
ırı 100
▁osnov 100
AV 100
▁මු 100
▁vërtetë 100
▁පි 100
ኋ 100
▁បញ្ចូល 100
3) 100
▁Feil 100
▁lên 100
▁olet 100
ester 100
්‍ර 100
▁بند 100
兰 100
▁bang 100
sole 100
кри 100
▁सञ्झ्याल 100
କ୍ 100
teil 100
▁familie 100
▁aange 100
žni 100
▁franc 100
▁Ul 100
▁leanas 100
вра 100
ncer 100
يج 100
▁два 100
▁건 100
ပြင် 100
▁قايت 100
seħħ 100
డానికి 100
▁ڵات 100
cken 100
cut 100
kva 100
toerana 100
▁হল 100
DO 100
因为 100
▁questa 100
▁folder 100
切 100
▁שי 100
▁aliment 100
▁nhưng 100
ဖို့ 100
▁ચિત્ર 100
▁ডিস্ক 100
▁মত 100
▁oleh 100
▁financ 100
araka 100
▁bilməz 100
▁ĝi 100
ತಿ 100
▁لت 100
íonn 100
▁soit 100
▁چيزي 100
unda 100
▁progress 100
RC 100
▁cli 100
▁accord 100
▁Tin 100
نة 100
קי 100
▁Jesi 100
▁luo 100
▁වෙලා 100
ề 100
▁izango 100
▁سک 100
▁белүче 100
▁எனக்கு 100
vare 100
žem 100
▁zona 100
▁dollar 100
DR 100
▁Бұл 100
זו 100
▁gero 100
▁रूप 100
▁دوزاخ 100
▁شریک 100
▁قائم 100
தான் 100
▁खु 100
士 100
ết 100
Ч 100
▁võ 100
ovanje 100
اري 100
▁মু 100
▁וה 100
tër 100
GL 100
وح 100
▁Waar 100
taa 100
▁izmanto 100
tisk 100
tinka 100
ាំ 100
▁دیکھا 100
aju 100
▁consider 100
▁Miss 100
vention 100
▁EF 100
▁kèn 100
ডা 100
▁دێت 100
▁dacă 100
▁mane 100
lach 100
▁Hver 100
มั้ย 100
▁کردم 100
spett 100
▁Council 100
▁இருக்கின்றான் 100
pă 100
▁வேண்டும் 100
ოთ 100
▁ýer 100
well 100
യ്ക്ക 100
缔约国 100
▁ከእርሱ 100
▁support 100
ative 100
DP 100
roep 100
онро 100
ALI 100
▁والو 100
zir 100
▁oba 100
▁Mora 100
ера 100
▁dö 100
▁είσαι 100
▁ചെയ്തു 100
ikke 100
stęp 100
сты 100
▁миңа 100
ellen 100
úil 100
▁96 100
▁uste 100
ليک 100
dine 100
Ý 100
รับ 100
ჟრა 100
▁משהו 100
ēta 100
提出 100
თნ 100
▁transfer 100
▁magana 100
▁bring 100
▁Tamam 100
грам 100
BC 100
▁አስ 100
▁सकता 100
▁मार्ग 100
▁آره 100
fle 100
▁ged 100
NG 100
struct 100
구 100
ichte 100
▁akti 100
▁فریشت 100
oxy 100
онанд 100
håll 100
계 100
▁bhfeidhm 100
文件 100
ক্স 100
▁conf 100
undo 100
▁milli 100
TY 100
▁Že 100
▁ಕಿಟಕಿ 100
еді 100
▁COM 100
▁proti 100
▁mono 100
lop 100
Ø 100
▁Jy 100
一些 100
್ಯ 100
ที 100
▁Én 100
▁रख 100
مې 100
▁rau 100
▁දෙ 100
zoom 100
▁Germany 100
nul 100
▁Vir 100
బ్ 100
겠 100
▁jaun 100
▁tiesību 100
▁stel 100
tory 100
bido 100
мады 100
▁ड 100
kko 100
jana 100
▁tí 100
▁mens 100
▁کني 100
idades 100
ରି 100
▁روشەن 100
▁praw 100
▁сервер 100
יצ 100
dama 100
orna 100
▁neće 100
တစ် 100
▁মানুষ 100
▁pac 100
▁Î 100
misli 100
▁অতঃপর 100
TC 100
адилар 100
tsaka 100
5) 100
▁yerdə 100
▁ўзи 100
сил 100
களையும் 100
▁ihre 100
▁ভয় 100
类 100
kým 100
先 100
جى 100
▁waɗannan 100
▁многу 100
blik 100
ଏ 100
dhur 100
▁кунад 100
▁Csak 100
▁دۇنيا 100
▁கொள்வ 100
▁Maks 100
▁sekali 100
▁accept 100
建立 100
维 100
ppi 100
▁kiek 100
▁عام 100
▁Sono 100
▁etdikləri 100
ക്കാ 100
▁kuriem 100
เค 100
▁frá 100
mete 100
қат 100
కా 100
okat 100
▁também 100
ട്ടെ 100
volum 100
ាប់ 100
▁یوسف 100
shtë 100
▁بندوں 100
▁რსკ 100
▁Rus 100
ன்றி 100
▁jaz 100
fina 100
使用 100
ାଇ 100
दूसर 100
jama 100
όρ 100
▁khác 100
니다 100
راب 100
▁mel 100
sistema 100
ിലും 100
▁Kuva 100
▁dah 100
▁degli 100
এর 100
▁était 100
смотр 100
▁মো 100
▁ځ 100
/2010 100
Безнең 100
geri 100
यी 100
▁Lan 100
▁হতে 100
▁Asta 100
ค่ะ 100
ére 100
▁spus 100
اند 100
▁service 100
Det 100
▁Indi 100
acağı 100
ীদের 100
▁PRI 100
▁ato 100
▁efect 100
▁безгә 100
▁зур 100
ฝ 100
▁Ihitamo 100
▁üzündə 100
▁নির 100
rò 100
сак 100
ally 100
▁Zato 100
ables 100
▁número 100
▁توس 100
evo 100
vb 100
▁niveau 100
wit 100
ங்கு 100
ਨਾ 100
▁Dal 100
ाम 100
▁Nad 100
ighed 100
بىر 100
▁waɗansu 100
MB 100
▁sö 100
▁वाले 100
▁кога 100
tatud 100
▁Cyf 100
ूर 100
jur 100
ნწ 100
▁Ihre 100
服务 100
▁Фиргаун 100
ഡ 100
ڈ 100
▁দেব 100
▁outra 100
▁στον 100
ধি 100
▁dija 100
▁خراپ 100
▁시 100
түү 100
▁zapo 100
tatt 100
Id 100
ējo 100
▁نعمت 100
ию 100
▁هیدا 100
▁správ 100
бел 100
▁ئېيتقان 100
ിന്‍റെ 100
ナ 100
▁mám 100
ewwel 100
▁Vien 100
▁सम 100
▁কী 100
tē 100
כם 100
例 100
taria 100
即 100
מים 100
▁tìm 100
▁Cli 100
nwu 100
▁بولمايدۇ 100
ఫ 100
его 100
▁ከመ 100
ibe 100
▁order 100
langa 100
кра 100
nó 100
▁җибәр 100
▁link 100
▁ھېكمەت 100
▁féidir 100
▁nahazo 100
▁кыйл 100
town 100
▁lieto 100
ssd 100
נג 100
▁Коръәнне 100
так 100
▁இரு 100
ின 100
▁vaxt 100
▁સંગ્રહ 100
▁آنچه 100
ундан 100
ئۇلارغا 100
▁итмә 100
▁gestion 100
ði 100
čiau 100
αμ 100
garria 100
বৃ 100
▁International 100
াহ 100
▁Iran 100
aqq 100
▁المت 100
lwazi 100
лас 100
▁ಪ 100
nės 100
ėja 100
▁anjara 100
ඩ් 100
▁فعل 100
▁আন 100
▁mahu 100
▁2010. 100
ının 100
▁බල 100
ៅ 100
▁Commissie 100
▁мекунанд 100
ہی 100
▁איך 100
hän 100
今 100
Ð 100
mija 100
▁விட்டு 100
ств 100
▁Import 100
▁milion 100
tifi 100
▁nerv 100
▁Urufunguzo 100
windows 100
asjon 100
▁يجب 100
▁ናት 100
▁zuten 100
▁סי 100
liš 100
alle 100
▁осмон 100
EEZ 100
данд 100
जे 100
▁الدول 100
▁veic 100
пы 100
дав 100
▁hampi 100
recht 100
▁bych 100
ových 100
▁Oli 100
čke 100
▁please 100
nız 100
96 100
ವಾಗಿ 100
tį 100
▁хатын 100
▁nič 100
sza 100
▁đầu 100
▁kvot 100
ଗୁଡ଼ିକୁ 100
▁neat 100
▁shu 100
▁posao 100
sime 100
들을 100
ข้า 100
▁puta 100
资源 100
▁είμαι 100
▁Hvorfor 100
ാല 100
▁ант 100
▁mena 100
qan 100
▁ní 100
▁zie 100
өз 100
▁input 100
▁dove 100
▁razum 100
ோர் 100
▁ردگار 100
znám 100
ىم 100
▁arva 100
▁चा 100
▁العالم 100
▁Standard 100
▁نجامی 100
peta 100
אַן 100
tzean 100
▁tika 100
▁område 100
▁Nick 100
▁sans 100
nummer 100
كار 100
වට 100
untu 100
iĝis 100
▁SSL 100
▁Uredbi 100
CEE 100
▁Blu 100
dou 100
▁Cri 100
ekin 100
رض 100
يست 100
▁gru 100
นิ 100
▁ചെ 100
▁стар 100
÷ 100
▁cuando 100
ници 100
▁което 100
ستی 100
ajām 100
▁bid 100
zwi 100
ديم 100
qhu 100
itos 100
教育 100
ってる 100
▁ធាតុ 100
▁батыл 100
amina 100
▁mont 100
▁បង្កើត 100
确保 100
್ರ 100
וצ 100
▁gani 100
▁аша 100
ෙන 100
 100
كىن 100
atie 100
▁ය 100
▁promet 100
랑 100
மீ 100
styr 100
▁elő 100
фі 100
▁hall 100
▁날 100
▁ị 100
チ 100
▁विकल्प 100
▁بشأن 100
lte 100
▁شت 100
▁ady 100
▁bayyana 100
ţii 100
▁beta 100
zig 100
▁əzabı 100
ઈ 100
iter 100
▁California 100
▁když 100
skar 100
能力 100
▁mut 100
▁لیں 100
▁ඇති 100
▁serio 100
▁natao 100
)。 100
▁Amb 100
▁quanto 100
▁Ekki 100
ими 100
ለሁ 100
▁Priloga 100
বর 100
ဘူး 100
▁තියෙනවා 100
▁vidim 100
▁Esc 100
şa 100
▁Hvordan 100
ല്ലാതെ 100
ଲା 100
गत 100
ম্প 100
引 100
▁اللجنة 100
ษ 100
ัก 100
▁بەر 100
▁kurie 100
rir 100
▁às 100
▁синең 100
▁تق 100
▁कृपया 100
▁ਨਾਂ 100
リー 100
▁slut 100
žen 100
▁ថា 100
▁تش 100
▁Сиз 100
▁гап 100
łeś 100
▁Cậu 100
▁ġew 100
여 100
යෙන් 100
▁parë 100
▁そう 100
rku 100
ldu 100
کات 100
▁aller 100
▁iespēja 100
لان 100
▁Els 100
▁rãnar 100
▁яман 100
got 100
▁lil 100
ሎ 100
▁mutãnen 100
แม่ 100
europa 100
cw 100
▁Är 100
ۆر 100
▁Është 100
▁trop 100
▁GMT 100
ské 100
▁version 100
▁membres 100
▁καθ 100
জ্ঞা 100
▁kje 100
▁авто 100
▁Раббың 100
▁miaraka 100
▁stu 100
目 100
▁spi 100
area 100
▁bao 100
▁डर 100
/2011 100
▁Iza 100
▁país 100
uş 100
▁Znaš 100
▁rada 100
ቂ 100
tır 100
▁igaz 100
спе 100
▁جەننەت 100
tán 100
icu 100
▁তাদেরকে 100
чна 100
और 100
ън 100
▁Ay 100
uld 100
▁اجر 100
▁छोड़ 100
▁gaat 100
▁werd 100
▁سە 100
ző 100
▁anima 100
စာ 100
▁arasında 100
▁etdi 100
чо 100
▁고 100
▁Nous 100
▁Public 100
▁revi 100
ێته 100
▁old 100
▁Ан 100
▁mükafat 100
▁κάτι 100
ping 100
▁сине 100
acak 100
▁نیست 100
▁юз 100
▁volana 100
tav 100
ทั้ง 100
▁बचत 100
ków 100
▁material 100
▁olanlar 100
▁Mala 100
▁means 100
▁29. 100
▁қу 100
த்தி 100
▁mare 100
▁institution 100
طور 100
▁kamp 100
▁nên 100
ಡಿ 100
▁ഇല്ല 100
▁kali 100
▁ئاگادار 100
▁bheith 100
▁tü 100
▁ප්‍ර 100
▁mír 100
▁რჲა 100
ņu 100
cks 100
▁past 100
▁อ 100
▁पु 100
▁sala 100
løs 100
▁doar 100
▁彼は 100
▁Бигӯ 100
▁ध 100
న్న 100
▁ہونے 100
כי 100
▁sido 100
uoto 100
▁geldi 100
мент 100
▁held 100
▁ہلاک 100
kite 100
imme 100
▁États 100
▁بايان 100
▁aspekt 100
faka 100
holder 100
▁Takže 100
بد 100
▁kartu 100
▁IMAP 100
ħall 100
▁hatrany 100
አ 100
▁ቃል 100
▁rog 100
ktiv 100
▁pá 100
delse 100
▁job 100
ип 100
ዋቸው 100
ាន 100
liśmy 100
ইন 100
FS 100
▁Uimh 100
מען 100
▁прави 100
ிருக்கிற 100
▁למה 100
▁naam 100
▁হব 100
▁Hil 100
타 100
你的 100
▁unu 100
▁njezin 100
▁його 100
▁той 100
ક્ 100
▁rasa 100
▁kru 100
ପା 100
▁sit 100
راوه 100
▁Tim 100
ાઇ 100
▁Qual 100
後 100
▁2012. 100
ంది 100
▁TO 100
faidh 100
tés 100
▁gau 100
▁Hé 100
▁weer 100
▁mərhəmət 100
▁охират 100
▁좋아 100
.000 100
▁ҳақида 100
acijos 100
ỏ 100
wand 100
▁sim 100
▁bilər 100
▁cru 100
提交 100
▁غالب 100
▁kem 100
▁करना 100
2- 100
ுகிற 100
heim 100
▁Kwa 100
ስተ 100
কাল 100
сси 100
▁걸 100
dev 100
▁verdade 100
▁Onlara 100
ጨ 100
▁پھیر 100
▁شوێنی 100
▁जाओ 100
▁المن 100
ቻ 100
പ്പെടുത്ത 100
ับ 100
▁Dire 100
tchî 100
▁kara 100
▁ola 100
ημ 100
▁punto 100
▁hos 100
▁également 100
▁Vä 100
گۈ 100
▁உம் 100
▁pad 100
▁માં 100
▁veit 100
ײַ 100
halten 100
▁šādu 100
▁проект 100
bá 100
uyor 100
▁කො 100
▁인 100
各国 100
ffiċ 100
▁vaše 100
▁MI 100
pana 100
ња 100
ಫ 100
ика 100
لايدۇ 100
llahu 100
sien 100
yy 100
▁LDAP 100
▁qəbul 100
▁Зна 100
▁liste 100
▁Opera 100
▁вакытта 100
▁keep 100
▁Nach 100
ार 100
lant 100
▁näh 100
▁سل 100
▁можете 100
အသစ် 100
đir 100
▁23. 100
▁stavkom 100
▁mikro 100
bide 100
غر 100
▁кан 100
▁Eli 100
یز 100
▁Pred 100
▁소 100
ənlər 100
▁Unit 100
▁сўра 100
▁fact 100
▁Ні 100
▁szer 100
ány 100
▁lot 100
ሠራ 100
ਈ 100
tation 100
▁hún 100
▁खेल 100
▁أع 100
▁قىلىشقا 100
▁Pal 100
ある 100
חר 100
▁شېرىك 100
▁وفي 100
▁செ 100
▁šajā 100
وني 100
▁söyle 100
▁Eorpaigh 100
▁ለእርሱ 100
▁[4] 100
ಯು 100
▁рӯз 100
فه 100
نګ 100
▁থাকে 100
▁cerca 100
Tu 100
▁تۇرىدۇ 100
neet 100
aiky 100
▁එකක් 100
ყრ 100
▁Itali 100
화 100
▁кейин 100
လုပ် 100
دۇ 100
ión 100
▁veure 100
▁सबै 100
መስ 100
හු 100
טל 100
ज़ा 100
▁Når 100
▁Ved 100
▁две 100
▁visu 100
▁ära 100
пак 100
படி 100
▁parece 100
▁ڕۆ 100
metil 100
▁Aquest 100
itsi 100
▁besar 100
Õ 100
▁های 100
KP 100
▁تیرے 100
▁Ukuba 100
elijk 100
▁работи 100
që 100
ybė 100
рс 100
▁mən 100
Yã 100
▁blok 100
db 100
ሌ 100
▁norm 100
▁pin 100
märk 100
▁කරනවා 100
▁ولكن 100
bruk 100
▁provo 100
▁پل 100
preżent 100
▁hende 100
▁свои 100
เอ 100
ован 100
▁sulle 100
▁many 100
တင် 100
africa 100
▁бўл 100
环境 100
▁Portugal 100
verktøy 100
▁year 100
▁context 100
baik 100
AI 100
olona 100
вно 100
ération 100
▁contain 100
作为 100
▁Sva 100
▁modern 100
óg 100
anne 100
бир 100
ọ̀ 100
▁qorx 100
รู้ว่า 100
部分 100
ront 100
rát 100
单 100
raba 100
वार 100
▁спас 100
ccup 100
▁याद 100
saf 100
pte 100
ijo 100
াস 100
ART 100
▁baten 100
▁വന്ന 100
ване 100
▁segur 100
彼女 100
▁Adam 100
口 100
▁pošt 100
crit 100
ंच 100
SO 100
াব 100
▁Nations 100
▁bheil 100
▁инсон 100
▁आहेत 100
kto 100
сла 100
▁heim 100
▁proizvod 100
▁Mira 100
▁گناہ 100
テ 100
▁мәңге 100
▁ఇక్కడ 100
မြ 100
▁budget 100
nina 100
▁је 100
▁थी 100
▁Pop 100
▁again 100
▁Ана 100
anse 100
▁εκεί 100
▁それ 100
raí 100
тән 100
▁የአላህ 100
▁вәгъдә 100
ēšanas 100
▁күк 100
▁hard 100
ഫ 100
ём 100
▁present 100
▁card 100
▁ओ 100
ছিলাম 100
미 100
ування 100
▁članku 100
θεί 100
▁믿 100
命 100
ുന്നില്ല 100
ଥ 100
▁ನೀವು 100
▁teritorij 100
▁Kro 100
Sta 100
ában 100
▁mycket 100
ģ 100
▁amount 100
▁05 100
tela 100
▁Legg 100
▁timp 100
ിപ്പിക്ക 100
▁राह 100
▁mihitsy 100
အမည် 100
liko 100
еме 100
いい 100
ūd 100
ಪ್ 100
▁كانت 100
agra 100
▁why 100
▁Korea 100
▁উপরে 100
▁نوح 100
èt 100
editor 100
▁ئېرىش 100
▁किताब 100
หรอก 100
▁Gushyiraho 100
மாட்ட 100
ვქ 100
/2002 100
iż 100
ാക 100
▁Jane 100
име 100
▁batek 100
▁klo 100
▁신 100
▁cred 100
кат 100
▁gent 100
izo 100
▁ук 100
▁estava 100
▁వ 100
later 100
టి 100
ਹ 100
vola 100
▁сухан 100
▁تې 100
▁interna 100
▁අය 100
gura 100
گىن 100
▁aŭ 100
த்தின் 100
▁बाद 100
▁mali 100
EY 100
▁সংৰক্ষণ 100
▁кавеме 100
ром 100
▁GTK 100
ყპ 100
▁están 100
▁brug 100
▁keine 100
tiek 100
uvvo 100
רג 100
ნარა 100
πι 100
inę 100
рок 100
jong 100
wana 100
▁کھا 100
ထည့် 100
▁उसका 100
▁explo 100
▁něk 100
Ż 100
tez 100
▁Zoti 100
▁Jam 100
成员 100
െങ്കില്‍ 100
ビ 100
▁night 100
شم 100
werk 100
▁yw 100
ڕی 100
▁свет 100
ësi 100
▁фәрештәләр 100
pris 100
▁gw 100
んで 100
ыць 100
бр 100
▁regard 100
▁drag 100
വേ 100
▁aldrig 100
▁când 100
رز 100
▁podataka 100
jent 100
▁litt 100
პყ 100
▁шо 100
▁سم 100
▁він 100
kiem 100
ides 100
▁yanında 100
andra 100
▁duen 100
▁છો 100
▁رگیز 100
▁روک 100
etako 100
රී 100
inger 100
bonisa 100
▁تدا 100
▁GIF 100
сс 100
▁Parlamenta 100
▁ćeš 100
organ 100
▁কো 100
两 100
ús 100
▁töö 100
▁mandat 100
▁Sul 100
ikel 100
EP 100
гун 100
▁batean 100
ികള്‍ 100
τό 100
作出 100
호 100
▁গেছে 100
▁aikatãwa 100
▁العام 100
واته 100
▁دىن 100
▁شتی 100
▁investiga 100
▁ሲኾኑ 100
κτ 100
▁સં 100
▁lesz 100
▁nëse 100
▁hə 100
▁ş 100
ίες 100
bete 100
ရာ 100
▁उनको 100
▁هاي 100
sena 100
tsin 100
▁پرانيستل 100
▁সৃষ্টি 100
▁ose 100
▁gjennom 100
ія 100
kord 100
นัก 100
▁Fall 100
▁toda 100
เช 100
▁ھەممە 100
бав 100
יב 100
sted 100
▁បង្អួច 100
dictionary 100
▁partir 100
ndring 100
▁আগে 100
▁Γ 100
▁kuul 100
ොත් 100
▁potr 100
іп 100
atura 100
▁avant 100
▁ژیانی 100
ố 100
▁ves 100
— 100
▁amor 100
集 100
走 100
▁another 100
kolo 100
цца 100
ସି 100
mera 100
lege 100
தற்கு 100
▁priemonės 100
ларына 100
▁stri 100
▁nustaty 100
ற்க 100
orden 100
▁nú 100
▁özlərinə 100
▁Py 100
▁elə 100
▁комп 100
ически 100
ئۇلارنىڭ 100
duğu 100
▁Medi 100
▁navn 100
ật 100
іть 100
іңіз 100
fru 100
▁hevitra 100
▁alarm 100
▁кү 100
eras 100
ێنن 100
IX 100
пі 100
▁રંગ 100
▁пер 100
करण 100
▁hata 100
▁Long 100
ទេ 100
▁ڕۆژه 100
تُ 100
▁tjetër 100
▁ھالدا 100
мин 100
▁பின் 100
▁insan 100
ljub 100
▁Må 100
▁ব্লগ 100
▁sure 100
▁বস 100
เจ 100
▁بھائی 100
маса 100
ёр 100
▁space 100
▁তাই 100
▁sous 100
▁еще 100
▁level 100
▁وإ 100
DL 100
▁amigo 100
▁நா 100
hung 100
▁ऐसे 100
▁Hún 100
▁кош 100
▁saingy 100
▁meet 100
▁tarp 100
กระ 100
▁without 100
%% 100
▁кто 100
▁roll 100
zional 100
▁শেষ 100
▁bruk 100
▁онҳоро 100
લ્ 100
čna 100
▁비 100
▁pokaz 100
Is 100
ism 100
say 100
ዲ 100
قوم 100
hui 100
용 100
אָפּ 100
ாலும் 100
▁reći 100
lv 100
▁mr 100
▁burada 100
ĝi 100
aca 100
▁کي 100
基金 100
ติ 100
▁پىرئەۋن 100
▁Fran 100
▁mjera 100
▁ئار 100
▁entra 100
▁справ 100
▁Voor 100
": 100
▁बु 100
现在 100
âr 100
▁61 100
▁Bože 100
▁ፍ 100
עת 100
▁დთ 100
▁1994 100
▁Rəbbim 100
▁ኖሮ 100
मु 100
▁snakke 100
▁chết 100
▁Ν 100
▁бала 100
мил 100
hez 100
▁source 100
▁করেছি 100
কো 100
ቢ 100
▁pielikumā 100
lelo 100
rę 100
▁પા 100
iendo 100
voor 100
ீர்களா 100
▁mesa 100
▁Central 100
مور 100
solu 100
атон 100
▁چار 100
dium 100
card 100
▁منہ 100
▁jauna 100
▁Masani 100
ủ 100
▁ugovor 100
▁equ 100
▁hér 100
▁йөз 100
لن 100
▁сер 100
▁lom 100
▁doit 100
▁reglament 100
linja 100
ossa 100
▁HTTP 100
▁ST 100
▁sér 100
▁खाली 100
▁آدم 100
▁pose 100
æk 100
unci 100
FR 100
▁kle 100
spod 100
太 100
िल 100
▁всё 100
▁Bill 100
lín 100
-6 100
▁tej 100
MM 100
▁ግ 100
▁altre 100
перед 100
▁ہوتے 100
▁بھیج 100
解决 100
▁Sigur 100
打 100
▁теб 100
▁Bivuye 100
ಖ 100
▁ئاي 100
▁ред 100
▁जाएगा 100
ញ 100
▁Ska 100
▁92 100
▁nanao 100
▁Mám 100
▁code 100
gine 100
▁petit 100
▁хур 100
volve 100
Mar 100
▁sector 100
Τ 100
έχ 100
ница 100
aggio 100
тал 100
▁dute 100
reference 100
▁2008. 100
▁بڕوا 100
▁vue 100
▁constru 100
lık 100
woord 100
,000 100
▁डाल 100
▁cari 100
เหมือน 100
ยังไง 100
▁Seg 100
▁eder 100
නම් 100
-10 100
ох 100
ţe 100
راق 100
רת 100
NS 100
போது 100
達 100
▁мені 100
rede 100
kont 100
רים 100
ាំង 100
▁Spi 100
خوانه 100
▁кил 100
▁പറയുക 100
ekile 100
▁install 100
▁добре 100
ούν 100
sniedz 100
▁būt 100
ിക്കുക 100
müş 100
paper 100
meno 100
autres 100
主要 100
ቸዋል 100
▁Gru 100
▁ruzi 100
▁ngay 100
▁Ру 100
dung 100
▁gleda 100
▁Hr 100
பட 100
stein 100
gress 100
చి 100
▁28. 100
-125 100
eerde 100
Windows 100
报 100
íomh 100
ര്‍ക്ക 100
▁attiecas 100
▁contre 100
▁73 100
▁Fal 100
കൂട്ട 100
▁savu 100
▁njenge 100
▁Mund 100
▁অভি 100
▁India 100
IB 100
▁ئايەتلىرى 100
당 100
eken 100
නව 100
▁hanno 100
୍ଯ 100
▁sådan 100
▁மிக 100
▁samt 100
▁07 100
ەن 100
▁צריך 100
▁പക്ഷെ 100
▁மிகவும் 100
▁නො 100
▁njega 100
▁priča 100
▁پڑ 100
▁Ρ 100
style 100
cı 100
گي 100
▁TAL 100
tamente 100
▁kommando 100
▁میزاد 100
▁ئەر 100
dji 100
▁تارت 100
NC 100
▁Pour 100
▁hitz 100
BI 100
▁ihenhọrọ 100
▁tilbake 100
한테 100
▁בר 100
ۋى 100
phawu 100
כל 100
▁förordning 100
▁instal 100
▁EN 100
▁ព័ត៌មាន 100
vän 100
▁خواو 100
▁gjë 100
▁hoy 100
ைப் 100
rwa 100
ളി 100
审议 100
▁అన్ని 100
schap 100
▁иска 100
▁Asia 100
ലാ 100
▁सूचना 100
mais 100
ಕೆ 100
▁egon 100
教 100
wini 100
ाँ 100
权利 100
▁گوناه 100
så 100
▁Look 100
ופ 100
▁그러 100
▁μόνο 100
דו 100
▁Hong 100
ũr 100
▁ami 100
▁moc 100
▁Ло 100
▁Good 100
▁sustav 100
হার 100
▁சரி 100
शि 100
▁lagun 100
aġġ 100
ኾን 100
▁ಶ 100
▁nunca 100
▁சா 100
ுக்காக 100
▁distribu 100
금 100
▁کنه 100
ള്ള 100
▁عورتوں 100
dirlər 100
મે 100
▁ху 100
gie 100
URI 100
▁சேர் 100
သုံး 100
▁użu 100
▁құ 100
▁celu 100
ender 100
šao 100
▁കാര്യ 100
▁ئىبراھىم 100
גי 100
▁سان 100
▁घर 100
▁после 100
▁Dans 100
▁farany 100
għajnuna 100
▁cm 100
▁знаеш 100
lés 100
▁darbības 100
▁ولي 100
▁نە 100
▁куни 100
ನಿ 100
sub 100
▁också 100
ents 100
▁cikinsu 100
93 100
γα 100
▁ندی 100
aţi 100
▁Dangos 100
మైన 100
官 100
ләрдән 100
▁faci 100
γραφ 100
ðu 100
homme 100
▁mampi 100
ince 100
全球 100
▁کاتی 100
▁vit 100
▁वस्तु 100
▁શું 100
▁Stati 100
τερ 100
▁valid 100
▁yana 100
▁አያ 100
ਇ 100
rop 100
▁Most 100
▁rö 100
▁Ibara 100
ለው 100
▁scri 100
▁position 100
əcəklər 100
nike 100
▁Sabõda 100
▁nyt 100
جم 100
חי 100
chie 100
▁dum 100
riko 100
▁پاشان 100
kən 100
сті 100
ciu 100
ating 100
▁тө 100
hľad 100
▁რჲ 100
▁θ 100
▁ọzọ 100
▁пәйгамбәрләр 100
▁fonction 100
▁tead 100
инглар 100
▁CON 100
tate 100
تنا 100
யோ 100
earre 100
▁Ord 100
Ба 100
▁anything 100
▁طور 100
▁Moj 100
▁होता 100
▁društv 100
ишга 100
മുള്ള 100
▁نعم 100
▁பொ 100
କା 100
▁मो 100
ダ 100
ハ 100
krit 100
▁5, 100
อยาก 100
నం 100
▁nazzjonali 100
▁gerek 100
▁pit 100
iyorum 100
▁vise 100
▁ସନ୍ଦେଶ 100
▁دشمن 100
ထုတ် 100
DU 100
▁মেইল 100
kų 100
என் 100
▁दिखा 100
▁Hin 100
terne 100
ает 100
▁жол 100
పి 100
သွား 100
ċer 100
Part 100
mbol 100
▁доклад 100
പേര 100
▁Hand 100
▁Nå 100
▁හි 100
کان 100
ою 100
担 100
azioa 100
▁बदल 100
лос 100
ছিলেন 100
▁robi 100
ετ 100
llä 100
ξε 100
rade 100
▁amach 100
▁जाए 100
فو 100
ױ 100
▁អត្ថបទ 100
▁verb 100
sebenzisi 100
වක් 100
চার 100
▁niko 100
▁feel 100
「 100
meti 100
▁boj 100
களில் 100
▁حی 100
ləndir 100
▁vég 100
▁tijd 100
▁bħal 100
үк 100
વો 100
▁ion 100
komst 100
▁כך 100
arme 100
▁Гуфт 100
▁सन्देश 100
म् 100
▁לב 100
rako 100
▁misliš 100
boli 100
saky 100
▁samme 100
▁elementị 100
▁kül 100
కొ 100
▁IM 100
еле 100
Ver 100
ється 100
වද 100
▁gamin 100
lova 100
אני 100
ہیں 100
▁estou 100
▁पुन 100
▁කොහොමද 100
▁eny 100
▁krv 100
▁mim 100
▁ūess 100
Å 100
▁જે 100
▁` 100
્ય 100
▁ہ 100
قۇچى 100
চা 100
▁grupo 100
▁तुम्हारा 100
lagt 100
▁सिवा 100
hau 100
บ้าน 100
▁जान 100
ebda 100
▁қавм 100
▁상 100
▁keç 100
▁Қ 100
heten 100
ڑے 100
▁ўзлари 100
▁Zar 100
Constellation 100
▁اِس 100
ngena 100
ण्या 100
▁echt 100
▁কৰাৰ 100
▁pier 100
▁piktogram 100
▁saman 100
▁neste 100
чак 100
bara 100
▁Hori 100
jući 100
เจอ 100
ጆ 100
اني 100
зда 100
Jeg 100
▁système 100
▁לעשות 100
▁години 100
▁كار 100
▁ά 100
▁fih 100
▁Henry 100
̀ 100
ılı 100
▁2005. 100
▁uy 100
▁לנו 100
cip 100
▁lama 100
▁droit 100
egu 100
hlobo 100
▁tijekom 100
لع 100
ጠራ 100
▁mbi 100
▁Comh 100
ിട്ടില്ല 100
ól 100
▁член 100
ući 100
ஆ 100
▁2020 100
kopi 100
▁הב 100
শে 100
▁high 100
▁informācija 100
▁Paris 100
▁Daar 100
thwa 100
lunga 100
列 100
审查 100
▁بزرگ 100
▁persone 100
▁خوف 100
nij 100
nesi 100
▁Bag 100
▁Bis 100
lies 100
▁ഏ 100
▁jullie 100
发言 100
▁аб 100
▁kiu 100
▁دات 100
ريد 100
目标 100
کړ 100
▁record 100
▁फ़ 100
▁अव 100
▁ю 100
▁सिर्जना 100
입니다 100
▁были 100
▁तरफ 100
▁nadzor 100
houd 100
เว 100
▁arti 100
▁قس 100
▁தொ 100
▁ase 100
මක් 100
فی 100
হত 100
▁rätt 100
▁방 100
kret 100
▁84 100
holde 100
▁खुदा 100
mato 100
▁58 100
AF 100
vest 100
თმ 100
debata 100
used 100
▁hra 100
义 100
ቤ 100
▁modu 100
ෂ 100
વામાં 100
เร 100
▁mina 100
▁ඇයි 100
оҳ 100
▁બંધ 100
▁pomo 100
ৰণ 100
▁ਪਾ 100
Ş 100
▁koko 100
bele 100
▁Ski 100
BO 100
ท่าน 100
▁ব্যবহার 100
cara 100
▁things 100
itzen 100
▁ئازابى 100
▁jesteś 100
▁njih 100
ደረ 100
مع 100
机 100
▁உண்மைய 100
▁idi 100
▁Ngo 100
ลิ 100
ojmë 100
▁genom 100
бира 100
▁1990 100
资 100
▁który 100
▁ბვქვ 100
▁লা 100
▁ምንም 100
▁ያለ 100
▁povez 100
▁Oni 100
ලු 100
▁sang 100
ല്ലോ 100
▁nám 100
协调 100
▁दृश्य 100
▁Τζ 100
▁تۆڵ 100
▁یی 100
ổ 100
ък 100
użu 100
কর 100
scar 100
ස්ස 100
cca 100
▁জি 100
ηγ 100
hamba 100
▁جوان 100
▁manera 100
▁آر 100
▁ပုံ 100
ঝ 100
हर 100
йд 100
▁ఏ 100
kot 100
ിലേക്ക് 100
కి 100
▁қилди 100
מס 100
ματ 100
▁ابراہیم 100
▁بىلىدۇ 100
▁Thank 100
▁두 100
▁keq 100
▁Jest 100
жд 100
dú 100
فة 100
▁kompetent 100
вся 100
▁ይላሉ 100
▁nevez 100
লৈ 100
chte 100
▁mea 100
▁gcomh 100
wat 100
▁doing 100
▁جواب 100
сизлар 100
你们 100
मि 100
▁susi 100
beri 100
▁وہاں 100
ڭلارغا 100
▁חושב 100
ៗ 100
sını 100
▁President 100
▁خیال 100
ammont 100
ാമ 100
▁bă 100
▁Richard 100
ây 100
▁rib 100
dó 100
жат 100
▁អា 100
▁dünya 100
lede 100
▁Ż 100
▁dokaz 100
ಿಂದ 100
zija 100
▁offer 100
яв 100
قول 100
ാണോ 100
▁göz 100
▁Krist 100
લી 100
▁hora 100
▁organism 100
ât 100
amme 100
namn 100
▁tale 100
▁paga 100
شو 100
▁phakathi 100
信息 100
ရွေး 100
съ 100
▁Gud 100
▁rat 100
▁dispos 100
מח 100
▁koristi 100
▁සහ 100
Bi 100
lelwa 100
案 100
▁quel 100
▁Κα 100
ɗi 100
মূল 100
▁شکر 100
▁Lä 100
▁ಜ 100
tshi 100
▁Nam 100
▁personas 100
egosi 100
ქთ 100
ήσεις 100
sluit 100
book 100
▁قىلسا 100
▁decision 100
▁Фа 100
▁കൊണ്ട് 100
▁Type 100
▁daļa 100
▁Ren 100
▁俺 100
களுக்கு 100
лим 100
fihetsiketsehana 100
된 100
▁doma 100
▁karakter 100
လက် 100
ึ 100
▁বিষয়ে 100
▁matar 100
▁gas 100
pir 100
tah 100
▁[2], 100
ojo 100
▁ശ 100
▁feno 100
▁тој 100
▁iso 100
▁මොන 100
ണ്ണ 100
▁දේ 100
▁Io 100
▁Lai 100
irani 100
▁иделәр 100
лез 100
▁žena 100
koak 100
tombo 100
▁ئۆزى 100
باد 100
▁Lakin 100
مس 100
lenn 100
ที่นี่ 100
tini 100
ጻ 100
▁τώρα 100
워 100
▁Harry 100
▁4) 100
vije 100
voli 100
roa 100
안 100
▁vent 100
ען 100
▁جميع 100
čil 100
SU 100
▁миён 100
▁mohl 100
ய் 100
居 100
▁Роббинг 100
▁ደ 100
▁Защо 100
▁қилинган 100
▁මෙතන 100
▁religi 100
ирован 100
১ 100
▁mener 100
▁দিকে 100
▁destina 100
ој 100
נס 100
▁ikusi 100
kirja 100
αφ 100
Σ 100
əniz 100
лыгы 100
▁बन 100
ongo 100
ಲಾಗ 100
▁ئىتائەت 100
▁لعنت 100
▁sociale 100
▁қи 100
▁råd 100
▁daugiau 100
ಂತ 100
مىغان 100
ným 100
ќа 100
▁mise 100
āti 100
▁ڕزگار 100
애 100
рик 100
▁उससे 100
moya 100
▁autres 100
ağı 100
tzera 100
abilir 100
/3 100
▁sebagai 100
നും 100
mayın 100
▁gã 100
lığı 100
தற்காக 100
▁chú 100
▁Гу 100
ście 100
▁Pap 100
▁trebui 100
وہ 100
сына 100
▁teda 100
▁fifidianana 100
でも 100
额 100
▁Gå 100
▁diferent 100
อม 100
▁siapa 100
لىرىگە 100
▁jen 100
йл 100
▁fitar 100
Day 100
▁nilaza 100
变 100
▁વિન્ડો 100
valg 100
▁שמ 100
▁%.1 100
▁izgleda 100
sége 100
bubata 100
▁lab 100
ەڭ 100
▁kort 100
▁ਦੇ 100
▁meva 100
▁שריפֿטצײכן 100
سار 100
ŭ 100
▁توي 100
▁olur 100
▁Stop 100
▁procent 100
truk 100
这是 100
ஹ 100
▁ھا 100
▁europe 100
▁1992 100
▁nodig 100
▁παρα 100
skrift 100
▁килгән 100
פר 100
pport 100
аст 100
▁Cel 100
tting 100
▁Phil 100
▁للم 100
ਕੋ 100
ае 100
▁게 100
што 100
까 100
▁njengo 100
▁66 100
转 100
安全理事会 100
מד 100
▁você 100
▁prv 100
▁যাবে 100
ric 100
▁දැන 100
▁struktur 100
▁มี 100
▁Russia 100
wind 100
▁страна 100
ണി 100
▁planet 100
▁могу 100
ANT 100
▁விரும்ப 100
pic 100
▁needs 100
ડી 100
▁škol 100
ского 100
▁isika 100
▁spor 100
▁vreme 100
luhlu 100
▁druh 100
노라 100
▁했 100
▁injezzjoni 100
▁2004. 100
ियो 100
▁رہنے 100
▁نجات 100
▁artigo 100
ماڭلار 100
▁Nech 100
▁төш 100
प्र 100
কৃত 100
▁اکثر 100
▁zülm 100
ରଣ 100
▁ùr 100
▁tãre 100
र्क 100
IBM 100
▁موت 100
▁sah 100
▁কৰিবলৈ 100
olog 100
▁रूपमा 100
Pre 100
的报告 100
ờ 100
▁molto 100
▁Й 100
page 100
▁الو 100
▁aos 100
▁Пар 100
▁গা 100
būt 100
ായിരിക്കും 100
▁ngokwe 100
非洲 100
メ 100
२ 100
▁Трябва 100
▁নথিপত্ৰ 100
▁حسناً 100
▁fie 100
▁mejor 100
INT 100
▁Прав 100
CAS 100
▁Jun 100
ంత 100
▁arşiw 100
▁இணை 100
ದು 100
جب 100
▁ض 100
▁1993 100
Не 100
ىرى 100
▁ولا 100
skat 100
▁moram 100
ities 100
ploy 100
▁strane 100
ory 100
ண்டு 100
▁ჟყ 100
▁পৰিচয় 100
▁ਅਤੇ 100
僕 100
▁inyogo 100
▁आदेश 100
-2- 100
يّ 100
▁элек 100
▁prvi 100
▁ودوا 100
▁значи 100
▁rum 100
íocht 100
▁худо 100
ninzi 100
▁رفت 100
ığı 100
▁ভাল 100
▁Tvoj 100
있 100
▁ڕۆژ 100
šal 100
rani 100
▁ਦਾ 100
▁Ibi 100
یب 100
য়ের 100
▁medicin 100
▁told 100
వి 100
▁waren 100
▁detto 100
▁いい 100
▁prova 100
ร์ 100
▁Ри 100
▁TIFF 100
▁ڕێز 100
▁vem 100
▁kvar 100
▁берган 100
zeka 100
▁tanàna 100
aĵo 100
වන්න 100
▁ટ 100
ۈم 100
▁උඹ 100
▁അനു 100
▁għas 100
▁киши 100
▁Louis 100
▁tabib 100
pool 100
меш 100
monina 100
ската 100
▁గ 100
▁جھوٹ 100
tolo 100
änd 100
ાની 100
oren 100
jelo 100
Ï 100
ற்ப 100
▁lice 100
ൽ 100
▁שת 100
▁ساز 100
▁ใน 100
▁Andre 100
▁ram 100
▁fanta 100
▁כי 100
වෙ 100
▁Has 100
▁being 100
足 100
개 100
▁recherche 100
▁ieħor 100
▁ئۆرۈ 100
яти 100
▁bersama 100
支 100
▁wees 100
ndray 100
मो 100
ලේ 100
ông 100
▁67 100
ਟਰ 100
verina 100
гыл 100
▁File 100
▁कम 100
ации 100
▁Lisa 100
тите 100
▁ūín 100
▁Bine 100
cji 100
ruš 100
ník 100
téri 100
▁можеш 100
▁അതിനാല്‍ 100
muni 100
▁지금 100
▁għar 100
▁relative 100
▁svim 100
▁పా 100
open 100
кол 100
▁IS 100
Za 100
ଲି 100
aíochta 100
▁Home 100
пан 100
▁düşün 100
ját 100
▁yolunda 100
▁सकेन 100
hati 100
▁presenta 100
▁حرف 100
▁səni 100
எங்கள் 100
▁ನಿ 100
▁kitab 100
▁Saint 100
▁autor 100
▁Osta 100
▁بىرەر 100
फा 100
дай 100
▁waktu 100
вме 100
tsho 100
▁vál 100
شتانه 100
ിത 100
теп 100
▁baba 100
▁سنوور 100
▁ҳалок 100
igo 100
政治 100
▁ўзга 100
▁گا۔ 100
▁도 100
رش 100
▁içində 100
لد 100
ፉ 100
kela 100
▁මෙ 100
▁animal 100
▁článku 100
दी 100
ời 100
வற்றை 100
ئة 100
štu 100
▁vald 100
▁Prilogu 100
▁svoju 100
াউ 100
dela 100
▁seal 100
▁بڑھ 100
▁Қо 100
▁Dere 100
▁yolu 100
▁separat 100
▁கோப்பு 100
▁æe 100
spēj 100
▁Google 100
applikazzjoni 100
▁odbor 100
VER 100
▁مجھ 100
▁جازا 100
auf 100
▁Java 100
▁jangan 100
guard 100
▁hol 100
▁mian 100
▁dak 100
əyə 100
▁mewn 100
עק 100
▁Komp 100
hwyd 100
▁widget 100
നോ 100
ья 100
ttävä 100
▁visas 100
▁শুরু 100
▁چاہتے 100
▁پورا 100
▁რაკა 100
▁Че 100
▁peu 100
▁vao 100
▁budem 100
▁பல 100
మ్ 100
ному 100
▁Komuni 100
▁93 100
ást 100
▁между 100
▁ਡਿਸਕ 100
▁dizer 100
▁उनमें 100
▁droits 100
▁jedna 100
benar 100
لق 100
Ж 100
termin 100
▁View 100
ائم 100
▁Đó 100
ื 100
പ് 100
▁ਤੁਸੀਂ 100
▁amháin 100
▁වෙනවා 100
▁Imam 100
▁dont 100
▁ناماز 100
வர்களாக 100
▁ау 100
▁چند 100
▁أت 100
▁diff 100
អ្នក 100
phambili 100
▁argi 100
▁sinä 100
ાયેલ 100
▁egun 100
ಿಲ್ಲ 100
ொரு 100
▁Dio 100
▁Aktiv 100
καν 100
ละ 100
干 100
▁vrijeme 100
▁síos 100
▁jie 100
stil 100
važ 100
оне 100
Per 100
▁داري 100
▁முன்ன 100
▁Commissione 100
▁baj 100
がある 100
▁заб 100
ҷо 100
istess 100
▁ካ 100
▁kole 100
txe 100
▁cos 100
رې 100
▁jää 100
хме 100
▁Hola 100
ضر 100
▁Ontario 100
▁මෙහෙ 100
▁intens 100
▁گروہ 100
▁Просто 100
▁лі 100
خدا 100
úc 100
▁ҳамма 100
▁អនុញ្ញាត 100
▁irudi 100
må 100
▁sever 100
▁hebt 100
▁prieš 100
▁coś 100
▁Sky 100
ରା 100
▁Ud 100
▁ഉപ 100
▁ሲ 100
registr 100
تنفيذ 100
قات 100
▁диск 100
မှတ် 100
vd 100
כה 100
▁கட 100
ย์ 100
È 100
▁آورد 100
▁days 100
ிருக்கும் 100
▁ର 100
▁tyd 100
ваш 100
▁даст 100
▁Nə 100
BE 100
థ 100
快 100
▁تۇرغۇچىدۇر 100
နေရာ 100
▁mogao 100
▁ജന 100
ητ 100
ματα 100
▁ah 100
ىمەن 100
піс 100
▁dice 100
yı 100
ίου 100
▁regel 100
▁signal 100
▁será 100
▁rizik 100
ମା 100
▁namaz 100
▁예 100
him 100
glia 100
▁қилса 100
▁Lin 100
▁ছ 100
าน 100
▁(0 100
يين 100
pond 100
Ι 100
zwa 100
▁Regula 100
▁Game 100
▁Әйә 100
▁One 100
ڼ 100
▁ғайри 100
▁қўрқ 100
▁terjadi 100
▁Бел 100
seli 100
また 100
▁හද 100
▁हि 100
▁Time 100
▁nosaka 100
▁pense 100
▁hyvä 100
▁monitor 100
Pri 100
▁बन्द 100
liana 100
ଙ୍କ 100
▁trgov 100
▁ដូច 100
▁haghaidh 100
▁KOMISIJA 100
▁മി 100
▁шавад 100
ív 100
hyl 100
råd 100
ják 100
▁ئاز 100
שו 100
bac 100
▁dobre 100
vna 100
▁lov 100
isko 100
उस 100
▁ئیماندار 100
рез 100
▁الأول 100
DC 100
▁තව 100
▁كۆپ 100
ിട്ടുണ്ട് 100
▁LA 100
▁aid 100
▁ဖ 100
▁skrive 100
¡ 100
ҳое 100
ತೆ 100
▁இருக்கிற 100
▁ਇੰ 100
▁siitä 100
▁Mah 100
▁taha 100
રો 100
ская 100
▁ئازار 100
саб 100
ování 100
▁мөэмин 100
研究 100
▁बेशक 100
▁spēkā 100
ଡ଼ 100
irati 100
bú 100
▁بخ 100
эр 100
δε 100
kait 100
▁Adres 100
▁карт 100
øv 100
参与 100
être 100
▁Mol 100
▁кажа 100
▁conten 100
▁pola 100
വന്‍ 100
ött 100
▁tran 100
ебез 100
ენ 100
▁ليک 100
** 100
plu 100
इन 100
ické 100
▁budu 100
৪ 100
ികള 100
ვმ 100
▁Rad 100
▁សូម 100
▁pantā 100
▁proda 100
▁87 100
▁Vas 100
šlo 100
voer 100
Ke 100
dyti 100
sele 100
▁буду 100
▁vár 100
ności 100
▁xu 100
▁בי 100
▁بانگ 100
vole 100
▁бет 100
قانداق 100
iausi 100
▁Hen 100
적 100
▁laat 100
▁عه 100
▁06 100
▁җәза 100
▁один 100
▁असफल 100
વે 100
▁зат 100
▁diosga 100
▁bëj 100
ận 100
tü 100
▁ott 100
的人 100
ữ 100
খান 100
▁ҳукм 100
▁نەسىھەت 100
ミ 100
▁gãfara 100
▁shiryar 100
ġu 100
แต่ 100
▁kalau 100
▁impre 100
essi 100
უვ 100
cela 100
▁ndër 100
啊 100
ምር 100
▁Ĉi 100
▁vode 100
▁oči 100
▁எந்த 100
tribut 100
▁informe 100
▁Jess 100
طي 100
லாம் 100
▁against 100
▁Dim 100
പ്പോള്‍ 100
▁Dom 100
▁ёлғон 100
へ 100
ตอนนี้ 100
▁tudi 100
▁همين 100
▁oprav 100
▁ок 100
▁better 100
▁63 100
ုံ 100
▁kely 100
لىرىمىز 100
▁അവനെ 100
مايدىغان 100
fond 100
fekt 100
▁sera 100
▁inne 100
stö 100
ಷ 100
اض 100
▁možda 100
▁모든 100
chas 100
เอง 100
▁көндә 100
▁Gospod 100
ഞ്ച 100
▁formul 100
止 100
σο 100
tien 100
▁big 100
▁pravila 100
▁அவனை 100
▁Нема 100
▁بولسۇن 100
▁où 100
▁икки 100
▁жой 100
▁gauza 100
▁ĝin 100
▁hom 100
awtoritajiet 100
पट्टी 100
▁آیتوں 100
▁skje 100
onia 100
તિ 100
▁odobren 100
▁bör 100
ನ್ನ 100
▁شار 100
ോള 100
▁закон 100
త్ 100
doni 100
▁wer 100
zés 100
▁tərəf 100
ŋ 100
▁Uredbom 100
▁puc 100
daki 100
tý 100
▁ਫਾਇਲਾਂ 100
▁Ча 100
:30 100
politik 100
▁ئىچى 100
▁acaba 100
naam 100
္ 100
▁galv 100
▁America 100
ಭ 100
▁zãlunci 100
▁ھەرگىز 100
▁Arbeit 100
▁posso 100
现 100
▁सर्व 100
୍ୟା 100
ဆက် 100
▁آم 100
ۇر 100
▁وڵ 100
aafbiljing 100
▁Your 100
▁جانے 100
thro 100
▁benim 100
iger 100
▁hell 100
خص 100
▁loka 100
▁বন 100
▁സഹ 100
▁роҳ 100
▁aki 100
▁அந்த 100
▁technologi 100
лив 100
tino 100
▁nye 100
▁Nord 100
▁ستی 100
▁итәр 100
▁clo 100
▁Vidi 100
ādā 100
туу 100
▁tomu 100
▁Ду 100
corre 100
GU 100
क्रम 100
表示 100
▁zašto 100
▁بۆیان 100
ması 100
▁ən 100
▁чиқ 100
SK 100
igkeit 100
itondra 100
chan 100
טע 100
▁Porque 100
▁пад 100
ဆုံး 100
科 100
ள்ள 100
íoch 100
লের 100
▁sotto 100
zeit 100
istas 100
qam 100
▁penge 100
▁skait 100
▁vrati 100
zenia 100
▁Did 100
▁كو 100
pier 100
▁ডি 100
ඩි 100
발 100
▁Comun 100
▁женщин 100
▁ياراتتى 100
וט 100
kwazi 100
▁klik 100
teen 100
▁Į 100
ჟვ 100
▁अच्छा 100
njalo 100
▁ړنګول 100
▁boli 100
lhe 100
这样 100
▁جنگ 100
▁fayl 100
▁ستن 100
או 100
aíocht 100
▁обще 100
▁വിശ്വസിക്ക 100
Result 100
▁reform 100
▁खोल 100
పో 100
ZE 100
களின் 100
▁usoroiheomume 100
2.1 100
кого 100
▁typ 100
▁empresa 100
▁dolgo 100
nod 100
ത്തിന് 100
godi 100
ுக்கும் 100
dali 100
▁അന് 100
▁24. 100
▁bën 100
▁naudoja 100
▁রা 100
ിരുന്നു 100
ম্ব 100
▁pasti 100
▁viso 100
▁handel 100
▁boš 100
▁investi 100
ಗೊಳಿಸ 100
èl 100
lea 100
건 100
▁үт 100
izar 100
▁Software 100
▁fotsiny 100
τί 100
▁የማይ 100
cl 100
▁ସେ 100
▁carta 100
▁ơn 100
▁Jim 100
▁apar 100
Trattat 100
▁மா 100
rlo 100
bost 100
▁obe 100
کراو 100
ன்று 100
zás 100
▁primjenjuje 100
vērtē 100
▁വഴി 100
▁wen 100
▁Comisión 100
▁obje 100
▁jalan 100
▁హ 100
में 100
▁Mia 100
▁daug 100
mmi 100
▁aha 100
▁alleen 100
▁দেয়া 100
▁താ 100
zantsi 100
▁اونا 100
ក្រោយ 100
▁тәүбә 100
ثر 100
મૂ 100
ប់ 100
▁mad 100
lát 100
▁vod 100
▁MP 100
চ্ছে 100
Por 100
yň 100
ãni 100
▁ก็ 100
▁ťa 100
នា 100
глед 100
tsiooni 100
ۈڭلار 100
▁exact 100
မည် 100
▁නැති 100
yun 100
▁Velg 100
roma 100
▁jeden 100
▁2006/ 100
ഥ 100
▁زېمىن 100
▁ბა 100
▁û 100
lumin 100
бора 100
▁በሚ 100
▁které 100
aydın 100
である 100
مثل 100
▁Ing 100
▁impos 100
htm 100
▁nekā 100
ווי 100
無 100
▁sən 100
▁vere 100
▁үчүн 100
▁Aba 100
▁tahun 100
ғи 100
rung 100
əcəyi 100
سىنى 100
borg 100
▁observa 100
▁imaš 100
▁гар 100
▁പി 100
▁które 100
▁enda 100
▁Ô 100
ồ 100
▁lê 100
▁един 100
▁які 100
▁रे 100
▁sand 100
▁ઘ 100
▁bolje 100
ček 100
▁keli 100
ҳи 100
ღ 100
інде 100
▁insulina 100
ပေါ် 100
▁ҷуз 100
čas 100
▁tagasi 100
ូល 100
Con 100
ttiin 100
▁sisa 100
▁چاك 100
mot 100
ınız 100
▁seva 100
ផ 100
தையும் 100
stem 100
nosť 100
яш 100
▁gehiago 100
▁ypač 100
▁сө 100
ింగ్ 100
▁alguna 100
▁alltid 100
▁galima 100
6) 100
▁سىلەردىن 100
あり 100
δια 100
▁publi 100
▁tipa 100
▁koma 100
вання 100
russia 100
▁иңдер 100
▁terminal 100
্রে 100
实现 100
ében 100
▁ella 100
▁Isto 100
▁62 100
mpat 100
▁Rəbbin 100
дела 100
võt 100
▁касе 100
ಕಾ 100
▁अज़ाब 100
ಲಿ 100
▁қайта 100
▁nær 100
▁años 100
▁myös 100
phone 100
ţie 100
▁lyk 100
▁பி 100
øde 100
▁Ð 100
▁вечер 100
▁Той 100
流 100
配 100
▁hazır 100
sah 100
▁ئۆزلىرى 100
▁neza 100
▁කරන්නේ 100
▁inden 100
isc 100
Office 100
ಲಾದ 100
▁tým 100
▁теләсә 100
▁wurdt 100
▁styr 100
▁كن 100
▁základ 100
▁lokale 100
▁тука 100
▁मर 100
board 100
▁Heb 100
мичә 100
esan 100
FO 100
▁salva 100
▁muss 100
▁entend 100
▁دىنى 100
▁ured 100
▁identifi 100
▁họọrọ 100
▁modifica 100
▁adresse 100
▁03 100
ION 100
▁əməl 100
▁алардан 100
gaba 100
▁pristup 100
地区 100
▁അവിടെ 100
▁administrativ 100
ranje 100
kään 100
▁ją 100
ziņo 100
▁निश्च 100
▁convi 100
ชีวิต 100
▁zwei 100
tës 100
नु 100
▁аятьләр 100
grade 100
ினோம் 100
front 100
vog 100
мисли 100
lē 100
▁sür 100
▁зинда 100
▁estado 100
▁مېنى 100
▁كىم 100
span 100
▁Inn 100
дзе 100
nell 100
ovanie 100
▁nustatyta 100
▁zakon 100
စီ 100
דה 100
▁sady 100
מש 100
सार 100
ন্দ 100
▁Σε 100
эй 100
▁زانی 100
َّ 100
▁נכון 100
▁إنه 100
▁باتوں 100
ിക്കുകയും 100
▁pár 100
▁Še 100
mach 100
▁lan 100
gana 100
bora 100
phantsi 100
▁lite 100
▁آدمی 100
▁созда 100
▁щоб 100
有效 100
غو 100
▁paziņo 100
▁vremena 100
▁efekt 100
▁받 100
▁کنند 100
कल 100
▁otro 100
只 100
▁cine 100
▁Wel 100
vite 100
▁Ikiganiro 100
▁በእነርሱ 100
▁Ngakhon 100
puesto 100
▁Cisco 100
lick 100
dies 100
നാ 100
▁Siapa 100
elig 100
▁пат 100
ț 100
▁hänen 100
ovanja 100
▁miks 100
▁દૂર 100
zil 100
因此 100
▁pomoć 100
▁sjen 100
аны 100
▁ہوگی 100
▁lalu 100
Add 100
グ 100
anohana 100
▁મા 100
ّت 100
منى 100
stoff 100
▁Barra 100
▁знае 100
▁εγώ 100
▁قریب 100
▁جاتی 100
▁luft 100
ième 100
▁habit 100
성 100
تره 100
▁Mak 100
коп 100
▁Тр 100
▁Nos 100
дете 100
layo 100
▁உதவி 100
िका 100
zīm 100
NY 100
▁эшлә 100
▁โอ้ 100
ஜ 100
▁loo 100
▁Мне 100
▁gn 100
▁falar 100
łaś 100
▁дума 100
▁Xin 100
▁경 100
image 100
วน 100
යෝ 100
▁ayah 100
кла 100
▁Diese 100
▁25. 100
▁يەنە 100
▁گۇۋاھ 100
▁নিঃসন 100
▁ប្រព័ន្ធ 100
提 100
jant 100
ผ 100
▁manao 100
▁võib 100
▁שם 100
▁jaar 100
▁கொண்டிருந்த 100
▁አን 100
دف 100
▁simple 100
वालों 100
▁lever 100
овар 100
▁गर्ने 100
规定 100
▁داشت 100
のは 100
лав 100
▁мора 100
ству 100
▁Kwi 100
məyin 100
khethiwe 100
▁програм 100
▁сынымнар 100
▁टा 100
дя 100
▁osim 100
ণ্ড 100
اون 100
▁βρ 100
▁kufuneka 100
tî 100
▁imådje 100
▁위 100
▁bodo 100
▁fen 100
▁উইন্ডো 100
▁බෑ 100
▁хәл 100
সহ 100
лған 100
wood 100
▁napravi 100
rė 100
▁bú 100
মাণ 100
▁display 100
▁mówi 100
rət 100
▁Kitab 100
▁mũminai 100
▁náisiúnta 100
▁kkunsidrat 100
SQL 100
েন্ট 100
▁Sco 100
मी 100
pożizzjoni 100
telj 100
▁Quan 100
uši 100
▁مق 100
▁दिल 100
▁kinne 100
▁atsižvelgdama 100
ений 100
حص 100
▁намоз 100
▁पहुँच 100
лыгын 100
ඳ 100
▁अप 100
өн 100
ics 100
וי 100
▁196 100
المايدۇ 100
හා 100
▁இருக்க 100
▁Сега 100
രം 100
▁режим 100
▁geni 100
▁rumah 100
▁بڕیار 100
kład 100
OJ 100
.3. 100
right 100
עשה 100
ዋል 100
限 100
▁bërë 100
▁사람 100
ہا 100
▁Lí 100
tzak 100
PT 100
▁boy 100
▁predstav 100
▁hade 100
▁права 100
ări 100
рал 100
என்றும் 100
▁दु 100
сед 100
ποι 100
▁Gufungura 100
▁중 100
▁அதிக 100
▁پەرۋەردىگارىم 100
▁morgen 100
0.000 100
ונ 100
▁zom 100
▁Под 100
▁ត 100
▁emisij 100
▁igra 100
▁kuba 100
▁পৰিবৰ্তন 100
તુ 100
▁ці 100
▁Rady 100
▁இருக்கிறது 100
اوی 100
▁あ 100
▁trên 100
valur 100
▁świ 100
moaka 100
برا 100
▁koku 100
لغان 100
وات 100
stava 100
▁brat 100
率 100
▁çfarë 100
▁بۇرۇن 100
▁نەرسە 100
න්ද 100
راض 100
panja 100
▁labai 100
ക്കി 100
▁financi 100
ских 100
acion 100
▁طلب 100
ишь 100
▁satur 100
vig 100
حسن 100
ครั้ง 100
aşkar 100
▁reglamentas 100
▁শাস 100
▁کبھی 100
asse 100
▁қайтар 100
▁positiv 100
▁ĉe 100
ozi 100
▁پیروی 100
▁ज़मीन 100
▁لأ 100
ống 100
પો 100
▁şərik 100
гру 100
mesi 100
▁250 100
▁dentro 100
▁few 100
rätt 100
ansa 100
▁zosta 100
▁dzie 100
lerin 100
teli 100
▁Илаһә 100
▁Знаеш 100
▁yardım 100
ாதீர்கள் 100
▁ondan 100
▁ساتل 100
archi 100
▁इन् 100
যুক্ত 100
다면 100
▁лет 100
ãta 100
▁చేయ 100
▁Sig 100
▁በጣ 100
timo 100
▁zich 100
▁inqanawa 100
▁ظاہر 100
ንግ 100
▁Hold 100
▁Minu 100
िय 100
μένα 100
енно 100
▁voli 100
▁Apakah 100
شك 100
▁بتا 100
gwe 100
spre 100
líon 100
▁ویش 100
▁gdje 100
▁led 100
вата 100
enzi 100
channel 100
имо 100
▁സമ 100
ிரு 100
▁എന്ത 100
▁120 100
gend 100
▁rád 100
бан 100
▁Bare 100
elli 100
staan 100
kā 100
▁আরো 100
▁بگو 100
▁secret 100
вели 100
back 100
kiđ 100
▁сенга 100
▁ita 100
▁úsáid 100
传 100
▁شۇلار 100
▁بېرىش 100
jim 100
▁London 100
ари 100
λί 100
▁პვ 100
unta 100
▁эшләрне 100
keli 100
หนึ่ง 100
▁cilvēk 100
▁problém 100
하게 100
▁שאתה 100
рем 100
ρώ 100
ере 100
ਬਾ 100
කර 100
▁يۇ 100
ைக் 100
▁კაკ 100
dıqları 100
spor 100
space 100
▁شوې 100
▁karena 100
비 100
▁Jer 100
PD 100
▁suure 100
hab 100
abb 100
▁Him 100
PV 100
урлар 100
▁ቅ 100
ганлар 100
▁danış 100
ဖြစ် 100
▁አላ 100
{1} 100
▁nhiều 100
▁dog 100
osod 100
คํา 100
▁fí 100
▁čia 100
▁ovaj 100
▁Fred 100
iyorsun 100
ρέ 100
▁tady 100
اندا 100
gare 100
غير 100
▁Chris 100
▁מר 100
▁ここ 100
ایا 100
▁correct 100
ရှ 100
▁परिवर्तन 100
ህም 100
▁kill 100
ഡി 100
▁ঠিকনা 100
ndus 100
radh 100
▁Source 100
▁mọi 100
ntzi 100
▁یاخود 100
▁Haus 100
▁familia 100
▁stvarno 100
▁despre 100
janje 100
▁ő 100
hour 100
మి 100
▁들어 100
▁хотел 100
▁ۋاقىت 100
Ftehim 100
▁הו 100
▁ඔයාගෙ 100
ευ 100
▁ഏത 100
▁Action 100
rift 100
άζ 100
әләр 100
得到 100
▁שריפֿט 100
▁চিহ্নিত 100
▁እንዲ 100
▁Cur 100
▁ചെയ്യുന്ന 100
▁mä 100
loka 100
▁mlad 100
▁роҳи 100
▁kyau 100
▁చ 100
示 100
▁Washington 100
▁роб 100
ಗ್ 100
▁وحی 100
irbh 100
़ 100
web 100
ôn 100
▁모 100
ಂಡ 100
დს 100
▁pozna 100
าร์ 100
ymo 100
▁each 100
▁этой 100
▁جہنم 100
▁брат 100
▁چيز 100
▁قورئانه 100
▁Mpi 100
▁plen 100
第二 100
▁tend 100
kod 100
Wa 100
▁papir 100
▁بووه 100
ица 100
▁dara 100
▁Maria 100
ový 100
▁priemonių 100
▁സ്വ 100
▁ধর 100
eachta 100
usia 100
▁كيف 100
▁сўз 100
▁килде 100
▁Hier 100
tivi 100
сна 100
▁ባለ 100
间 100
hör 100
ော 100
▁šī 100
▁billi 100
тр 100
▁arte 100
வான 100
нди 100
▁Gukoresha 100
その 100
कर्ता 100
▁cro 100
væ 100
bad 100
▁maak 100
EE 100
mili 100
את 100
▁Wenn 100
같 100
▁sécurité 100
▁حاصل 100
▁prostor 100
▁ચ 100
▁စ 100
ევნ 100
▁disc 100
htu 100
ද්ද 100
ular 100
▁تێک 100
▁Tele 100
▁ахирәт 100
▁nivel 100
▁ühe 100
தில் 100
▁година 100
▁செயல் 100
طة 100
ነገ 100
ிக்க 100
รี 100
lės 100
dari 100
▁GDM 100
▁день 100
▁ਇਸ 100
ටම 100
▁किए 100
▁fini 100
▁(4) 100
ope 100
▁рӯзи 100
ML 100
▁כש 100
uid 100
ונג 100
خی 100
▁brûke 100
▁zit 100
▁аш 100
gado 100
face 100
โอ 100
▁मह 100
▁நல்ல 100
ilor 100
▁שנ 100
тися 100
ۇم 100
តិ 100
▁বছর 100
▁rasp 100
▁KN 100
ované 100
▁Guhindura 100
▁កំពុង 100
왔 100
▁정말 100
isë 100
▁सो 100
תק 100
мәгез 100
▁China 100
ghi 100
▁koliko 100
▁емес 100
▁بینی 100
▁തര 100
zien 100
▁گمراہ 100
δα 100
▁Rəbbini 100
▁nez 100
▁jingħata 100
▁প্রকাশ 100
▁కాదు 100
тоб 100
වැ 100
▁عاد 100
ając 100
▁Carl 100
▁pras 100
خا 100
პრ 100
▁gør 100
ಡ್ 100
▁MO 100
ענ 100
▁Att 100
▁ਤੋਂ 100
▁хәрам 100
▁ছাড়া 100
▁800 100
পা 100
rene 100
▁mēr 100
chter 100
▁הס 100
▁Aber 100
▁কম 100
▁Mũ 100
ทรง 100
― 100
▁sã 100
▁minēto 100
▁কু 100
▁Ram 100
urrun 100
MU 100
▁ذات 100
▁قدرت 100
▁בש 100
strādā 100
▁26. 100
▁tradi 100
▁elektro 100
unt 100
gleich 100
▁ቀ 100
▁ਜ 100
▁الإنسان 100
▁අපේ 100
▁ඔයාව 100
▁informacije 100
▁weiter 100
ගත්ත 100
▁σκ 100
▁article 100
▁дил 100
纳 100
dés 100
leid 100
ഞ 100
▁Posted 100
وری 100
දී 100
▁pien 100
▁waħda 100
▁তারপর 100
▁account 100
▁Cred 100
יא 100
▁jät 100
של 100
লু 100
▁מיט 100
لىرىغا 100
ました 100
▁chose 100
▁Nou 100
▁Sho 100
▁Ю 100
▁அமை 100
▁preparat 100
▁effetti 100
ಲ್ಲಿ 100
▁お前 100
▁በእርሷ 100
▁어떻게 100
arios 100
▁જ્યાર 100
ações 100
luq 100
ेट 100
▁bola 100
▁dalį 100
พ่อ 100
yje 100
▁press 100
▁всех 100
▁кои 100
▁seine 100
граф 100
▁hear 100
▁Ник 100
▁Video 100
▁gabã 100
▁ტ 100
▁رز 100
▁කැ 100
ਵੇ 100
▁izmantot 100
ingar 100
▁Və 100
OG 100
▁ከእነርሱ 100
小组 100
▁family 100
▁সংযোগ 100
▁weurt 100
kwenza 100
лаган 100
▁ببين 100
/2000 100
bben 100
▁ياخشىلىق 100
▁cours 100
▁dlí 100
െല്ലാം 100
▁кешеләрнең 100
buka 100
▁padre 100
▁эдилар 100
▁menge 100
▁consum 100
ħu 100
ङ्ग 100
▁بما 100
Ј 100
▁zajedničk 100
▁चाहता 100
▁игра 100
▁aftur 100
нию 100
▁май 100
▁stk 100
▁cita 100
▁fod 100
▁הי 100
▁Ό 100
цен 100
▁CA 100
ड़ा 100
▁Bunu 100
▁gətirənlər 100
▁egingo 100
hlen 100
lă 100
വര്‍ക്ക് 100
▁жив 100
▁Estou 100
pod 100
เม 100
▁तुमसे 100
▁Bendr 100
▁نازو 100
ٰ 100
يلي 100
gharị 100
▁мога 100
▁Лут 100
ξη 100
▁tên 100
▁জানা 100
▁făcut 100
တို့ 100
▁står 100
▁forálacha 100
▁très 100
్య 100
▁mann 100
▁3) 100
▁қолдан 100
▁κο 100
그 100
▁Μα 100
اؤ 100
heden 100
▁Mida 100
터 100
▁ទាំងអស់ 100
▁ከእናንተ 100
бил 100
මැ 100
ेन 100
ыз 100
▁구 100
▁zonke 100
▁сказал 100
okuba 100
एस 100
▁atbilst 100
▁سۇ 100
▁گزر 100
പെട്ട 100
▁ziya 100
▁kendi 100
▁לע 100
pena 100
suka 100
备 100
▁kadangi 100
▁Sao 100
▁Ова 100
▁Kenapa 100
パ 100
تل 100
rimin 100
кажи 100
langan 100
▁vrijednosti 100
PER 100
оҳи 100
doza 100
веде 100
▁wkoll 100
▁cik 100
▁কিন 100
hall 100
ంద 100
▁Produkt 100
ense 100
▁gouvernement 100
klaus 100
පි 100
σχ 100
▁Bien 100
▁तर 100
战略 100
สําหรับ 100
▁żmien 100
▁الأمر 100
വിട 100
▁šal 100
▁%1 100
trin 100
јата 100
ċja 100
sız 100
▁store 100
▁78 100
ário 100
είο 100
▁دوور 100
▁ovoj 100
人民 100
ήσει 100
tè 100
stor 100
▁není 100
юсь 100
▁எழுத 100
ель 100
▁שלו 100
▁sitt 100
ঙ্ক 100
ىڭلارنى 100
▁प्रा 100
သား 100
父 100
▁alkohol 100
▁دھ 100
ector 100
▁sine 100
ভে 100
tzailea 100
▁Hat 100
ത്തില 100
▁protiv 100
шь 100
▁הק 100
▁lyd 100
ችኋል 100
▁lỗi 100
ायला 100
▁१ 100
▁پوچھ 100
▁něco 100
анг 100
്‍ക്ക് 100
পাল 100
▁එයාට 100
uaren 100
▁vodi 100
▁manten 100
▁എന്താ 100
▁Ná 100
▁сакам 100
grupp 100
效 100
▁koordin 100
אַל 100
ias 100
jár 100
තිය 100
▁gia 100
▁таш 100
▁Direktive 100
▁mingħajr 100
▁ផ្សេង 100
▁خش 100
tene 100
▁vær 100
重要 100
чат 100
реж 100
sfor 100
▁apart 100
▁programe 100
▁conform 100
▁promo 100
▁مج 100
▁бур 100
▁обе 100
▁nghe 100
бро 100
ਵਾ 100
ાં 100
▁איבער 100
كس 100
▁negali 100
bina 100
iranja 100
ડો 100
▁groupe 100
▁הר 100
▁czas 100
▁ለመ 100
▁সংবাদ 100
meye 100
▁27. 100
▁Dem 100
मध्ये 100
ieť 100
▁tiempo 100
▁மீதும் 100
▁करे 100
мәгән 100
▁зад 100
议 100
لات 100
▁رىزىق 100
ရေးယူ 100
▁адрес 100
enter 100
stilling 100
lust 100
óc 100
гард 100
▁igual 100
▁Sed 100
læg 100
▁olema 100
▁až 100
▁até 100
nggu 100
▁олдин 100
署 100
代表团 100
ләренә 100
▁دىللىرى 100
▁besoin 100
▁inga 100
inius 100
સ્ટ 100
▁каум 100
▁Igama 100
▁pô 100
▁тек 100
കി 100
fec 100
▁tämä 100
доранд 100
▁কৰে 100
때 100
TAR 100
ៃ 100
▁William 100
▁לח 100
ಿದೆ 100
▁معاف 100
▁žal 100
bër 100
▁Oke 100
tona 100
yp 100
▁кри 100
▁dalla 100
امل 100
panjakana 100
레 100
nė 100
▁Semua 100
▁osoba 100
ению 100
▁visto 100
بين 100
▁Ким 100
гузор 100
El 100
▁hasta 100
казва 100
▁Sor 100
▁prvo 100
oedd 100
تەۋرات 100
▁trước 100
▁ចង់ 100
▁အသံ 100
▁address 100
vät 100
tear 100
DB 100
▁بلند 100
▁लगा 100
▁salah 100
irano 100
פס 100
อยู่ใน 100
▁puno 100
بوون 100
wys 100
团 100
தன் 100
▁παρά 100
▁קינד 100
▁bahwa 100
▁capital 100
▁garant 100
▁Sara 100
▁intra 100
ήσω 100
▁vele 100
▁masuk 100
▁denna 100
▁informāciju 100
сло 100
جھ 100
▁kemm 100
▁Roy 100
▁যাতে 100
デ 100
▁Rec 100
dhe 100
▁جنت 100
meta 100
▁Kü 100
▁rules 100
কু 100
▁كما 100
▁هێز 100
osh 100
▁बारे 100
▁پيش 100
▁2004/ 100
▁taikom 100
▁chlap 100
ሪያ 100
▁nende 100
▁power 100
▁Sep 100
▁tunne 100
ฆ่า 100
▁ҳисоб 100
itelj 100
ሰጠ 100
тата 100
บา 100
elijke 100
ody 100
▁100% 100
ையில் 100
▁kimsə 100
▁stabbilit 100
uran 100
▁friend 100
റു 100
▁ចេញ 100
chtig 100
▁স্থান 100
▁operacij 100
perjodu 100
▁sebelum 100
▁implement 100
▁East 100
▁şu 100
▁stess 100
HI 100
▁পরে 100
েট 100
▁Onda 100
ਆਂ 100
▁mercado 100
سلام 100
før 100
▁kü 100
як 100
wä 100
▁Bueno 100
▁drug 100
enean 100
▁நன்மை 100
ери 100
▁আজ 100
information 100
▁ပြ 100
▁troch 100
għat 100
ixxi 100
▁dessa 100
▁يكون 100
▁Як 100
nelle 100
вая 100
ėje 100
ουλ 100
▁بری 100
▁bals 100
▁Here 100
期间 100
▁njen 100
▁ଆପଣ 100
달 100
▁primi 100
▁שהוא 100
በደ 100
ែក 100
рет 100
▁ihn 100
▁(0) 100
▁kontrole 100
まで 100
▁алу 100
▁панел 100
>> 100
治 100
▁jẽ 100
dılar 100
▁procedure 100
సు 100
igung 100
вести 100
бата 100
▁siad 100
▁முன் 100
▁əhli 100
▁بان 100
шли 100
kket 100
▁телә 100
▁mengu 100
ક્ર 100
▁gizon 100
▁gComhairle 100
▁সৈতে 100
▁бош 100
دد 100
ឡ 100
▁subjects 100
პვე 100
▁Then 100
χε 100
▁maz 100
باب 100
▁ಬಳಸ 100
āla 100
▁igama 100
رک 100
داری 100
▁mynd 100
▁makan 100
prot 100
tool 100
¦ 100
bahoaka 100
▁있었 100
▁ല 100
ēs 100
▁nua 100
▁వె 100
lki 100
▁العامة 100
spel 100
produkt 100
ify 100
området 100
▁Foto 100
▁concern 100
▁6, 100
▁என்னை 100
aspect 100
ssä 100
▁major 100
▁ዓ 100
▁ods 100
ല്ലേ 100
arı 100
▁በእ 100
▁CPU 100
▁Sau 100
▁bela 100
FE 100
ljena 100
ларда 100
ارا 100
▁რპ 100
▁zgod 100
▁eich 100
美元 100
▁guerra 100
lucht 100
▁প্রদান 100
▁behandling 100
ayət 100
tím 100
liek 100
logy 100
થ 100
▁نەرسىلەر 100
mağa 100
▁79 100
jah 100
▁нужно 100
▁susitarim 100
▁சில 100
nav 100
univers 100
▁پکڑ 100
▁faktisk 100
ស់ 100
mara 100
бод 100
▁came 100
▁mondo 100
पन 100
▁Пе 100
▁וא 100
▁sesi 100
дни 100
tér 100
▁ଏବଂ 100
▁ಅನ್ವಯ 100
öld 100
▁vamos 100
▁glad 100
▁ہمارا 100
▁original 100
ድን 100
ुक 100
شتىن 100
pháirt 100
っと 100
▁tämän 100
▁ZA 100
▁форм 100
▁conce 100
94 100
▁зап 100
▁ghlacadh 100
▁সমস্যা 100
▁PNM 100
▁koska 100
्रे 100
▁ɗaya 100
ბპა 100
▁boa 100
กา 100
▁lisa 100
▁चि 100
▁tegen 100
▁santé 100
▁Aug 100
ाल 100
த்தகைய 100
▁фәкать 100
▁patvirtin 100
▁дус 100
vot 100
paka 100
עז 100
ပါ။ 100
ሉም 100
▁pieeja 100
▁حتى 100
▁пры 100
▁alternativ 100
pokoj 100
import 100
служ 100
▁cause 100
▁pož 100
▁krav 100
▁minuta 100
məyə 100
qar 100
▁diz 100
lö 100
кун 100
جار 100
▁алайҳиссалом 100
ání 100
▁المست 100
staviti 100
▁dalis 100
매 100
▁пакь 100
▁nhất 100
▁തങ്ങളുടെ 100
media 100
ките 100
▁pó 100
glob 100
ėms 100
ovima 100
▁atitinkam 100
▁conditions 100
▁خت 100
▁ရ 100
లే 100
▁그런 100
illi 100
▁გვ 100
qat 100
▁واحد 100
▁kompetenti 100
ニ 100
jske 100
ført 100
▁noite 100
▁Street 100
▁Нам 100
нав 100
▁тя 100
▁njim 100
▁ចំនួន 100
ارو 100
▁யார் 100
▁मै 100
▁hep 100
▁existe 100
ئۇلار 100
র্ক 100
ministra 100
כת 100
dist 100
▁gusta 100
▁información 100
বাহ 100
চ্ছি 100
నా 100
▁sais 100
▁ناپ 100
inizi 100
custom 100
zona 100
▁समझ 100
▁Waɗan 100
င 100
▁הענטל 100
▁csinál 100
▁አይደለም 100
wurk 100
ovati 100
aine 100
মন 100
πτ 100
▁baš 100
▁viktig 100
ток 100
▁sat 100
ത്തു 100
▁қара 100
▁رد 100
izzat 100
ሠሩት 100
என 100
dè 100
▁রত 100
imų 100
پەرۋەردىگارىمىز 100
결 100
動 100
▁авыр 100
▁klausim 100
计 100
larni 100
▁Foi 100
▁Να 100
▁Sad 100
ተኛ 100
ดา 100
▁નિષ્ફળ 100
० 100
领域 100
STA 100
place 100
▁Ө 100
▁بیوی 100
mbul 100
▁seç 100
க்கிற 100
▁mənə 100
tās 100
▁bagaimana 100
▁muž 100
▁Они 100
▁jaki 100
▁شۇنداق 100
ZA 100
qab 100
▁informasjon 100
entzia 100
▁eur 100
▁সন 100
▁hours 100
▁legisla 100
سان 100
▁ké 100
▁قويۇپ 100
▁govern 100
▁ತ 100
▁மனிதர்கள 100
▁politisk 100
▁алып 100
vale 100
دع 100
▁itaət 100
оба 100
▁место 100
इसमें 100
▁Há 100
ijoje 100
യ് 100
ჲნ 100
▁Moram 100
vine 100
▁አታ 100
▁Estas 100
ааст 100
▁povedal 100
▁کاری 100
▁ndesịta 100
pjan 100
קס 100
ော် 100
δι 100
▁Ltd 100
▁nesta 100
▁denk 100
ൾ 100
▁hü 100
▁кавем 100
▁uru 100
ஸ 100
ஷ 100
ћ 100
▁Sekarang 100
▁membunuh 100
▁ئارىسىدا 100
▁aktive 100
▁Iphutha 100
▁dà 100
▁darbo 100
▁Stel 100
▁après 100
▁سوف 100
▁Gör 100
ల్ల 100
▁кр 100
படுத்த 100
ишни 100
▁çık 100
▁надо 100
ebilir 100
có 100
▁décision 100
▁កំហុស 100
artha 100
▁ئۈستىدە 100
▁tinggal 100
ninger 100
maksu 100
ሃ 100
▁Ķ 100
жно 100
اتتى 100
অ 100
znak 100
ശ് 100
ଅ 100
▁avo 100
riam 100
ವಿ 100
jme 100
▁Right 100
▁KIGEZWEHO 100
▁beberapa 100
▁បច្ចុប្បន្ន 100
▁beszél 100
▁fos 100
ત્ 100
▁කරන 100
▁כמה 100
ġdid 100
uwe 100
пол 100
כנ 100
എ 100
▁کجا 100
▁mille 100
▁ఉ 100
ોને 100
修 100
像 100
phath 100
▁خرچ 100
minen 100
▁මොකක්ද 100
های 100
▁വല്ല 100
▁thought 100
kää 100
尼 100
ائل 100
תה 100
orde 100
▁ჟმვ 100
อด 100
ക്രമ 100
▁всичко 100
▁எனினும் 100
ظر 100
▁बढ़ 100
▁quello 100
▁zij 100
▁vivo 100
▁substan 100
▁تل 100
▁conclu 100
▁શક્ય 100
▁Бер 100
ої 100
▁công 100
▁गर्दछ 100
▁পালনকর 100
োর 100
▁PC 100
▁контрол 100
фици 100
လိုက် 100
haj 100
▁жоқ 100
▁Czy 100
▁सर 100
fod 100
▁FOR 100
▁jotka 100
lona 100
มิ 100
▁kesk 100
mendu 100
▁flere 100
వ్ 100
▁करीता 100
គ្នា 100
gangatho 100
합니다 100
▁fitxer 100
▁Voices 100
सि 100
▁hint 100
Э 100
▁Eh 100
▁hAirteagal 100
ضي 100
▁Minä 100
بە 100
র্থ 100
prat 100
▁Nah 100
▁കൊ 100
讨论 100
ズ 100
တော့ 100
▁narių 100
ىدە 100
▁ஒ 100
“, 100
▁Кө 100
就是 100
더라 100
▁bone 100
▁Ide 100
เห 100
شته 100
▁यही 100
пам 100
Tra 100
ਥ 100
▁Font 100
▁알아 100
jai 100
▁présent 100
បាន 100
▁Fond 100
ვე 100
特别是 100
▁ҳама 100
ules 100
▁eines 100
▁guztiak 100
▁мой 100
▁Evropsk 100
▁जु 100
▁இருக்கும் 100
ပြု 100
自己 100
Ē 100
ശേഷ 100
▁Nếu 100
ുകയാണ് 100
cke 100
▁hör 100
罗 100
▁ဆ 100
firma 100
▁ഉണ്ട 100
▁kid 100
▁турган 100
▁পৰি 100
llë 100
ajú 100
ሥ 100
▁mitte 100
ਟਾ 100
▁पता 100
തില്‍ 100
мін 100
▁uw 100
▁улардан 100
politika 100
▁Jä 100
olombelona 100
▁mələklər 100
▁resaka 100
್ಯಾ 100
ràna 100
visning 100
▁kienet 100
▁snagu 100
▁ключ 100
ُو 100
▁ūessu 100
▁mest 100
нун 100
ëm 100
itajiet 100
▁kn 100
▁būs 100
▁қў 100
▁Això 100
▁KMail 100
Calendar 100
Man 100
▁önce 100
lwandle 100
▁итте 100
make 100
சை 100
▁देखा 100
พวกเรา 100
čer 100
▁bażi 100
▁Mü 100
近 100
▁સ્થિતિ 100
▁वापर 100
▁πρό 100
▁finster 100
ieve 100
ixa 100
▁absolut 100
рь 100
▁Lar 100
Агар 100
▁vole 100
colo 100
▁valmis 100
▁ше 100
ടു 100
▁Europese 100
▁Pakistan 100
▁respons 100
▁момент 100
▁cose 100
ɓa 100
denza 100
оў 100
▁װע 100
▁kér 100
рлар 100
▁Add 100
נע 100
▁nøkkel 100
▁رئه 100
▁bliver 100
▁کتێب 100
▁വളരെ 100
िश 100
เข้า 100
▁Times 100
čiai 100
▁Evo 100
RL 100
▁drugo 100
지만 100
移 100
▁three 100
gali 100
▁paz 100
▁кылып 100
▁آگے 100
▁ukuya 100
▁بزن 100
▁قۇرئاننى 100
▁начин 100
ীত 100
▁Unter 100
عنقریب 100
▁Αλλά 100
▁76 100
स्प 100
▁olanları 100
ục 100
▁لأن 100
▁кардем 100
▁qoş 100
▁tieto 100
new 100
▁aş 100
ustu 100
▁repe 100
گن 100
▁Toto 100
▁qəlb 100
▁무슨 100
▁Kugaragaza 100
▁બતાવો 100
மைய 100
▁Inform 100
▁शा 100
▁ევკა 100
നേ 100
▁Hä 100
egia 100
עה 100
▁niile 100
▁sustava 100
følg 100
essä 100
αντ 100
ിക്കുന്നു 100
▁больше 100
▁Mogu 100
kart 100
ंट 100
▁جیسے 100
▁vondrona 100
ოპაგ 100
▁மறை 100
▁cú 100
▁نشانی 100
▁Bei 100
▁සැ 100
کردنه 100
▁Scha 100
posta 100
ھال 100
vė 100
wm 100
▁واز 100
▁izvoz 100
pozna 100
ෆ 100
▁Cra 100
▁Reci 100
▁част 100
族 100
▁Über 100
▁রাখ 100
ኙ 100
▁פשוט 100
▁бъде 100
▁çalış 100
මි 100
▁partie 100
▁vores 100
▁gente 100
nivå 100
▁return 100
▁Kes 100
utenti 100
ының 100
▁Taj 100
▁regulas 100
gharịa 100
ጀ 100
▁prosinca 100
▁Kommission 100
▁taż 100
čné 100
▁бергә 100
zeug 100
▁institucij 100
lula 100
▁demm 100
মত 100
清 100
▁худро 100
▁Littãfi 100
▁bhaineann 100
▁nėra 100
▁marina 100
ομαι 100
▁اوپر 100
мәде 100
▁అది 100
▁אומר 100
▁Under 100
മൂ 100
ئۆز 100
▁تلك 100
▁Пера 100
angkan 100
▁seni 100
peniel 100
ljiv 100
▁বান 100
▁stavku 100
▁Një 100
▁jog 100
复 100
▁පුලුවන් 100
▁दोनों 100
▁Ish 100
оят 100
▁இவர்கள் 100
▁Hau 100
▁gee 100
▁გა 100
▁دعا 100
Ö 100
▁minä 100
してる 100
▁रात 100
تش 100
▁pieņem 100
▁집 100
၀ 100
▁melhor 100
▁klient 100
ഴ് 100
▁Danny 100
▁deixar 100
▁Çok 100
נק 100
glas 100
▁Inte 100
ρχ 100
▁negativ 100
▁װײַז 100
ুম 100
vili 100
▁Scott 100
▁देखाउनुहोस् 100
▁शक 100
▁кофирон 100
gata 100
lice 100
เคย 100
inana 100
▁Espa 100
arren 100
িউ 100
njima 100
μι 100
▁ostali 100
τική 100
▁خاص 100
▁বার্তা 100
▁كەت 100
ልክ 100
achta 100
管 100
hni 100
ská 100
এন 100
vous 100
beni 100
koh 100
▁град 100
ටු 100
▁შე 100
File 100
ុំ 100
ćeš 100
gjen 100
exp 100
▁омад 100
▁području 100
회 100
事务 100
▁یمان 100
▁чизе 100
ãye 100
▁AN 100
يدىغان 100
இதை 100
▁түр 100
▁vissza 100
▁learn 100
ència 100
▁بچا 100
▁Whi 100
▁آپس 100
▁Rob 100
▁demokrati 100
▁xəbər 100
▁экан 100
fã 100
ишлари 100
▁должны 100
▁इनकार 100
ထဲ 100
uja 100
▁matière 100
lug 100
▁kör 100
lings 100
ഗ് 100
મા 100
dział 100
▁bilen 100
itel 100
▁files 100
▁bağışla 100
▁ді 100
tsotra 100
മല്ല 100
ÿÿÿÿÿÿÿÿ 100
ชั้น 100
▁දන්නවා 100
▁כדי 100
oare 100
ಂಬ 100
▁خال 100
▁ميشه 100
კარა 100
мол 100
õr 100
umas 100
▁ገ 100
▁dann 100
▁международн 100
▁کيږي 100
shim 100
форм 100
▁doch 100
▁Może 100
ството 100
opa 100
▁кунанд 100
tekst 100
▁bruker 100
וכל 100
▁rus 100
ിന് 100
▁Така 100
toria 100
▁86 100
收 100
论 100
قض 100
▁ئىلاھ 100
▁tirgus 100
ပြောင်း 100
gov 100
▁ўта 100
▁pied 100
▁Ор 100
▁Лу 100
▁باس 100
▁skriv 100
ređen 100
ন্স 100
▁моя 100
▁polisy 100
கார 100
함 100
▁while 100
▁minute 100
πέ 100
▁tomar 100
▁Sarah 100
▁tion 100
សំ 100
چىلىق 100
▁metaboli 100
யுடைய 100
▁berada 100
▁specific 100
▁Char 100
争 100
ည 100
tour 100
▁Europeiska 100
▁അതു 100
nyň 100
рту 100
uithe 100
▁medidas 100
най 100
UD 100
▁কল 100
▁wait 100
ларның 100
▁tard 100
▁بدات 100
▁دڵنیا 100
▁حرام 100
▁رکھتا 100
ഷ്ട 100
▁қилма 100
▁sted 100
வரை 100
▁നിന്ന 100
▁spraw 100
systemet 100
ကျ 100
вяз 100
▁लोड 100
▁hely 100
ště 100
нак 100
▁Umurongo 100
▁Igihe 100
▁kwalunk 100
จริงๆ 100
▁karɓ 100
▁유 100
たち 100
ваць 100
▁bí 100
āja 100
▁ئاو 100
ෙනවා 100
▁oleks 100
▁അദ്ദേഹ 100
聞 100
▁obr 100
أن 100
▁ġimgħa 100
▁бузург 100
▁ඔවුන් 100
ဒီဗီဒီ 100
หน่อย 100
▁하지만 100
služ 100
ктив 100
▁Wanda 100
▁nech 100
ēti 100
្ល 100
▁fordi 100
▁тав 100
moi 100
owych 100
íme 100
▁gabãnin 100
▁бара 100
къде 100
제 100
老 100
▁گوش 100
▁хоҳад 100
▁لکھ 100
▁Ста 100
▁पो 100
▁стр 100
▁ردگارت 100
Kon 100
zego 100
▁በማ 100
hä 100
▁ਚੋਣ 100
▁Bə 100
▁grave 100
ชา 100
▁వా 100
cade 100
▁Давай 100
vida 100
▁nampi 100
стр 100
▁Ora 100
▁colle 100
பெ 100
▁wieder 100
ହେ 100
▁teisės 100
디 100
▁කෙනෙක් 100
줘 100
▁bilaogy 100
▁Dokument 100
▁Имам 100
▁ទាំង 100
▁ڵک 100
oit 100
▁salla 100
مكن 100
▁bauta 100
WM 100
ියා 100
▁қилганлар 100
▁Nama 100
ുന്നവന 100
▁Normal 100
тары 100
▁CH 100
▁Ү 100
▁clar 100
▁Anne 100
rón 100
▁ऐसा 100
გაქ 100
▁दर 100
▁Resim 100
▁mee 100
▁autori 100
▁paredz 100
ற் 100
FTP 100
fant 100
▁inkar 100
▁refu 100
▁Skal 100
▁сите 100
likdə 100
sive 100
▁Мис 100
▁vyp 100
બા 100
object 100
▁Deci 100
قدر 100
éadfaidh 100
cino 100
▁sier 100
▁viena 100
▁Унга 100
▁toepassing 100
үл 100
trano 100
▁drink 100
▁نەرسىلەرنى 100
που 100
தும் 100
tór 100
▁burua 100
бър 100
▁unutar 100
▁August 100
▁Republik 100
vista 100
▁vē 100
▁honum 100
ាត់ 100
diyiniz 100
▁želiš 100
들은 100
▁ئوت 100
ţ 100
▁ती 100
phathi 100
▁Vậy 100
▁gargaɗi 100
▁қандай 100
▁पूरा 100
DM 100
สอง 100
curso 100
▁ഗ 100
font 100
▁Пи 100
тур 100
ਟੀ 100
üzə 100
▁tark 100
▁हाल 100
mono 100
атын 100
▁אותה 100
▁Hvem 100
care 100
چک 100
▁dot 100
▁እንዳ 100
▁ktorý 100
دایه 100
ኾናችሁ 100
OU 100
▁панель 100
TP 100
▁شن 100
cita 100
▁સા 100
ức 100
ларды 100
▁ataon 100
োৱা 100
▁کرێت 100
шел 100
icamente 100
▁ତ 100
dition 100
క్ష 100
▁ବା 100
空 100
▁CUPS 100
▁तुम्ही 100
▁זאת 100
注意到 100
▁waqt 100
▁protection 100
▁male 100
ಲ್ಲ 100
▁توبہ 100
▁niečo 100
▁tega 100
样 100
▁Bah 100
1: 100
▁fjern 100
▁জীবন 100
уп 100
מל 100
▁profession 100
▁AD 100
▁எல்லா 100
▁anni 100
▁smatra 100
iset 100
dalàna 100
пиш 100
▁fyr 100
但是 100
حل 100
▁kaže 100
ızı 100
kî 100
▁sãm 100
tuz 100
세요 100
μό 100
▁níos 100
jām 100
▁მნჲდჲ 100
raya 100
ット 100
▁ببه 100
▁shko 100
▁Ayah 100
▁Pil 100
▁Out 100
▁орган 100
കൊടുക്ക 100
พอ 100
zọ 100
ости 100
▁joan 100
▁berkata 100
يمىز 100
▁sorry 100
âm 100
ટો 100
开展 100
setshenziswa 100
▁ਪਰ 100
hazi 100
▁kakhulu 100
خان 100
មាន 100
▁permanent 100
কের 100
▁گرت 100
▁bãyar 100
▁செய்கிற 100
▁laifi 100
іс 100
лом 100
▁வரை 100
▁ўшалар 100
2015 100
▁これ 100
▁ア 100
▁systém 100
▁offentlig 100
▁rano 100
▁шар 100
▁prem 100
▁Send 100
▁देता 100
▁kultur 100
leka 100
ール 100
▁واضح 100
▁täällä 100
▁тап 100
ထားသော 100
மும் 100
▁ν 100
ските 100
▁อย่า 100
▁பெற 100
▁zalım 100
▁nezi 100
どう 100
▁deur 100
▁Vers 100
sebenza 100
lub 100
▁pateikt 100
▁በአ 100
▁MD 100
সের 100
ېل 100
罪 100
▁Inyandiko 100
ವಾ 100
جز 100
chair 100
līdz 100
▁Дали 100
▁Чун 100
▁susijusi 100
tiđ 100
AU 100
▁নির্ 100
sija 100
เซ 100
عيد 100
▁آب 100
▁نێوان 100
▁نقصان 100
▁کیلئے 100
▁Пере 100
▁алма 100
әдер 100
▁monet 100
On 100
产 100
▁yeri 100
GR 100
▁Τα 100
▁دیئے 100
▁Rock 100
▁Rəbbi 100
ตา 100
кий 100
நீங்கள் 100
wyr 100
▁holl 100
rrera 100
▁mrež 100
szé 100
خبر 100
ڭلاردىن 100
▁trova 100
消 100
▁рече 100
복 100
▁ব্যা 100
▁ਕੀਤਾ 100
▁قر 100
ของคุณ 100
▁lielā 100
dokument 100
▁leven 100
▁เพราะ 100
▁může 100
itate 100
trakt 100
ूल 100
▁parlar 100
▁beslut 100
▁Turk 100
раж 100
▁pomoći 100
▁yüz 100
ಒ 100
▁ជំនួយ 100
국 100
फ् 100
▁Niko 100
ாமல் 100
prodotti 100
▁يالغان 100
▁하나님 100
قابل 100
jera 100
યો 100
▁130 100
▁فرا 100
▁برو 100
▁의 100
šči 100
rifi 100
▁ÇáÓÇÚÉ 100
▁በእናንተ 100
פעם 100
▁mellem 100
▁Sort 100
xin 100
▁aš 100
▁τ 100
▁એક 100
▁videl 100
там 100
▁যাও 100
وض 100
ணை 100
▁gé 100
▁verđur 100
амиз 100
▁रु 100
คืน 100
زندہ 100
▁dealbh 100
▁ریان 100
▁Play 100
שת 100
meid 100
▁Áno 100
କର 100
▁dato 100
▁ташла 100
уваш 100
▁patro 100
▁verđ 100
▁দ্বাৰা 100
▁trabajo 100
▁Được 100
▁হলে 100
لىشى 100
▁خور 100
▁úgy 100
▁ମ 100
тельно 100
tív 100
આ 100
▁nwere 100
odwa 100
puol 100
▁මැර 100
▁medio 100
bec 100
ész 100
候 100
▁navigation 100
▁ÇáÂä 100
ষ্ঠ 100
צה 100
▁कहते 100
▁የኾኑ 100
▁پەرۋەردىگارىنىڭ 100
óidh 100
▁χρ 100
সব 100
ۇت 100
▁esca 100
▁ڕێنموویی 100
-8859-1 100
▁hace 100
▁putem 100
▁essa 100
▁girl 100
▁Slu 100
▁asja 100
ื้อ 100
▁comuni 100
▁நம்பிக்கை 100
▁കഴിയ 100
▁nbsp 100
▁ainm 100
ോട 100
әчәк 100
▁پېل 100
يح 100
ksin 100
ified 100
▁continue 100
*** 100
▁druga 100
erende 100
ላት 100
▁مردم 100
▁വേണ്ട 100
dire 100
▁Anti 100
▁ઉ 100
้อ 100
nene 100
issä 100
▁кардан 100
ของฉัน 100
Institut 100
查 100
bane 100
项 100
ുന്നതാണ് 100
系统 100
▁Charles 100
ญ 100
▁relativa 100
▁விட்டும் 100
▁برائی 100
▁masalah 100
гир 100
▁ഇനി 100
▁kamera 100
▁tvoja 100
ಿಸಿ 100
れて 100
▁faýl 100
▁പോലെ 100
警 100
ؑ 100
▁aig 100
riana 100
ስት 100
▁grafi 100
▁bylo 100
सन 100
Яън 100
รถ 100
white 100
riya 100
дағы 100
▁mengha 100
disk 100
ወጣ 100
read 100
▁lehet 100
▁baby 100
▁দাও 100
ordre 100
▁transform 100
▁Klas 100
 100
救 100
▁Ibisobanuro 100
▁Mburabuzi 100
▁மற்றும் 100
▁faktor 100
▁rezerv 100
olta 100
ците 100
▁فرمان 100
ିବା 100
▁দেখে 100
▁prend 100
host 100
▁ئۇرۇش 100
אות 100
▁кур 100
кро 100
诉 100
▁جدا 100
▁gondol 100
ுகிறது 100
▁چشم 100
ылган 100
▁sov 100
ത്തിന്റെ 100
▁ondo 100
στρ 100
其中 100
ٹھ 100
▁drugih 100
hid 100
▁Exp 100
통 100
▁بدون 100
▁Аңа 100
deling 100
▁ancora 100
▁Kies 100
เส 100
▁estos 100
્યા 100
▁சொல்ல 100
▁certo 100
▁رکھو 100
います 100
andeha 100
▁görün 100
▁অবশ 100
начал 100
lingen 100
▁зам 100
ينه 100
ilmiş 100
▁Cour 100
ត្ 100
▁drugim 100
▁Bin 100
інің 100
视 100
▁Lãhira 100
▁flimkien 100
▁क़ौम 100
▁pärast 100
▁valami 100
▁감 100
▁leave 100
▁européenne 100
▁минем 100
তন 100
▁əs 100
lassen 100
▁ҳаст 100
فس 100
öz 100
ню 100
ਹੀ 100
ники 100
▁çevir 100
▁очень 100
▁beni 100
▁그들은 100
தூ 100
▁кач 100
ഞ്ഞു 100
▁özün 100
▁inona 100
▁mila 100
ىنىڭ 100
▁futhi 100
▁Temp 100
නී 100
▁Italia 100
▁داری 100
trasport 100
maga 100
▁ike 100
▁nếu 100
▁meno 100
ёл 100
▁onze 100
جال 100
طلب 100
▁лиц 100
▁git 100
▁nature 100
над 100
▁файла 100
vok 100
▁ඔය 100
▁2008, 100
▁Euratom 100
နဲ့ 100
▁Ibikubiyemo 100
▁Раббым 100
후 100
▁ไป 100
▁2: 100
өт 100
ѓа 100
▁دیکھتے 100
iyyət 100
▁priprav 100
▁הע 100
বান 100
mut 100
▁Iš 100
attiv 100
ੋਲ 100
ீராக 100
ψη 100
愿 100
▁71 100
▁Gus 100
olon 100
▁ūiđ 100
rist 100
View 100
▁призна 100
মের 100
нер 100
hver 100
produzzjoni 100
vang 100
▁cadre 100
▁Mali 100
ajte 100
▁хәерле 100
▁হিসেবে 100
▁સક્રિય 100
▁might 100
دين 100
inama 100
sional 100
ңыз 100
üyor 100
▁кешене 100
▁Wer 100
זי 100
ograf 100
ımı 100
▁የኾነ 100
げ 100
▁İbrahim 100
▁tốt 100
ปี 100
▁piu 100
▁visit 100
▁informazzjoni 100
เพื่อน 100
▁میان 100
▁orgán 100
гов 100
RM 100
ĝa 100
▁ana 100
ହୋଇ 100
키 100
▁लगे 100
পে 100
бач 100
vietnam 100
▁Hem 100
veur 100
▁navedeni 100
▁ഒന്ന 100
wane 100
▁бўлиши 100
▁yox 100
▁Molim 100
▁varētu 100
سے 100
▁aukera 100
▁قىلىن 100
▁области 100
▁resultat 100
▁Hallo 100
gnet 100
ज्ञा 100
wię 100
获得 100
▁feidhm 100
▁Feder 100
صور 100
्ने 100
▁yêu 100
birin 100
ানো 100
uoja 100
▁Ireo 100
naud 100
ყნ 100
▁wid 100
воз 100
▁المع 100
▁pirms 100
▁šā 100
▁তর 100
▁Day 100
▁Marc 100
才 100
▁döndər 100
▁более 100
ပိုင်း 100
CS 100
▁Jūs 100
▁grei 100
مين 100
▁szám 100
yari 100
▁miña 100
kast 100
▁دیکھو 100
יע 100
▁誰 100
▁خون 100
▁iestādes 100
怎么 100
▁dieđiha 100
▁Kubika 100
▁kanal 100
500 100
▁ئىشەن 100
تَ 100
▁cuid 100
ачак 100
▁Atlant 100
▁vlastn 100
▁fikir 100
idas 100
▁मार 100
kü 100
▁dru 100
ిక 100
stīt 100
▁Nan 100
▁kodwa 100
پر 100
▁nustatyti 100
مَ 100
ങ്ങളില്‍ 100
▁गर 100
▁אולי 100
▁Parlement 100
▁dó 100
▁দেখতে 100
جان 100
▁мөэминнәргә 100
▁那 100
▁kohë 100
gifter 100
▁UTF 100
▁tuleb 100
▁són 100
人的 100
лот 100
ன்ற 100
draharaha 100
mbara 100
▁اہل 100
▁yom 100
limit 100
▁chuig 100
▁নোৱাৰি 100
ğı 100
希望 100
意见 100
▁peyğəmbərlər 100
▁conven 100
ении 100
መን 100
ൊന്നും 100
▁institucija 100
ización 100
▁toute 100
онӣ 100
▁Він 100
▁Dig 100
ssar 100
ikat 100
▁този 100
▁note 100
▁License 100
▁forbindelse 100
дим 100
cente 100
ସ୍ 100
rzh 100
▁ڈرتے 100
tvrd 100
ларыннан 100
/2012 100
cijos 100
ਿੱ 100
ænd 100
വിധ 100
▁filtr 100
скиот 100
▁decir 100
▁එයාල 100
)* 100
▁રીતે 100
▁medic 100
▁کھول 100
实施 100
οφ 100
CL 100
আই 100
▁hartu 100
▁«( 100
一项 100
▁يەھۇدىيلار 100
நிச்சயமாக 100
指出 100
▁haren 100
২ 100
ပုံ 100
▁بیر 100
▁üstün 100
▁gesch 100
▁ƙi 100
KI 100
▁உறுதி 100
ował 100
▁Ўз 100
▁गा 100
▁लड़ 100
▁ทําไม 100
úla 100
▁mesures 100
ראש 100
▁Suka 100
σμ 100
▁spoločn 100
▁дали 100
▁진 100
ەۋ 100
java 100
മു 100
▁Show 100
produc 100
دانی 100
▁जाता 100
▁بهت 100
pari 100
▁Finn 100
wanga 100
▁audio 100
ርሱ 100
▁Mid 100
依 100
হে 100
▁интихоб 100
▁ડિસ્ક 100
▁जानता 100
▁sola 100
ratra 100
▁poate 100
▁огоҳ 100
▁priede 100
▁منو 100
▁recent 100
txo 100
▁ہوتی 100
ਓ 100
▁مومن 100
′ 100
▁thabhairt 100
반 100
▁этот 100
▁پەر 100
▁يېنى 100
▁example 100
▁nõu 100
▁terra 100
▁Сез 100
▁Ubangijinku 100
head 100
ški 100
cine 100
দ্ 100
▁PRE 100
gry 100
▁chuid 100
யு 100
မရ 100
piti 100
▁உமக்கு 100
▁nouvelle 100
▁сообщ 100
▁случи 100
αμε 100
▁والت 100
тың 100
ះ 100
▁Okej 100
▁personnes 100
ונה 100
▁stabbiliti 100
▁otsus 100
▁Radio 100
poved 100
▁Dur 100
navn 100
ших 100
ബ് 100
置 100
دام 100
▁һичкем 100
▁વપરાશકર્તા 100
▁булсын 100
▁parla 100
จํา 100
êm 100
phutha 100
æg 100
▁thích 100
ovolj 100
kg 100
▁Shift 100
▁পারবে 100
xen 100
cula 100
പാ 100
lect 100
қу 100
hets 100
േക്ക് 100
γε 100
▁друго 100
▁Ela 100
▁саклан 100
▁අව 100
▁Sand 100
ত্ব 100
Kom 100
ጃ 100
liza 100
▁зулм 100
▁edit 100
πό 100
▁ап 100
▁Prze 100
ਫ 100
▁ئاخىرەت 100
کاری 100
▁κά 100
▁کہو 100
መራ 100
యు 100
▁thành 100
▁উল্লেখ 100
체 100
दर्श 100
▁peuvent 100
▁gördü 100
nferm 100
defini 100
▁obraz 100
▁åt 100
▁moyen 100
jima 100
▁dai 100
ട് 100
▁таъ 100
▁پسند 100
判 100
▁airgeadais 100
ሊ 100
▁KB 100
broj 100
дите 100
▁proizvodi 100
▁faoin 100
▁fråga 100
ráid 100
▁پڕ 100
▁一 100
nál 100
kkal 100
lank 100
تۇق 100
▁pensar 100
冲突 100
▁finanšu 100
▁ħafna 100
▁потреб 100
▁atveju 100
▁очиқ 100
▁арт 100
▁työ 100
▁tien 100
▁mucho 100
▁китереп 100
erede 100
▁effett 100
▁haber 100
ذي 100
ാനും 100
ční 100
▁ន 100
ANA 100
▁ignor 100
▁senin 100
▁حالت 100
▁comunica 100
χαρ 100
ढ़ 100
▁பிர 100
▁אױף 100
▁procedūra 100
▁تەلەپ 100
fyn 100
ланган 100
▁traži 100
▁قالىدۇ 100
▁yesi 100
▁host 100
ezh 100
▁Kde 100
jedno 100
skatīt 100
▁Palm 100
uję 100
kuba 100
र्ज 100
▁בח 100
▁પ્રકાર 100
▁cando 100
▁mamma 100
▁oficial 100
gtig 100
▁שו 100
强 100
vari 100
▁Δε 100
▁монафикълар 100
▁müşriklər 100
▁بچه 100
ாக்க 100
Ć 100
增加 100
▁ھارام 100
▁يېقىن 100
▁̈ 100
руг 100
უა 100
▁നില 100
▁zabav 100
zzi 100
образ 100
▁زیندوو 100
▁یقین 100
ыбыз 100
▁music 100
▁เป็น 100
▁polis 100
▁ahy 100
toi 100
▁അടുത്ത 100
▁Аллоҳдан 100
▁Jis 100
▁បិទ 100
▁Аммо 100
▁Dacă 100
▁nevar 100
▁talk 100
▁soll 100
▁lec 100
▁profes 100
▁tavo 100
dora 100
euro 100
ेगा 100
▁izvan 100
αλλ 100
¿ 100
čku 100
arotra 100
▁тази 100
▁يە 100
ranno 100
▁nurodyta 100
▁әйтерләр 100
сәгез 100
тся 100
eşti 100
RES 100
prast 100
rru 100
Ω 100
▁эргаш 100
▁ចូល 100
▁zituen 100
තා 100
rip 100
每 100
okuqala 100
▁glo 100
kami 100
[...]
